#version: 0.2
Ġ t
Ġ a
h e
i n
r e
Ġt he
o n
e r
Ġ s
Ġ w
a t
Ġ o
e n
Ġ c
i t
i s
a n
Ġ b
o r
Ġ f
e d
e s
in g
Ġ p
o u
Ġa n
Ġt o
a l
a r
Ġ m
Ġ in
Ġo f
Ġ h
Ġ d
Ġan d
a s
â Ģ
Ġt h
i c
l e
o m
i on
en t
l l
Ġ n
Ġ l
Ġ re
s t
v e
l y
Ġ e
Ġb e
Ġ g
r o
i d
u t
a c
o t
Ġth at
Ġ on
Ġ T
Ġ I
a y
Ġ is
i m
s e
a m
âĢ Ļ
a d
Ġf or
o w
e t
i g
Ġ S
v er
l d
Ġ A
u r
c t
Ġ u
Ġs t
Ġ it
Ġ y
Ġ C
Ġ he
Ġw h
i r
it h
at ion
c e
Ġw e
t er
o l
Ġw ith
Ġ M
Ġa s
i l
c h
i ll
Ġ B
n d
Ġw as
er s
k e
Ġ âĢ
Ġy ou
Ġc on
Ġd e
Ġ r
he r
i f
at e
Ġ P
Ġa t
Ġh a
Ġs e
Ġp ro
a g
o re
u l
p p
Ġa re
Ġ W
Ġc om
Ġf r
m ent
Ġ H
es t
is t
an d
u s
a in
o p
ĠT he
ig h
r i
or t
Ġn e
Ġ D
Ġe x
Ġ R
o d
Ġ 1
âĢ Ŀ
u m
re s
Ġn ot
Ġha ve
u n
ou ld
a b
Ġ 2
es s
Ġo r
it y
Ġ v
Ġ F
e m
Ġb y
ar t
an t
i ve
Ġfr om
Ġa l
Ġ (
o s
Ġ N
Ġs u
t h
o c
' s
Ġs h
Ġ G
n t
e l
Ġth is
q u
Ġ le
igh t
u st
p e
i es
en d
Ġc h
Ġa b
Ġ L
ou t
Ġs a
ĠâĢ ľ
Ġh as
al ly
al l
re d
ac k
Ġp l
i e
Ġ E
Ġg o
T he
Ġh is
om e
i v
g h
ar d
e ar
Ġt r
Ġ J
o st
Ġ j
as t
a p
ou r
a k
u d
Ġthe y
0 0
Ġb ut
Ġd o
Ġw or
Ġ O
Ġw he
r ou
Ġw ill
Ġc an
ic h
Ġsa id
g e
Ġwh o
Ġa ll
Ġ k
Ġ U
Ġin t
o k
Ġthe ir
id e
t her
Ġo ut
an s
Ġ "
am e
i al
on g
f f
e ct
ic e
p l
Ġm ore
u re
Ġu p
on e
i ke
ion s
ou s
ac t
p t
Ġm e
Ġa d
Ġab out
ag e
in e
Ġon e
Ġwe re
Ġs o
at ed
Ġh ad
Ġu s
im e
Ġwh ich
Ġw ould
b er
c c
e p
r a
Ġc l
Ġ im
Ġa g
o g
a re
u b
ver y
Ġt e
a ke
Ġof f
Ġcon t
Ġcom p
in d
i z
Ġbe en
i a
u e
Ġu n
Ġ K
Ġ en
a u
Ġy ear
s o
ig n
p er
Ġ2 0
ĠT h
Ġl ike
Ġin c
Ġp e
v en
ar y
Ġm an
ac e
i p
o se
ay s
ĠS t
Ġp er
e w
Ġre s
Ġs p
e re
r y
Ġo ther
o ok
m er
ab le
Ġs ome
it e
or d
op le
as s
i re
i le
en ce
Ġo ver
ĠI n
i b
Ġthe re
Ġbe c
Ġth an
ation s
Ġd is
ic al
Ġthe m
Ġal so
Ġne w
ou gh
res s
ul t
Ġp art
k s
ou nt
Ġwhe n
Ġa r
Ġa pp
Ġpe ople
ow n
in t
an ce
f ter
p ort
Ġwh at
Ġs c
Ġit s
re e
Ġ20 1
Ġ qu
r u
Ġj ust
or m
on d
Ġp r
Ġan y
a il
Ġyou r
ĠI t
Ġt ime
as e
Ġre c
ac h
Ġk n
Ġhe r
a v
ĠC h
Ġ if
Ġint o
Ġwor k
re at
Ġg et
. âĢĿ
en s
l ic
Ġm y
Ġt w
ir st
i an
ve l
Ġn o
ou nd
d u
Ġ Y
ct ion
id ent
ing s
Ġo ur
it ion
or s
Ġp re
Ġpl ay
au se
Ġc o
ic k
Ġ V
w n
or y
o b
Ġp ol
at es
h ing
ad e
an g
it t
Ġ ro
in k
Ġa fter
Ġs he
Ġ 3
Ġc ould
Ġf irst
ar k
am p
Ġh ow
, âĢĿ
Ġa cc
ver s
o ve
ĠH e
i ous
Ġh im
nd er
Ġp o
Ġon ly
Ġat t
i ld
a w
n e
Ġf e
Ġtw o
on s
he d
Ġcom m
ic t
Ġ1 9
' t
Ġa ct
Ġs er
Ġs pe
Ġde c
is h
Ġbe t
f orm
o v
Ġb l
w e
Ġm ost
Ġb ack
n ing
f t
rou gh
c es
t e
Ġa m
. "
Ġag ain
âĢ ľ
rou nd
if f
Ġbec ause
o od
Ġd id
Ġu nder
o y
ĠâĢ Ķ
Ġd es
at er
Ġcon s
Ġw ant
d ay
u al
Ġ -
Ġyear s
c k
l ud
se l
ub lic
Ġe ven
Ġin v
Ġne ed
r it
ent s
ter n
Ġn ow
u ll
Ġin d
c ed
Ġse c
Ġkn ow
m an
Ġse e
f ore
Ġe very
Ġad d
u ch
is s
Ġm ake
ĠW e
o ld
Ġsu pp
Ġe m
Ġwhe re
ĠâĢ ĵ
ment s
pe ct
Ġthe se
Ġ $
ver n
e c
ur n
ation al
, "
ĠU n
is e
j ect
Ġw ay
Ġb u
Ġbe ing
Ġe v
Ġman y
Ġ 4
ĠA nd
Ġp os
Ġl ook
ĠB ut
at ing
um p
Ġd on
Ġre m
Ġinc lud
Ġr ight
Ġm ay
Ġthe n
oc k
Ġre l
Ġd iff
I n
Ġde f
le ct
Ġc all
as on
mer ic
ak ing
i ly
Ġre g
Ġth rough
ro w
x t
Ġim p
as ed
Ġl ast
Ġth ink
Ġp res
Ġth ose
i ed
ur ing
n g
Ġf l
it ed
ĠT r
o ll
Ġ very
Ġs y
Ġs ay
Ġsh ould
Ġst ate
Ġm uch
Ġsh ow
it ies
ot her
Ġb r
Ġc ount
) .
Ġwe ll
at ive
ĠTh is
ri b
ie w
if ic
ow er
l es
t s
Ġ 5
Ġo wn
at h
ar ly
ot h
t ing
Ġ end
v ed
Ġgo vern
ar g
T h
he n
ĠA meric
u nd
in ce
Ġp h
Ġd own
Ġdo es
Ġu se
Ġbe fore
Ġl ong
e ll
Ġm on
om et
al s
s s
ter s
an ge
Ġbe l
Ġte am
w ard
ic s
t y
Ġst art
ib le
g r
Ġ ke
Ġre port
Ġf in
Ġm ade
Ġsu ch
Ġ2 00
on t
ĠW h
u es
Ġwor ld
Ġas s
ou n
u ally
Ġgo ing
Ġhe l
ol og
b le
Ġst ud
ist s
en er
f ul
Ġa c
Ġs m
) ,
if e
. .
Ġwe e
re n
u p
ers on
Ġagain st
il ity
t ain
is m
Ġs ur
ĠN ew
Ġgo od
Ġe ff
Ġsu b
l i
Ġg ame
Ġwh ile
Ġ ent
Ġpo int
ill ion
Ġle ad
g an
Ġs et
Ġst ill
Ġg u
Ġhel p
it s
rou p
v ing
st em
we en
Ġpro du
or k
ar s
Ġm in
Ġo b
im es
y s
Ġg r
Ġs im
Ġst r
Ġin st
m s
Ġcon f
c y
Ġin ter
c ess
Ġs ays
I t
Ġt ake
Ġs ame
Ġc ol
Ġoff ic
sel f
al k
Ġpro v
Ġbet ween
Ġdis c
Ġgovern ment
a x
Ġth ough
Ġl aw
âĢ Ķ
Ġc r
Ġdiff ere
i x
00 0
Ġh igh
e ver
an k
Ġo p
us s
Ġn um
c ent
Ġs ign
u res
ut ion
h ip
an y
re ad
Ġt er
ar ch
l ed
Ġs omet
o ol
e f
a ir
w ay
vel op
Ġre f
i o
g g
Ġin s
Ġa round
Ġr un
l and
Ġth ree
Ġtr ans
n er
Ġm em
Ġf ound
Ġm ed
am es
Ġre al
iv es
he s
at her
. [
Ġg roup
Ġsy stem
Ġex p
Ġus ed
ou se
Ġre ally
v es
Ġp ublic
Ġsupp ort
Ġspe c
c on
e e
ce pt
Ġc our
a h
y ing
Ġ 6
Ġh and
c er
o ot
Ġg reat
at ch
oll ow
Ġm od
c i
Ġre t
en se
Ġex t
ĠThe y
Ġf am
Ġc ar
c om
a ve
Ġc ur
ĠTr ump
Ġf act
Ġb oth
Ġex per
W e
Ġw om
Ġre p
al th
a z
ĠY ou
al e
ire ct
Ġf ind
Ġd ay
Ġha pp
Ġd uring
ic es
ul ar
m in
ĠA r
Ġc ap
Ġde velop
Ġmon th
Ġs l
Ġhe re
Ġd et
Ġb ig
Ġs ince
Ġa ut
ĠF r
Ġc re
in s
ĠA l
e red
ĠA s
ord ing
Ġto ld
Ġp erson
Ġwee k
p r
ic ally
p h
Ġpol it
is ion
ĠI s
in es
Ġis s
t on
Ġle g
Ġf ew
Ġc ent
ak es
g et
ĠR e
Ġw ar
a red
Ġre ad
t he
Ġo pp
i vers
Ġl ot
ĠC om
m ed
Ġbel ie
a j
Ġ1 0
o h
Ġex pl
ort h
Ġg ener
i et
Ġf ollow
Ġp ut
Ġpro t
Ġf il
b ers
Ġto o
Ġc le
ent ion
Ġre qu
ĠI f
ĠC l
re nt
Ġan other
e x
Ġinv est
Ġsomet hing
Ġs oc
r ic
iz ed
Ġdiffere nt
Ġcont in
Ġl oc
ch ool
d er
Ġcomm un
Ġp ower
an c
Ġc amp
Ġres p
Ġin f
Ġc or
Ġv ot
Ġpl an
Ġp ass
Ġf ar
n ess
i ence
as h
Ġpos s
ag es
Ġ [
Ġre le
Ġ 7
Ġm ight
Ġhe ad
n ed
Ġth ings
u c
ĠL e
at a
ut e
Ġb o
Ġl ife
Ġde p
ro ss
Ġm ark
Ġc he
in ess
Ġb us
th ing
Ġch ild
Ġad v
et s
Ġch ar
Ġall ow
Ġper cent
Ġm et
Ġe ach
ere st
Ġde m
ant s
Ġne ver
od y
Ġcom e
Ġsec ond
at t
Ġb est
Ġne xt
Ġas k
Ġar t
ĠS h
Ġse em
Ġop en
ĠTh at
Ġqu est
i ent
iz e
re t
Ġg ot
ie ld
Ġp ri
it al
itt le
r at
i er
Ġd irect
Ġfe el
ĠâĢ ĺ
t en
gr am
Ġinclud ing
Ġh ome
Ġinc re
n ce
Ġd ist
Ġm illion
Ġh ard
v iew
Ġcont ro
ĠR ep
i red
con om
ĠF or
Ġcount ry
ĠD e
Ġc are
Ġw r
ate ly
Ġ 8
Ġim port
l ess
Ġwith out
l ing
Ġpl ace
Ġres ult
Ġcomp le
ĠU S
Ġh um
Ġ ide
er v
ch n
Ġrec ent
Th is
p le
Ġp ost
i k
Ġpro ble
Ġbu ild
Ġnum ber
ab ly
Ġf our
a im
or n
os ed
Ġse ason
ĠS e
Ġin form
Ġto p
am a
Ġst and
Ġpart ic
Ġa v
g y
ĠA n
one y
Ġbet ter
Ġint erest
Ġl ess
Ġm ov
Ġ 9
Ġg l
u ro
Ġm il
s on
Ġapp ro
r ation
Ġe l
w ays
Ġcall ed
Ġt ri
Ġbe h
Ġt urn
Ġl ittle
Ġ '
is hed
Ġan n
Ġ ed
Ġb ro
is ed
r al
Ġp op
Ġle t
Ġc ase
Ġm ove
Ġre st
u g
r act
Ġd r
aj or
en cy
Ġke ep
Ġle ft
ĠThe re
er ing
le g
Ġser v
Ġatt ack
Ġpro gram
os s
Ġe conom
Ġpre v
Ġp ay
Ġdid n
W h
l ine
c o
ĠP ro
t ed
ĠAmeric an
Ġf ull
Ġm ain
Ġpol ice
Ġus ing
Ġeff ect
re m
a pp
read y
ĠI nd
Ġt est
Ġs chool
Ġpres ident
in a
at ure
Ġsm all
B ut
Ġw in
Ġv al
Ġcomp any
iv ing
c l
Ġfor m
Ġd ata
b e
Ġf un
pl oy
Ġwom en
in al
id ed
ar ge
ĠB l
Ġpr om
Ġe as
Ġnew s
Ġpro cess
ain s
Ġle vel
Ġre ce
in ed
Ġh ist
Ġcur rent
Ġ .
Ġre se
Ġal ready
Ġch ange
ĠS o
i ans
h or
t o
Ġd ri
olog y
ĠUn ited
us ed
Ġbus iness
ir d
Ġte chn
e ad
Ġl ist
Ġoffic ial
Ġ Z
Ġor gan
Ġu nt
Ġm oney
a ign
Ġex pect
g er
Ġs ol
Ġj ob
Ġm ajor
' re
Ġb re
Ġcl aim
Ġal ways
Ġab le
Ġl ater
Ġpro ject
ĠO b
end s
Ġm at
Ġpro f
u ck
od e
Ġwh y
st and
Ġb ook
Ġp ast
Ġhe alth
Ġdes ign
Ġt y
er tain
ĠA t
Ġth ing
ru ct
Ġc ity
iv en
Ġt alk
ĠCh r
ĠS he
Ġcl ass
ivers ity
re en
Ġo per
as es
Ġe le
a ff
Ġimport ant
Ġp ur
Ġa way
Ġinform ation
ard s
2 0
end ing
Ġcamp aign
Ġch ang
Ġv is
Ġg row
Ġ est
Ġle ast
Ġdoes n
oh n
ĠH ow
Ġf ree
ur al
Ġc ost
i or
- -
Ġm ust
ur ity
ou th
Ġm aking
Ġhapp en
ur y
Ġc ame
Ġen ough
Ġo ld
ain ed
u red
Ġt ax
ac y
ion al
Ġh op
Ġcon st
Ġk ill
Ġpol ic
Ġe lect
Ġs k
Ġl arge
Ġst re
res ident
Ġa ff
Ġp at
Ġd ays
Ġe ar
s ide
Ġk ind
Ġpolit ical
r ap
amp le
Ġm en
iss ion
Ġm ar
id es
he re
er al
Ġte ll
Ġrec ord
ĠRep ublic
Ġv ar
ĠC an
Ġ- -
cc ess
Ġfam ily
ne y
Ġs it
id er
r on
Ġunt il
el s
oc rat
H e
Ġwork ing
Ġde al
Ġst ory
is ing
Ġfr i
Ġde b
Ġfor mer
Ġto ok
pp ed
Ġin tern
iv ed
Ġacc ording
Ġv iew
Ġf und
al f
Ġbec ome
pt ion
Ġf ore
Ġ es
al ity
s c
Ġof ten
Ġact ually
er n
Ġ Q
ot t
Ġ ve
are nt
Ġl ine
ri es
if ied
ĠG o
A s
Ġa ir
i ol
ain ing
us h
y ear
au gh
r or
Ġ 0
ap s
ĠE uro
is ter
m ost
Ġhum an
at or
ĠB e
u ed
Ġg ames
Ġw on
Ġme an
Ġg ive
ĠP h
Ġe ver
ĠD em
ĠR uss
Ġ1 8
le y
ĠA d
Ġse ver
ĠCom m
w ork
o x
Ġb as
Ġmark et
w are
ar ing
Ġor der
ĠJ ohn
Ġt imes
I f
ĠM ar
w h
ĠS p
iz ation
Ġde v
Ġf ac
it her
Ġv ide
Ġper form
Ġwhe ther
Ġplay ers
Ġha ving
Ġs ing
Ġb it
c hed
Ġr a
o int
Ġe arly
on y
Ġdo ing
b y
Ġwor d
ut ure
Ġchar ac
Ġsoc ial
en g
Ġmil it
Ġret urn
Ġsever al
w it
Ġmed ia
an e
Ġapp ear
g in
Ġp ar
Ġc rit
Ġp ot
Ġlike ly
Ġn ight
ĠP resident
Ġev ent
Ġse en
Ġle ar
em ber
Ġyou ng
Ġn ame
art ment
Ġf ive
is on
ak en
Ġchild ren
Ġl a
b s
Ġme et
i ally
Ġto day
Ġmem bers
f or
Ġpro p
Ġp ress
ious ly
id d
Ġc ertain
Ġw ent
ra ft
id ence
ort un
Ġen g
Ġcontro l
1 0
Ġo cc
ĠM c
Ġal ong
it ing
Ġe qu
ĠS y
Ġ1 5
Ġinv ol
Ġsu re
Ġsu ccess
Ġar g
an n
i qu
Ġb en
ĠEuro pe
and s
The re
ro p
le t
Ġquest ion
ĠSt ates
Ġs ide
Ġan t
Ġsh ort
Ġex ample
Ġmonth s
Ġw ater
em pt
ĠOb ama
ĠS c
Ġam ong
ent ial
Ġ19 9
o ad
ĠY ork
Ġd one
Ġ1 2
end ed
Ġwith in
Ġse x
ag ue
Ġh our
Ġon ce
or ies
Ġcour se
Ġf ight
Ġcon cer
b all
ĠO r
Ġinvest ig
Ġunder stand
Ġf uture
Ġpri v
Ġv iol
i ver
Ġme ans
ĠA ll
ĠM ay
ot s
ĠM r
Ġkn own
Ġposs ible
Ġac ross
i um
m ber
Ġact iv
im ate
Ġprodu ct
Ġdes c
Ġaut hor
gg est
ed eral
Ġloc al
Ġ vers
ur s
l f
Ġcommun ity
at s
b r
ĠC on
g ress
Ġproble m
Ġch o
ul ation
iv id
Ġprot ect
ĠP l
Ġh old
Ġthough t
Ġsu ggest
Ġre ason
Ġf ail
Ġn on
âĢ ¦
it ive
ĠB r
u se
n ect
Ġm akes
Ġy et
ens ive
en n
on es
Ġg iven
s h
.. .
ĠW hen
Ġann oun
ag ed
Ġreport ed
ic le
Ġstr ong
p or
Ġw rit
ub l
Ġother s
st er
ĠC ol
Ġm us
Ġbelie ve
Ġpro b
our n
Ġget ting
Ġor ig
i ber
ver age
Ġav ail
it ions
ĠH ouse
u ff
oc i
in c
Ġc ut
Ġcl ose
Ġn ational
ĠDem ocrat
Ġ ident
al d
re w
an ces
Ġl im
b ack
Ġc reat
ir on
Ġind ust
n ot
iet y
ore d
m y
Ġl ight
Ġs ent
ĠSt ate
Ġc a
un e
Ġask ed
Ġn et
en e
l er
Ġem ploy
ĠC ar
Ġcon d
Ġsa f
Ġh ig
Ġl and
Ġstart ed
sel ves
ĠUn iversity
ĠO n
Ġs our
Ġb ased
Ġpart y
am ent
Ġag o
Ġtr ying
ĠChr ist
Ġal most
Ġacc ount
Ġl ow
Ġf oc
Ġcom es
Ġser ies
Ġhist ory
ur ther
ort s
her s
Ġto get
Ġtoget her
as hing
res ent
Ġm om
or ld
th ough
Ġde ath
Ġtr ad
Ġide a
Ġiss ue
m ing
ĠS en
re st
Ġacc ess
5 0
' ve
t t
Ġcle ar
ĠAmeric a
in ation
Ġexper ience
Ġpr act
Ġis n
il ar
Ġh alf
Ġl ove
min ist
Ġimp ro
Ġvide o
ĠN o
Ġavail able
ie f
re ed
ab ility
Ġ201 6
Ġs ix
o ber
Ġr ul
ĠM in
u ment
ĠC ent
Ġsay ing
am s
Ġ1 1
Ġlook ing
ut es
ivid ual
g ed
Ġb ill
as ter
r ict
Ġ i
ition al
Ġr is
ere nce
int on
Ġare a
Ġl ive
ĠT e
Ġany thing
Ġcomp et
Ġmilit ary
Ġ3 0
Ġcomple te
ra el
ust om
ĠA m
Ġan al
ĠC o
S t
Ġent ire
Ġsec urity
un ch
u ge
Ġpres ent
Ġfil m
o f
ci ally
Ġbeh ind
u ly
Ġv ict
. ,
ĠCan ad
ail s
Ġ ,
Ġt aken
Ġfollow ing
Ġr ather
at ors
n es
Ġth reat
r ing
ĠO ne
Ġadd ed
p ro
er man
Ġtr y
Ġm or
Ġm iss
Ġpolic y
Ġne ar
a id
Ġb ad
Ġind ividual
ru g
Ġdisc uss
Ġ201 5
ro wn
i en
Ġcol le
Ġm ult
Ġsing le
Ġcomp an
Ġpro per
A nd
Ġ X
ĠA f
Ġwant ed
Ġqu ick
b ook
Ġf ace
os p
Ġf all
Ġbr ing
ra w
Ġstud y
Ġcour t
Ġsome one
Ġto t
Ġatt empt
ward s
Ġspec ial
ĠP r
Ġc ult
Ġp ubl
Ġ er
ll ing
p ly
Ġm ind
am ed
Ġt aking
ĠB rit
F or
Ġcom b
Ġf ood
Ġ =
og rap
Ġbl ack
ĠN orth
ĠF l
ir c
a f
ĠE ng
Ġs um
Ġph ot
ap er
Ġplay er
Ġre du
Ġm ess
Ġ201 4
ĠD ep
Ġf oot
Ġ z
Ġf av
er t
Ġprob ably
a i
al es
v iron
Ġrese arch
ĠN ational
ĠP ol
Ġpre t
ow s
1 1
ĠW ar
Ġc ou
o ff
p ar
Ġben ef
at ic
ĠCl inton
id s
Ġsp ace
li er
ĠS ec
s y
ot e
ic ult
Ġke y
ĠD on
if y
Y ou
pl ay
Ġcom ing
Ġdec ision
Ġim m
c ing
Ġhow ever
Ġc oun
Ġcon nect
Ġf ederal
Ġnot hing
ĠIs rael
Ġsim ilar
Ġm ass
W hen
ro te
e b
Ġe ither
Ġsign ific
rem e
Ġcon v
ar m
el t
Ġb ody
Ġdesc rib
Ġel se
Ġex ist
as ing
Ġcompan ies
Ġj o
Ġch all
ull y
Ġright s
Ġfr ont
e v
Ġen c
ĠWh at
Ġs w
Ġth ird
ashing ton
âĢ ĵ
p ite
Ġs us
ĠC al
pe cially
Ġserv ice
Ġpoint s
Ġc and
ive ly
Ġfe at
Ġcre ate
' m
ol ution
c hes
Ġf ig
Ġb an
ac es
Ġt arg
Ġlead ers
Ġcom pl
Ġo pt
Ġrel ations
o ver
Ġiss ues
Ġp ick
Ġh ouse
Ġf ield
Ġf urther
Ġofficial s
ĠA ust
Ġd oc
Ġex ec
Ġseem s
r an
Ġst ates
Ġsu per
Ġw rote
Ġh it
Ġ1 6
Ġstud ents
Ġbe gin
ĠHow ever
ent ly
Ġro le
Ġme as
Ġtr a
Ġwho le
Ġst op
O n
ĠB ar
Ġbe gan
Ġevery thing
ĠW orld
Ġd ue
Ġinf l
art h
g o
itt ed
Ġw a
Ġl ab
Ġst ep
ĠM an
Ġrele ased
Ġf ire
Ġc ustom
Ġre pl
Ġ &
Ġen er
Ġprov ide
Ġst ri
iv il
pp ing
ĠC ity
Ġpos ition
ĠT o
. )
ĠE x
Ġro om
1 9
il t
ib ility
Ġthem selves
le ment
ĠH ar
a ult
Ġout side
Ġcount ries
Ġt re
Ġhim self
Ġbec ame
ĠW ashington
ir l
l ike
Ġit self
Ġam ount
Ġdevelop ment
Ġmat ter
u ation
Ġoff ice
Ġrep resent
Ġcharac ter
Ġstate ment
viron ment
Ġad minist
y n
Ġse lf
Ġt reat
m b
Ġcontin ue
Ġd ou
Ġin it
ĠW ith
Ġfin al
Ġl arg
Ġsim ply
Ġne g
Ġe y
Ġs ound
ad es
a pe
un g
id ay
ĠG r
Ġgener al
an a
Ġprof ess
it or
end er
ob al
n ow
se c
ĠS outh
Ġg un
he ad
ro du
Ġhour s
ac ed
Ġsignific ant
ri ed
Ġspec ific
i od
Ġadd ress
3 0
Ġbre ak
s w
e al
ar ter
Ġa ction
Ġst at
ab l
att le
Ġw atch
Ġwas n
Ġrun ning
am er
a ut
l im
Ġdiff icult
ĠIn st
Ġgroup s
ĠIn tern
Ġ1 4
Ġg round
Ġb all
Ġag ree
Ġev idence
Ġbuild ing
Ġ201 3
Ġinter view
d d
og n
o on
Ġr ad
Ġresp ons
Ġab ove
Ġneed s
Ġd rug
Ġd om
Ġneed ed
Ġindust ry
Ġcand id
ĠG e
Ġd am
Ġb ar
ĠCh ina
a ul
Ġshow s
ĠD av
Ġcomm on
il i
Ġ201 2
Ġmus ic
idd le
Ġplay ed
Ġevery one
A n
Ġin j
ĠJ an
Th at
id ing
Ġde ep
Ġ1 7
Ġd est
Ġtr ue
Ġener gy
Ġty p
Ġex c
l am
Ġleg al
ag er
Ã ©
Ġes pecially
Ġwom an
Ġb illion
Ġsa w
ĠG erman
ĠJ ust
ĠS u
Ġal leg
Ġplay ing
Ġqu ite
Ġs ense
Ġrecent ly
Ġl ate
Ġpret ty
Ġrele ase
Ġ19 8
ĠH is
Ġl at
Ġinclud e
1 2
ĠP art
Ġph ys
ĠG u
Ġt em
Ġele ction
Ġinst ead
ang u
Ġm ot
ĠA pp
Ġopp ortun
as k
Ġwh ite
cc ording
ourn al
Ġd i
Ġ1 3
re g
Ġh om
Ġg en
Ġvers ion
Ġch arg
Ġa p
b ody
Ġl ost
wit ter
Ġwee ks
Ġh ost
Ġfri ends
Ġeconom ic
Ġab s
Ġ Â
os ing
ĠA ss
ĠA fter
w here
Ġm ag
Ġfor ward
Ġtr ack
um b
Ġ #
' ll
Ġsu ff
ist ic
Ġ1 00
Ġvot e
re am
Ġj ud
Ġdet er
if t
Ġper iod
s u
ĠRepublic an
ograp h
iv al
Ġan im
Ġcons um
ep end
ĠC ong
Ġc op
ĠDep artment
p s
Ġac cept
at ur
Ġval ue
Ġre d
anc ial
Ġpot ential
Ġl ed
Ġfoc us
ul arly
Ġl o
t ime
Ġrel ig
Ġ /
Ġed uc
itt ing
Ġp ain
ĠW est
Ġde l
ar c
Ġlong er
ir m
Ġmom ent
Ġob ject
Ġsh oot
Ġst ru
Ġhig her
Ġs ite
Ġso on
ĠM us
rib ut
S o
Ġc irc
Ġhe ld
Ġp ie
med i
Ġbl ock
ĠWh ite
Ġchang es
y le
Ġcons ider
is c
Ġcont ract
Ġdec l
Ġt it
Ġhop e
Ġe p
Ġre ve
og le
ĠSy ri
Ġgo al
ir t
e es
B C
Ġserv ices
Ġon line
E R
n ers
ac hed
Ġsh are
ĠR es
ĠM ed
Ġp arent
Ġwr ong
Ġ5 0
Ġp red
ĠThe se
Ġris k
om m
ight s
1 5
Ġ201 7
Ġst ay
Ġw alk
Ġwor ks
op h
Ġre v
Ġperson al
Ġp le
Ġso ld
Ġ2 5
du ct
Ġpop ular
Ġwe bs
er y
Ġear lier
Ġc e
h aps
Ġtechn ology
Ġa ud
it ution
b or
o ke
o id
Ġpr im
le ar
l t
c il
Ġannoun ced
b o
s er
Ġany one
Ġc red
i j
is l
Ġen vironment
as ons
Ġapp lic
iqu e
Ġtot al
on se
Ġne cess
il ities
Ġword s
Ġsc ient
Ġcre ated
Ġcomp ut
f ect
ur d
r om
Ġres pect
e ed
Ġr ate
Ġre view
Ġa ge
n s
Ġpriv ate
Ġrece ived
Ġant i
Ġsur pr
ag ing
o e
itt ee
Ġexpect ed
h od
Ġtarg et
Ġresult s
Ġproble ms
Ġfor ce
Ġw ays
Ġd en
c ial
Ġincre ase
ĠSe pt
ĠCong ress
se t
Ġche ck
Ġb ase
A T
Ġw ind
Ġne arly
Ġmin utes
i ents
Ġimp act
Ġexec ut
at ives
m e
Ġexp ress
ang er
Ġp ort
ĠM arch
f er
ĠO ct
Ġs en
Ġinvol ved
Ġeas y
Ġh y
ic ro
ur ch
ap an
Ġde ad
Ġc ivil
ĠM ond
he l
ĠW ill
it iz
Ġan sw
Ġsh ot
u el
ke y
ĠA b
Ġv ol
it er
av ing
S A
her n
Ġintern ational
ate g
Ġcan not
ĠM ich
Ġter ror
ip le
Ġc ode
Ġst aff
Ġm ater
Ġrelations hip
o le
Ġl angu
h ood
Ġquest ions
Ġd iv
Wh at
Ġn ation
Ġfun ction
ĠM y
ud e
Ġex act
ĠNew s
ĠN ot
Ġf ans
Ġp ack
ok es
ĠJ une
ues day
ĠD r
ĠI m
ĠAmeric ans
Ġspe ak
Ġc ases
u ary
Ġbro ad
h am
Ġa verage
ĠAust ral
Ġdirect or
Ġco ll
Ġcl ub
ace book
ĠFr iday
Ġwork ed
ll ed
r ight
Ġest abl
Ġbel ow
Ġfin ancial
Ġl iving
Ġins ide
ri pt
act ion
ct or
v al
Ġgl obal
Ġus ers
Ġwork ers
Ġbec om
Ġorig inal
Ġmod el
is es
Ġ ur
ĠP e
ell ig
al t
Ġreport s
Ġw orth
ĠMond ay
ĠT uesday
ĠH ill
ĠSt e
Ġch ance
Ġle ave
Ġab ility
Ġ201 1
pl es
e ch
re et
ĠWh ile
ĠP ar
Ġcont ent
rough t
i res
ĠA ug
g ing
Ġar rest
u le
Ġter ms
ĠE d
ĠJ uly
Ġso ft
ĠRuss ia
Ġl ack
on st
Ġdec ided
Ġcol lect
Ġresp onse
Ġkill ed
Ġhe art
Ġfav or
Ġo il
Ġm id
Ġt akes
Ġty pe
The y
r ay
itt en
Ġup d
ĠG od
p ut
iz ing
Ġwho se
Ġcap ital
at ural
Ġt ou
Ġfore ign
Ġim medi
ĠGo ogle
pr il
Ġe mer
Ġsub ject
our t
Ġart icle
Ġ19 7
Ġpr ice
Ġad m
Ġro ad
Ġinfl u
Ġass oci
Ġdef in
om b
n a
ĠJ apan
Ġg ave
b ased
Ġcurrent ly
Ġsour ce
it es
Ġc al
Ġwe ap
Ġoff er
A t
ĠW ed
Ġs qu
Ġrequ ire
Ġl ives
1 6
Ġph one
Ġteam s
j oy
Ġ2 4
Ġt al
c he
Ġst ore
ĠP al
Ġbu y
c ast
Ġpubl ished
ĠS ome
est s
ĠS m
Ġf em
Ġadminist ration
Ġpl ans
Ġc ell
olog ical
ut h
ver t
op s
et er
Ġrec ogn
Ġsit uation
Ġresp ond
ĠCal if
Ġm other
Ġb ank
Ġmeet ing
re l
I S
Ġnet work
Ġmater ial
Ġmem ber
1 4
ĠIs lam
os ition
Ġint rodu
ĠC ount
b it
Ġare as
Ġh uge
k y
le x
C h
Ġfri end
ough t
Ġcom ment
Ġg irl
Ġturn ed
f ully
ic ated
ĠA ct
r ain
nes day
Ġpartic ip
ĠA pril
Ġ ill
Ġgo es
Ġar ri
Ġev ents
Ġreg ard
Ġde li
Ġappro ach
Ġte le
Ġcou ple
ĠS und
urs day
Ġhappen ed
Ġaff ect
Ġ201 0
A l
Ġquick ly
Ġcare er
Ġeconom y
Ġr ace
Ġleg isl
ĠAf ric
Ġm is
Ġc y
Ġperform ance
Ġf elt
ĠE n
Ġl og
Ġbu ilt
ru ction
ĠEurope an
ĠWed nesday
âĢĿ .
Ġth ous
a ud
Ġeng ine
Ġsp ent
ĠGe or
Ġsim ple
Â Ń
ĠN ow
Ġor d
ĠR ed
Ġn orm
Ġto ol
ov ed
Ġimpro ve
ord er
un t
ĠTh ursday
Ġnum bers
Ġh on
Ġprodu ction
Ġw ide
ĠS an
et y
ct ions
Ġe t
o or
Ġmet hod
1 3
Ġtr ade
Ġp ull
Ġallow ed
en ed
Ġreve al
ĠB ro
ĠM e
" .
m p
Ġl oss
Ġp ict
Ġsec ret
ch ie
Ġpo ll
or ters
Ġre pe
Ġp ers
Ġtra vel
Ġcap t
Ġvict im
a el
ove mber
ist an
ĠF acebook
Ġ )
Ġl ower
Ġbo ard
ruct ure
I N
ip s
Ġne igh
ĠT V
es e
O ne
Ġf re
Ġf ather
Ġr ound
Ġinclud ed
ĠP er
Ġto wn
Ġem ail
Ġen joy
ĠJan uary
Ġd ig
ĠBrit ish
orn ia
Wh ile
Ġmove ment
in o
Ġ4 0
Ġfor ces
ill s
Ġwant s
g est
m on
ĠT witter
ĠD o
av y
Ġm atch
Ġwebs ite
Ġse par
Ġhe ard
ĠSept ember
Ġkn ew
Ġper fect
Ġco ver
for ce
Ġb oy
Ġatt ention
es tern
Ġtri ed
Ġpartic ular
Ġb ud
cl us
im ent
ĠN e
at ory
Ġb rought
ou d
Ġbeh av
H ow
Ġst e
ar ily
ĠSund ay
ĠC ourt
ĠO ff
a ur
ĠB y
ĠN ovember
ib ly
Ġte xt
ĠRuss ian
Ġre ach
is hing
Ġ :
Ġpop ulation
ĠCanad a
T o
Ġgrow th
O N
us es
Ġf ear
Ġvar ious
ĠC or
ĠA g
ĠP aul
] [
Ġget s
Ġc ause
Ġb i
ĠA ng
d own
Ġdem and
ce ed
en ces
ĠDav id
Ġfe ll
Ġc itiz
r is
age ment
Ġf air
l in
ess ion
Ġr ac
ide red
Ġen s
Ġl iber
f ace
Ġprev ious
Ġpro gress
A fter
Ġm ention
und red
Ġve h
ĠSen ate
Ġstru gg
ĠCalif ornia
1 7
en ing
ĠK ore
ict ion
ident s
Ġtr aining
Ġlead er
um e
k ing
ĠF eb
z e
ur ning
Ġset t
or ing
se qu
all ed
Ġco ach
Ġmor ning
Ġhand s
h old
y ond
1 8
Ġv o
Ġind epend
Ġ ess
Ġs ong
W ith
ĠE l
c ies
Ġp age
/ /
6 0
Ġadd ition
Ġrul es
re ct
ĠOct ober
Ġh ot
Ġre b
ĠU K
ĠAug ust
ĠG l
Ġh or
Ġpre p
Ġmed ical
Ġlook s
im ately
Ġst ar
ellig ence
Ġcons idered
A R
ce mber
Ġtalk ing
" ,
led ge
Ġcrit ic
Ġse arch
Ġcon duct
Ġcont act
Ġinvestig ation
ra q
c le
Ġa chie
u ments
Ġincre asing
Ġcons erv
ec ause
Ġf ast
ak er
f ield
Ġw ond
Ġdo ll
Ġjob s
ap t
Ġup on
a ily
ĠS ch
Ġimm ig
ĠI ran
im in
Ġsex ual
Ġu nd
he t
Ġsl ow
Ġeff ort
' d
Ġfeat ures
Ġ {
Ġs ize
Ġspe ed
Ġl ink
ar ies
Ġs ort
A N
Ġlat est
Ġdes pite
Ġlevel s
Ġlangu age
Ġsystem s
Ġsp okes
ĠJ ew
ĠPart y
Ġreg ul
Ġse ven
ra z
Ġprev ent
Ġm ach
Ġvis it
Ġpl at
g es
Ġparent s
Ġex am
Ġpri or
-- --
l ight
Ġext reme
Ġopportun ity
Ġpartic ularly
Ġmajor ity
2 5
ĠMus lim
Ġp en
ĠDe cember
Ġin n
Ġser ious
Ġp aper
b ed
Ġsaf e
Ġviol ence
Ġsur ve
Ġe ight
ent ially
r ast
ific ation
Ġbo x
sy ch
Ġcl imate
Ġwr itten
Ġd raw
ĠSt reet
Ġcomplete ly
Ġqu arter
ĠI raq
Ġs ens
Ġdoc ument
i ant
Ġob v
Ġ2 1
Ġs n
c ome
Ġbig gest
Ġdef ense
ĠCount y
Ġc ard
u f
Ġsoc iety
ĠCent er
ond on
atur day
Ġres our
ĠT imes
Ġdou b
Ġhe ar
ĠH er
Ġclaim s
ic ation
Ġcon c
e ared
ĠS w
g round
Ġinterest ing
Ġlear n
in ks
Ġmod ern
Ġext ra
Ġexper ien
in ing
ĠT ex
Ġcar ry
Ġcertain ly
p ir
i am
Ġj ournal
ĠBl ack
reed om
Ġs on
Ġr ange
Ġare n
Ġh undred
Ġp aid
Ġlead ing
Ġattack s
Ġhist or
is ions
ic les
b l
Ġoffic ers
Ġg as
uc lear
Ġm iddle
ĠP ark
Ġrem ain
ĠDon ald
Ġn atural
Ġsc ience
Ġexact ly
o o
Ġb ott
Ġpract ice
Ġsum mer
: //
ab or
Ġproduct s
Ġsomet imes
Ġv ia
ĠRepublic ans
Ġgu y
Ġu lt
Ġsc reen
m a
ĠInd ia
Ġc ross
Ġmov ie
Ġd ro
ĠR om
ines e
ĠK ing
Ġrequ ired
ous ly
l oad
ut ions
ren ch
Ġg iving
an ks
augh t
ro om
Ġex cept
Ġter m
Ġstart ing
Ġmess age
ĠP at
as c
ĠDemocrat ic
an ced
Ġvot ers
Ġshow ed
Ġr out
Ġcost s
ĠS aturday
Ġ200 8
ly ing
ak ers
op e
Ġgrow ing
it ch
Ġon es
Ġreg ion
Ġcon vers
Ġsur v
Ġpr ison
ys is
Ġbud get
Ġfin ally
Ġch ief
un k
Ġlook ed
Ġqu ality
i ers
Ġeduc ation
ĠE ast
om p
ill ed
am ing
Ġpo or
ĠI S
Ġrem ains
Ġn amed
Ġdescrib ed
ic o
v ent
id ge
d e
Ġocc ur
Ġd anger
Ġl ay
Ġansw er
Ġp an
ĠS and
Ġeff orts
v ision
Ġm ill
ĠL ondon
Ġst uff
Ġass ist
Ġ2 2
os es
Ġcontin ued
Ġst ories
Ġt able
ens ion
Ġim age
Ġmain tain
Ġprov ided
Ġm ob
Ġdem onst
Ġpart s
il le
Ġwrit ing
Ġmult iple
Ġm ent
Ġal though
ĠE ven
Ġper haps
w w
u k
O R
osp ital
h ib
Ġthink ing
Ġbl ood
ĠMc C
Ġpur ch
er c
at ter
et h
Ġh ous
Ġchang ed
Ġwould n
ove red
Ġa w
im inal
Ġpur p
h a
Ġun f
Ġcult ure
Ġplat form
e ff
Ġrese arc
ru ary
en ge
ĠQ u
Ġlaw s
Ġ200 9
Ġsp ot
av es
Ġus ually
Ġfoot ball
ar r
an i
Ġthrough out
w o
Ġreal ity
Ġus er
Ġbe yond
ur t
Ġto wards
Ġimp lement
? âĢĿ
ib r
Ġce le
Ġcons ist
in ary
Ġp ath
Ġinclud es
Ġc amer
l ish
Ġdirect ly
ĠCh ar
Ġwr ite
Ġstud ent
Ġchall eng
Ġag ency
Ġcor por
Ġdet ails
ĠCh inese
Ġcall s
Ġspe ech
Ġstand ard
Ġcent er
Ġk ids
Ġal one
us ing
Ġdesign ed
ĠLe ague
ĠC oun
ar ian
Ġthous ands
ĠP ost
f ort
ic ations
ĠN et
Ġcomple x
ĠM ark
in ally
he st
Ġread y
Ġsub st
id a
Ġgu ys
Ġ il
Ġcould n
Ġrequ est
Ġd ied
O P
b an
Ġincre ased
Ġsaf ety
ĠS oc
ĠFeb ruary
e xt
co in
4 0
Ġto ward
Ġro b
il ies
an ch
Ġdeb ate
it ute
op er
row d
ap h
ic ks
ĠK e
Ġcon cept
Ġim ag
m it
Ġse lect
pp er
u x
ĠDemocrat s
S T
Ġcoun ter
Ġrec omm
t r
le ction
Ġorgan ization
Ġ2 3
Ġt ro
Ġt en
Ġcho ice
Ġsoft ware
Ġse ll
Ġ( @
Ġfig ure
ĠMin ister
Ġpress ure
Ġhelp ed
Ġn om
n y
ĠG ener
Ġpass ed
ĠE m
Ġoffic er
Ġimmedi ately
Ġadd itional
et t
Ġmov ed
Ġrece ive
ĠTex as
Ġpie ce
e k
Ġw ife
w ise
Ġg one
Ġrel ative
Ġa head
Ġsc ene
e gr
ĠM or
Ġep is
ar i
Ġrem ember
Ġalleg ed
Ġmean ing
ĠB ill
P h
ac hes
F L
Ġop in
ag o
Ġle ague
ic ient
Ġcr is
ate ver
ru pt
ad d
Ġpre c
Ġla unch
Ġeffect s
Ġc ast
Ġenc our
Ġbr ain
Ġs we
ĠJ ames
Ġlet ter
Ġn uclear
Ġproper ty
Ġf ix
Ġ ut
al y
Ġst age
Ġ ver
ĠT ur
ast ic
Ġdam age
Ġmov ing
B I
Ġs le
Ġdis app
Ġt our
Ġdri ve
Ġp ark
Ġappear s
Ġsp ending
ad em
Ġcolle ge
Ġfail ed
Ġa im
Ġpresident ial
r ated
ĠInd ian
Ġcom ments
amp ions
Ġtou ch
Ġro ck
T r
Ġ }
Ġcle an
Ġcandid ate
ĠMich ael
air s
y l
Ġcitiz ens
Ġlarg est
Ġbegin ning
Ġcond itions
Ġ ign
Ġs il
Ġexecut ive
Ġfor ced
ĠM ore
Ġsus pect
Ġcent ury
ur g
Ġf an
Ġbl og
Ġre asons
Ġs at
Ġit em
Ġmay be
Ġconf erence
Ġn ature
ĠC ons
Ġpower ful
Ġcomput er
_ _
ou l
ab les
ĠThe n
Ġde g
ol ute
Ġcomp ared
ress ion
z z
ĠF irst
Ġmy self
Ġd ark
ĠâĢ ¦
Ġschool s
er ve
Ġsc ore
it ation
Ġ ...
Ġcharac ters
Ġlim ited
Ġest im
Ġref er
ĠApp le
Ġdev ice
Ġevent ually
Ġb and
m en
Ġdiffere nce
il es
ri ef
Ġtw e
st on
Ġfam ilies
ir th
f ord
Ġrelig ious
im um
S he
ĠSyri a
Ġst ra
Ġf ile
it ness
Ġb attle
Ġpos itive
Ġtit le
uf act
Ġil leg
Ġnecess ary
Ġbook s
Ġdo g
Ġallow s
) ;
Ġcl os
Ġme ant
Ġb al
Ġf irm
ro y
augh ter
Ġd raft
ĠJ ack
Ġdec ades
ĠF rench
Ġhapp y
ot o
ĠS pe
Ġp us
Ġh ar
Ġdis p
j ust
ent y
Ġa ware
om en
Ġfollow ed
Ġsc he
Ġcomm and
Ġw all
n ces
or ney
ĠD es
ĠAss oci
Ġsh own
Ġgr ad
Ġfe ature
Ġeas ily
Ġ <
Ġc rowd
Ġth row
Ġphys ical
ĠEng lish
Ġs al
Ġstre ng
Ġact ions
Ġd ate
Ġsign ed
A C
Ġaut om
ĠI nt
ĠC he
Ġ Ð
ag on
Ġsen ior
Ġinc ome
ar a
Ġsm art
Ġconf ir
m ore
Ġtr ust
Ġcent ral
Ġprom ot
ĠR ich
ven ue
Ġ2 8
Ġpolit ics
Ġar ch
ir ing
ĠS er
ĠG reen
ĠM on
Ġ2 7
Ġanal y
Ġsus p
Ġm ix
Ġes c
u ing
Ġg ives
ĠSu per
Ġdevelop ed
Ġover all
Ġav oid
A ccording
ĠB o
Ġanal ysis
en cies
Ġ +
Ġey es
Ġcustom ers
ber g
Ġbenef its
Ġide as
Ġcris is
Ġtreat ment
Ġy es
iv ity
Ġweap ons
Ġc at
y an
Ġun ique
Ġs ales
port s
ot i
ĠM ex
Ġnot ed
ĠS erv
Ġconf lic
ress ed
Ġdet ail
w ood
Ġl if
Ġcr ime
Ġint elligence
Ġnot e
am b
ĠM art
Ġproject s
2 00
Ġindividual s
Ġal tern
ain t
Ġfe ed
Ġprev iously
Ġfre qu
Ġre form
p re
b and
ĠI I
Ġco ol
Ġr ates
Ġapp arent
Ġp sych
ci ent
Ġus es
ri age
b um
Ġchall enge
ĠS im
Ġapp eared
Ġgo als
Ġ6 0
Ġsuccess ful
Ġr ap
Ġ2 6
ur ance
c raft
Ġexp and
Ġprogram s
Ġman ager
Ġhigh ly
o es
Ġcr iminal
ĠAr ab
Ġdis e
ock ed
Ġfull y
Ġread ing
ĠR ober
ite ly
Ġm ist
ut y
Ġan g
Ġchar ge
ĠT or
Ġadv ant
or ks
Ġbe aut
ch an
Ġre n
Ġo ption
Ġem b
ĠE U
Ġprim ary
ĠIntern ational
Ġst o
Ġdis play
Ġcle arly
ĠUn ion
Ġyour self
Ġpred ict
ĠSt ar
Ġpe ace
Ġ @
Ġatt ract
Ġn ice
c ul
Ġl ic
ĠGo vern
Ġtr uth
Ġmeas ure
k en
Ġmin or
R e
Ġtr aff
Ġr ule
Ġseem ed
Ġlarg er
Ġstra ight
Ġman ufact
on ents
Ġresour ces
Ġd rop
Ġf a
ĠJ er
ĠV al
ĠA ir
in ated
N ow
sec ut
Ġresearc hers
p art
ĠH ere
Ġdo or
ant ly
Ġgreat er
Ġpre m
Ġex ch
Ġl ines
Ġbro ther
ĠW ind
Ġorgan iz
Ġcont ribut
Ġsp read
ĠAustral ia
ĠChrist ian
Ġown ers
ĠCoun cil
Ġpl aces
res h
ĠGerman y
i able
Ġknow ledge
in y
Ġrel ated
wh ile
Ġreg ular
ĠB en
Ġke pt
et ro
Ġ19 6
Ġr are
Ġdeter min
ĠE arth
Ġind ic
Ġsp end
Ġclaim ed
ĠIntern et
ĠD ay
ter m
Ġla un
s p
ate gy
w ide
id ers
ic it
Ġfight ing
Ġr ise
Ġem ot
bo ard
Ġc ities
Ġsp ir
Ġ |
I A
Ġpolic ies
E S
er o
Ġwill ing
Ġemploy ees
Ġcred it
ĠC r
Ġcall ing
âĢĿ ,
r s
Ġadd ing
Ġsour ces
ĠGeor ge
Ġtrad itional
Ġend ed
i ance
ĠAng el
ĠPol ice
ow ers
Ġcor rect
Ġpr ices
Ġl iter
Ġca used
Ġcop y
Ġinc ident
Ġknow s
Ġwe b
Ġshoot ing
ĠFl or
Ġsa ve
Ġfe et
Ġp un
Ġfund ing
E D
8 0
9 9
ĠFr anc
Ġs end
Ġpro s
A S
Ġint egr
Ġre ached
Ġcreat ing
Ġref lect
ĠS chool
ic ed
m ar
Ġsupp osed
f l
ĠPl ay
Ġh tt
Ġconcer ns
Ġv irt
Ġauthor ities
ĠC ap
b on
Ġfem ale
ol ic
Ġstat us
Ġal bum
Ġra ised
Ġactiv ity
ĠGener al
Ġsh ut
if ying
Ġha ven
ĠC ont
Ġstud ies
Ġcom mer
Ġpl ant
Ġar m
Ġens ure
ound s
Ġcol or
Ġsee ing
Ġopt ions
A ll
Ġmin ister
Ġac qu
ĠSm ith
Ġf reedom
or ter
Ġtr ou
Ġneigh bor
in n
ĠÂ £
Ġle aving
u ana
Ġ â
ĠB er
Ġnorm al
Ġbas ic
Ġagree ment
Ġvo ice
e an
iver se
k i
Ġgr and
Ġhapp ens
se y
Ġweek end
Ġsl ight
us ion
Ġas se
O S
on ent
Ġabs olute
Ġcharg es
Ġsc en
qu e
ve re
Ġf ine
d om
Ġmost ly
se e
ĠA ccording
Ġoff ered
Ġn ames
Ġprop os
Ġreveal ed
ĠEng land
ĠB rown
ĠH am
Ġl ik
od ay
Ġact ual
Ġh ospital
Ġad op
2 2
Ġim pl
Ġen force
Ġe th
Ġj ump
a res
Ġmass ive
ol es
Ġbe at
ĠT om
Ġpat ients
. âĢĻ
ot a
ĠO f
Ġp ush
k n
ic ago
ij uana
Ġ ir
Ġg reen
Ġneg oti
Ġbelie ved
M y
Ġbehav ior
ĠE very
ĠHill ary
Ġst ation
oc ks
Ġpart ies
Ġstr ategy
Ġme chan
Ġen em
Ġrecord s
Ġb irth
Ġc ars
Ġdev ices
Ġwh atever
b ox
Ġcomm it
il ed
Ġc ry
ĠFlor ida
ad o
Ġst yle
Ġad ult
Ġ200 7
Ġm er
ag n
Ġb rief
Ġwh om
Ġbe g
Ġv ac
Ġey e
Ġlaw y
Ġqu al
ĠM ac
v ille
ing ly
Ġass ault
Ġlear ned
N o
Ġopp osition
r ant
S h
r ants
Ġwe ight
ĠA nt
Ġd ire
Ġres idents
rib ution
Ġprodu ced
Ġprov ides
Ġinflu ence
Ġr ank
Ġdist rict
Ġt end
eng th
Ġadv oc
Ġcho ose
Ġoper ations
li ament
Ġstre et
E O
Ġask ing
ĠSc ott
Ġdeb t
Ġwond er
Ġcrit ical
ĠD is
I C
Ġapplic ation
Ġob ser
S ome
Ġb order
B e
Ġw at
Ġw ild
Ġprodu ce
I T
ĠComm ittee
p ri
ing er
Ġwa it
y a
Ġpr int
ĠG old
m ark
Ġfeel ing
it ude
ĠB ay
Ġval ues
ĠM ost
et ic
Ġindepend ent
ĠH igh
ĠD ef
Ġapp l
Ġgo ld
ist ry
r ate
Ġbr and
Ġdef end
Ġbenef it
um an
Ġm ount
2 4
Ġjud ge
ent ed
Ġm ission
ub e
Ġshow ing
Ġrun s
Ġte ac
Ġdoll ars
Ġl ose
m iss
Ġconfir med
ac ing
Ġarrest ed
Ġc ru
Ġpict ure
Ġcele br
Ġmill ions
D on
ĠR ob
E N
Ġent er
Ġtem per
u it
Ġinvest ment
so ft
ĠB ush
ĠFr ance
Ġrespons ible
Ġoff ers
on a
Ġpolit ic
ĠB re
ĠComm ission
Ġhig hest
Ġeffect ive
Ġ2 9
Ġtele vision
Ġocc as
Ġopen ing
ĠPal est
os h
Ġc ore
est ic
ĠCh icago
Ġhundred s
ĠL a
Ġch air
ĠSec ret
Ġrest rict
Ġinterest ed
Ġun c
Ġdig ital
ro l
Ġcontin ues
Ġrepl ace
ĠM o
g en
Ġco al
Ġprop osed
m ine
Ġag reed
Ġmar riage
Ġgener ally
Ġv ill
Ġlear ning
oc r
Ġpart ners
ign ed
I s
ro id
Ġlegisl ation
p oint
ak ed
Ġbas is
Ġsol ution
Ġwor se
ã ģ
How ever
ĠKore a
ri an
. '
Ġche m
Ġim ages
Ġdr ink
ĠJust ice
le ase
ĠW estern
Ġf at
Ġf it
al se
ic a
ĠWe ll
Ġhe ro
Ġsur round
A M
Ġt ick
Ġhe avy
Ġmil es
ĠB el
ĠCom p
Ġexpl ained
Ġb ab
ur ies
ro ll
Ġpat tern
Ġtr ain
Ġadvant age
ĠW all
u gg
Ġk ick
Ġon to
Ġre ject
Ġachie ve
Ġun like
ĠPe ople
ĠS un
t ies
Ġcontro vers
Ġelect ric
Ġprofess ional
Ġunderstand ing
Ġbecom ing
Ġwe alth
Ġopen ed
ĠFr om
ĠB ecause
Ġm ur
Ġthe ory
Ġser ved
Ġscient ists
ĠL aw
Ġilleg al
Ġopin ion
Ġtri al
c her
Ġinst all
ill ing
ĠA lex
v ant
ĠPh il
Ġprot est
Ð ¾
ri al
Ġcommun ities
ĠIslam ic
Ġass um
ĠOff ice
Ġannoun ce
ĠL ou
Ġeas ier
Ġet c
Ġb ur
ĠL iber
Ġacc used
ĠN FL
ce ll
Ġm ale
Ġbecom es
ĠP ort
5 00
Ġser ve
com ing
E C
Ġaud ience
Ġconserv ative
out hern
Ġman agement
Ġwin ning
Ġn ine
Ġdoc uments
i ation
Ġtyp es
ect ion
ĠFranc is
Ġleaders hip
ort hern
Ġbelie f
ra v
Ġinc red
Ġdef e
Ġob tain
ear ch
Ġextreme ly
r am
Ġcond ition
Ġdep artment
Ġdest roy
ĠSand ers
Ġpost ed
Ġredu ce
Ġmar ijuana
Ġmem ory
2 3
ĠC up
Ġd er
ud d
ĠM any
Ġput ting
B A
ortun ately
ic ip
ĠHe alth
ĠSec urity
ĠU k
Ġassoci ated
? "
Ġlim it
Ġsol id
Ġ ice
ic ial
Ġcomm ittee
ĠR ec
ĠM icro
ĠTr ans
Ġexist ing
ĠO h
Ġth us
Ġb orn
ĠB it
Ġse ction
Ġsh ared
st e
Ġvict ory
ĠRe g
The se
Ġinit ial
Ġam az
Ġcom fort
Ġlaun ched
Ġs pl
1 00
Ġch urch
Ġneg ative
Ġspec ies
Ġsh ip
Ġcamer a
ĠL ab
Ġjo in
r ont
Ġdec ade
Ġam b
Ġsupp orters
ĠO ther
Ġr an
Ġpurp ose
ĠO ur
ĠM al
Ġinst ance
Ġdou ble
Ġfr ame
Ġdoub t
Ġmach ine
Ġd aily
ĠJohn son
Ġintern et
Ġreturn ed
Ġmob ile
Ġnot ice
at ically
Ġloc ation
Ġvictim s
Ġte ach
ĠL et
Ġact ive
A P
Ġres ist
ak s
Ġsepar ate
ish ment
Ġfa ith
gh an
Ġbott om
ĠA P
ag s
kn own
Ġb omb
ĠM ike
Ġhe aring
wh ich
Ġfl oor
Ġdefin itely
w in
Ġcompet ition
Ġapp eal
O T
Ġarg ument
ĠInst itute
ĠCanad ian
Ġn orth
ili ar
n o
Ġsle ep
Ġcommer cial
Ġdanger ous
Ġsuggest ed
Ġlab or
Ġl oad
Ġepis ode
Ġb ed
A L
Ġiss ued
ĠS am
Ġrad io
Ġf resh
Ġexpl ain
Ġrepe ated
ĠWind ows
Ġbusiness es
i pped
Ġtre nd
Ġdire ction
ĠSt ud
Ġno vel
Ġr at
Ġveh icle
Ġst ated
Ġsmall er
le vel
3 5
h ouse
Ġrest aur
go ing
Ġtraff ic
r ad
Ġd ed
Ġ x
ĠF ound
Ġcandid ates
if ul
Ġsit es
ĠBrit ain
Ġlarge ly
ĠF BI
Ġentire ly
l a
Ġh arm
Ġtell ing
Ġaff ord
Ġallow ing
ci ence
el ine
ĠS ince
Ġs wit
ĠM il
Ġfavor ite
l ant
Ġg ay
Ġdrug s
Ġdri ving
Ġdisc overed
ac ity
Ġview s
Ġsp oke
or row
ir gin
U n
a e
o ly
i pe
ĠT H
Ġref ere
Ġann ual
ct ors
Ġwor st
in ct
Ġco verage
w orks
Ġconcer ned
ber t
Ġh ack
Ġdo z
we ll
Ġback ground
Ġpl ays
v est
Ġfind ing
Ġm icro
Ġtrans fer
Ġcharg ed
Ġ8 0
Ġnot es
p en
Ġtrans port
2 7
Ġc ards
ĠB ank
Ġc ash
it able
and er
Ġh us
ĠIsrael i
g ency
Ġst ructure
Ġf uel
ri ption
land s
Ġper m
C C
od es
Ġold er
Ġas pect
Ġn or
Ġins urance
Ġwatch ing
ampions hip
Ġra ise
Ġtool s
Ġdec isions
Ġt ask
Ġd aughter
Ġsur face
Ġm ap
Ġfar m
Ġstr ateg
v ention
ord s
u ild
ĠD ist
i os
Ġcont ain
Ġex erc
ĠG reat
b ing
Ġbelie ves
ar io
Ġdri ver
* *
Ġd ie
ĠG OP
Ġgener ation
Ġs un
Ġactiv ities
Ġ200 6
Ġcon sequ
Ġdise ase
G B
4 5
ul ated
ĠUk rain
Ġtr uly
Ġconcer n
Ġgr ant
ĠA ut
ul f
ist ics
ĠS up
Ġcl osed
Ġanim als
ar ant
Ġconst ruction
ol f
Ġrequ ires
ĠComm un
ĠWh y
Ġstreng th
Ġexper iment
Ġc aught
Ġjust ice
Ġre act
ĠAfric an
Ġphot o
ĠInst ead
Ġ9 0
N A
Ġdeli ver
Ġsupport ed
N ew
Ġr ough
ĠM ad
ĠCar ol
Ġenforce ment
Ġcomp ar
s pe
Ġc ateg
Ġprov iding
Ġplan ning
Ġs an
ĠF ox
e qu
Ġf alse
Ġhold ing
ak istan
ĠCh urch
ĠL os
i h
rib ute
Ġtest ing
Ġinterest s
Ġref uge
Ġph il
ĠH all
ĠD el
Ġst ock
Ġspokes man
ĠAf ghan
Ġhas n
om s
Ġmur der
Ġpres ence
ad ing
res p
z a
Ġintrodu ced
r im
Ġoff ensive
te red
ph one
il ing
o very
Ġatt end
I D
Ġinit i
Ġjo ined
ck now
ic i
ĠAssoci ation
Ġw itness
Ġcont ext
Ġconflic t
Ġban ks
Ġacc ur
ĠB ig
Ġm ax
Ġinj ury
A meric
ĠJew ish
iz es
Ġestabl ished
om as
f erence
F C
ill er
Ġpl aced
om an
oss ible
re y
Ġtell s
oy al
i pp
Ġwe l
c ont
Ġhous ing
M r
ĠF in
Ġhom es
Ġnews p
ĠG ree
ĠT er
Ġfoc used
Ġbl ue
Ġmention ed
g u
and on
Ġitem s
Ġfour th
Ġocc up
Ġsp orts
Ġf ant
ocr acy
Ġve ter
pect ive
ang ing
Ġsub sc
ĠQ ue
ĠAfric a
as y
Ġc atch
ad a
r ig
Ġsc ale
b ut
Ġs outh
ear s
Ġman aged
Ġwa iting
se ason
ĠW il
is ation
Ġcomm itted
ĠAt t
ĠPalest in
Ġfund s
Ġa cknow
ic y
Ġk id
Ġobv ious
Ġrecomm end
he m
Ġun it
s erv
Ġmeas ures
Ġconvers ation
ĠM od
Ġkeep ing
ĠJ ones
le ge
2 6
Ġse qu
Ġfig ures
ĠK en
Ġab use
P A
l ig
Ġsto pped
ot ed
Ġrelative ly
ĠC EO
Ġdiscuss ion
Ġad vert
Ġdef ensive
Ġset ting
Ġex clus
ĠMicro soft
itution al
Ġt ough
Ġoper ation
Ġl ength
Ġident ity
Ġuse ful
Ġexch ange
ann el
n el
ĠSup reme
m akers
ĠRober t
and om
Ġt im
Ġfin ished
an cy
Ġappro pri
os ure
ĠChr is
Ġass ess
Ġsurve y
Ġ Ã
Ġident ified
Ġpre fer
h ow
Ġgu ess
9 0
Ġconc lud
B y
Ġb ul
Ġcan cer
Ġgirl s
Ġarri ved
ri end
ĠP ress
Ġst ick
Ġfeel s
B S
ĠU N
ad y
w ing
Ġed itor
Ġother wise
ĠP ri
7 0
Ġrem oved
Ġ3 5
2 1
ul ate
Ġorganiz ations
ĠJapan ese
Ġtax es
n ight
u ct
Ġg ender
Ġown er
ĠM er
Ġmod els
Ġmiss ing
Ġe at
Ġpart ner
wh at
Ġ7 0
Ġthere fore
b re
Ġcomm ission
pro f
ĠAngel es
ve red
Ġc ook
Ġcell s
su it
Ġsu st
Ġsee k
Ġspir it
ic on
oll y
ĠM ag
ĠJ im
ens es
ĠD irect
P ro
Ġsuggest s
Ġag gress
Ġme re
Ġ3 1
Ġcirc um
app ed
b our
Ġcor ner
ĠP akistan
Ġtri p
Ġsk ills
c ks
ĠMex ico
Ġimmig ration
k ins
g a
Ġslight ly
E T
ĠV irgin
Ġprotect ion
d o
dd en
Ġha ir
out s
ograph y
Ġstri ke
cept ion
ĠFr ank
Ġl ibr
ĠV er
Ġrem ind
ĠO ver
ĠJ ud
ĠP C
Ġhus band
ĠT re
Ġsupp ly
Ġplan et
2 8
Ġbig ger
re al
N ot
id ering
Ġdet ect
Ġtrans form
Ġkill ing
ow l
Ġtrans l
Ġconnect ion
Ġe arth
az on
Ġwe ak
r ick
ĠJ eff
Ġprofess or
ĠCon st
Ġele ments
Ġenvironment al
ron ic
Ġfam iliar
Ð µ
Ġplan ned
Ġg e
Ġgr aph
ul a
Ġapp oint
ag ues
Ġhelp ing
Ġs ides
Ġcolle ction
ĠE v
ĠR o
Ġm ig
Ġf le
rib e
ĠS il
pl ace
Ġmark ets
it z
P S
ĠAl though
Ġspe aking
ĠAr my
i us
Ġment al
Ġincreasing ly
Ġa ward
az ine
Ġstand ards
Ġfail ure
g ers
Ġf igh
Ġfil ed
Ġg ain
Ġscient ific
ĠM at
u ate
is f
Ġdep end
ĠM iss
ĠK h
ren cy
Ġspe ct
Ġstep s
Ġhappen ing
Ġsu dden
N N
Ġcar ried
anc ing
ĠAnd roid
ĠF ore
od ies
Ġgu ard
Ġvar iety
Ġac adem
Ġdec ide
Ġtal ks
hen s
Ġult imately
Ġt ack
ĠSyri an
Ġamaz ing
ont o
Ġcut s
Ġdom estic
ĠS l
O M
Ġtwe et
er ous
Ġter rit
Ġ200 5
Ð °
is er
l or
ĠLou is
ĠU p
Ġstand ing
in ter
Ġbe er
ĠR yan
ĠL ike
Ġro ll
L e
Ġun ion
ro s
Ġcre w
ĠI r
Ġrev olution
Ġdevelop ers
and a
Ġreg ist
ĠA c
Ġoper ating
ĠSecret ary
ĠGovern ment
Ġneighbor hood
Ġdown load
Ġfell ow
st ream
Ġar my
ĠIn c
Ġn one
ver se
Ġag encies
Ġupd ate
ĠThe ir
Ġaccount s
R E
Ġstart s
Ġimp ossible
Ġposs ibly
Ġdro pped
rast ructure
ig an
um n
Ġat h
Ġple ase
Ġcorpor ate
ic ide
! âĢĿ
gy pt
Ġmult i
Ġphil os
Ġp et
Ġun ivers
O ur
Ġl osing
Ġv ast
uck y
Ġdeg ree
Ġv ul
ĠRich ard
Ġinn ov
ad ium
Ġs ch
Ġaltern ative
Ġd at
Ġh ate
3 3
or g
el ess
Ġpay ing
a it
ony m
Ġb atter
ĠG ame
Ġr ich
up s
Ġapparent ly
Ġfund ament
Ġ200 0
Ġp air
am m
Ġst ruct
re es
ĠAr t
Ġbal ance
ĠN or
D A
ĠSt ep
U S
Ã ¡
Ġexp ensive
2 9
Ġinter act
Ġapp re
k es
Ġauthor ity
Ġl ived
ĠB ern
Ġphot os
hed ul
Ġdevelop ing
Ġposs ibility
Ġsol ar
k in
ĠAd d
k a
y m
Ġhon est
Ġpr inc
Ġchang ing
ĠT im
r un
Ġsee king
Ġturn s
Ġy ards
ĠG roup
Ġexper ts
Ġw ish
Ġwor ry
Ġtw ice
Ġhealth y
Ġrelig ion
r ange
Ġclos er
an ia
ĠMart in
Ġsold iers
Ġfil es
Ġimag ine
Ġde ploy
Ġthan ks
ict ed
ĠS al
Ġvot es
Tr ump
) :
Ġhum ans
Ġapplic ations
Ġun iversity
Ġabsolute ly
Ġp it
Ġequ ip
Ġap art
yn am
Ġelect ions
it ors
Ġqu e
ad ed
as hed
ĠR ock
Ġs itting
ĠPr ime
Ġl ob
Ġco ld
.. ..
Ġsc hedul
ĠM ont
Ġapp ly
ĠAt lant
ĠRes earch
Ġsc ript
Ġcap acity
Ġrespons ibility
ĠM ary
Ġconv ention
ĠT y
ans ion
Ġregard ing
m et
Ġse a
ĠM os
Ġbeaut iful
Ġv ision
ĠFound ation
are n
ĠJ oe
ars h
il s
Ġinst it
Ġintern al
ĠLe g
c ript
Ġgu arant
g ar
Ġtest s
Ġear n
olog ies
H L
A A
m as
Ġopt im
Ġfam ous
Ġatt orney
Ġsp ort
ĠJ ose
c ious
it ect
Ġsound s
Ġfl ight
ost on
Ġp il
Ġt ight
Ġco vered
ĠAl so
Ġint ended
Ġgovern ments
rou d
Ġun its
Ġpot entially
Ġsurpr ise
ort ion
ĠM P
Ġun less
ĠCol lege
Ġcons ult
g n
w ith
Ġad just
ĠTh omas
ĠP et
Ġse asons
ĠDist rict
Ġstre ets
c oh
Ġbring ing
Ġar ms
Ġt ast
ĠTh ose
Ġte en
Ġveh icles
Ġhe at
Ġpresent ed
av a
Ġexper t
ress ive
Ġestim ated
Ġsk in
ĠCarol ina
Ġf ol
Ġanim al
Ġhelp s
D es
Ġ201 8
Ġoccur red
ol it
ist ed
ĠM iddle
u ke
Ġo dd
Ġdeter mine
en ced
oc al
Ġinf rastructure
Ġdom in
ol a
Ġfor ms
Ġspecific ally
Ġse ctor
Ġpl enty
v is
ap ers
ar ks
Ġtro ops
E ven
or ial
e y
Ġwind ow
Ġser ver
Ġoff ering
Ġf if
Ġ *
ĠE gypt
Ġrap id
rel ated
ĠPro f
an o
ĠWe b
Ġsecond s
i ams
C l
Ġcl im
Ġcl ick
Ġse lling
Ġtr ail
os en
por ary
A r
le ts
p ay
Ġpro ve
l ook
Ġhe av
ut ers
Ġpro secut
Ġrec ru
Ġr id
Ġn ar
Ġins p
Ġsc r
ĠA re
ter day
ore s
Ġelect ed
ĠP ut
ĠFrancis co
ĠCent ral
Ġdr am
Ġloc ated
Ġpropos al
Ġf ired
ĠP re
ĠTor onto
Ġm ut
Ġsy mb
Ġcar bon
ĠServ ice
p erson
Ġfl ow
Ġg ar
ste in
Ġcoun cil
oc ol
rib le
ad er
Ġbo ost
ĠC ath
S P
Ġbro ken
Ġvul ner
ust er
ĠY es
in ent
end ment
Ġwrit er
h i
p ret
Ġpr ime
L ast
Ġprep ared
Ġer a
Ġc as
ĠS ur
Ġsec ure
ph as
Ġref used
d en
ĠBit coin
ĠA ri
Ġequip ment
ĠJ es
Ġret ail
Ġconduct ed
Ġrul ing
Ġcult ural
ĠM et
Ġvot ed
Ġchalleng es
Ġpie ces
ĠL ast
ĠIn ter
ĠD en
Ġreg ime
Ġpos itions
ĠB ur
ĠO nce
ĠP eter
Ġpoint ed
st ate
h and
Ġpercent age
Ġst ars
Ġcon clus
Ġt on
Ġequ al
i ot
Ġf aster
Ġbro ke
ure au
ov ing
ro ad
ed er
ain e
Ġcritic ism
Ġst ress
Ġpolitic ians
ĠMed ic
T C
Ġrem ained
Ġfac ing
ack s
I L
Ġvot ing
ĠAustral ian
Ġarg ued
O f
Ġst ret
Ġyou th
ĠF ederal
Ġwere n
Ġinvol ve
ĠCh ief
a ven
âĢ ĺ
Ġcl in
Ġcl ot
Ġcomb at
ĠF ire
Ġre venue
ĠB oston
ĠVirgin ia
ĠG et
ĠY our
Ġj ail
Ġg rew
ĠS aud
u nder
ce an
r d
Ġchem ical
Ġgreat est
R A
Ġd in
n oon
Ġconsum ers
, [
ĠN A
f e
Ġappear ance
idd en
I m
Ġexpress ed
ĠT wo
r ist
---- ----
o ch
Ġsignificant ly
ic ate
Ġobv iously
Ġcons idering
Ġfact ors
Ġopportun ities
w ar
Ġpros pect
ĠAm azon
Ġsurpr ising
Ġmon itor
Ġfil ms
ĠL at
Ġsh ape
ĠD uring
Ġtr ig
Ġ200 4
Ġer ror
ill a
S ince
Ġm arg
ash ion
Ġt ourn
Ġher self
Ġ4 5
Ġre nt
Ġdetermin ed
ĠB oth
ĠPar is
Ġb ought
ĠJ on
Ġhy p
Ġb reat
Ġsign s
use um
ĠG ood
Ġmin imum
an ish
Ġrem aining
Ġth r
ĠS ub
Ġexperien ced
Ġrem ove
Ġmethod s
at ures
Ġfin ish
Ġt act
or age
D P
ol ved
ri e
Ġcont rast
Ġt urning
Ġ19 5
IN G
Ġind eed
a wn
Ġrecord ed
ĠM ass
Ġaffect ed
Ġbab y
Ġdep art
Ġsh ift
Ġsupport ing
ĠJ ournal
u zz
Ġun s
Ġa id
on om
ot y
Ġident ify
Ġm aster
ock ing
Ġsp ring
Ġbas ically
Ġwide ly
Ġpurch ase
Ġexc ited
ĠPl an
Ġair craft
Ġv ir
Ġcomb ined
Ġr andom
ĠG al
Ġ19 4
Ġopp osed
ĠGu ard
ĠR iver
Ġpull ed
Ġmag n
ĠB ob
Ġappre ci
Ġpass ing
Ġwe aring
i as
all s
i pping
ĠSoc ial
Ġliber al
Ġpl us
Ġ3 2
Ġemer gency
Ġhand le
ow nt
stand ing
Ġ199 0
ĠP lease
ĠP ublic
Ġpriv acy
Ġlead s
Ġw ood
Ġser iously
Ġweap on
Ġmot iv
Ġafter noon
Ġhop es
anc he
C on
Ġh un
Ġcoll abor
Ġstrugg le
Ġh urt
Ġtyp ically
ĠM ur
Ġrep orters
cl ass
ĠC ru
ĠC amp
ĠCons erv
Ġpan el
ly mp
Ġb ound
Ġtalk ed
ess ions
Ġd ream
is her
Ġpro ced
3 6
Ġag ent
ĠR ub
he red
Ġattempt s
Ġp owers
Ġorig inally
Ġpl ants
Ġbel ong
Ġexpl os
Ġapp s
ce l
ve y
ord in
ĠS ant
Ġacc ident
ro g
Ġfr ust
Ġse at
Ġeven ing
th at
Ġdis miss
o om
ru ption
Ġcomple ted
Ġdisc l
Ġs ale
ive red
3 4
ĠU nder
Ġsub s
Ġa st
ri er
Ġlot s
Ġadv ance
B l
Ġren ew
Ġtre ated
g ment
os ite
ĠP ac
or al
Ġb row
pl om
Ð ¸
Ġinstit utions
lic k
Ġz one
ĠL ee
ĠIs land
] .
ab ilities
Ġappro ved
Ġswit ch
Ġ >
Ġtrad ition
coh ol
ĠAn y
Ġcon cent
ly n
7 5
Ġvide os
Ġconst ruct
Ġgl ass
3 2
s en
Ġpro ceed
Ġent ertain
iss ions
Ġm ort
Ġmin ute
l ife
m osp
Ġ5 00
Ġel imin
om pl
ĠFor ce
in i
Ġend s
Ġredu ced
p et
Ġdisapp oint
Ġdiffere nces
E x
E L
ĠWill iams
ur ation
Ġc art
ra wn
Ġvis ual
3 8
Ġb att
Ġnum erous
Ġh ol
Ġp itch
ov iet
y r
Ġdeb ut
Ġconf idence
Ġco ast
Ġm and
ĠO lymp
st s
Ġsh all
Ġm al
Ġst orm
Ġtrou ble
Ġem p
Ġreported ly
Ġexpl o
ĠUS A
Ġele ment
Ġtrans ition
M A
Ġcap able
D uring
ĠS pr
our s
ur b
ĠM el
u ous
g l
Ġb odies
Ġun able
Ġmat ters
Ġs ac
c are
Ġfact or
, '
Ġcre ation
uc ks
Ġhtt p
Ġquarter back
app ing
Ġconf ident
ĠY et
ĠU s
Ġcr imes
ĠCol or
ĠAfghan istan
og ue
ĠD ec
Ġnewsp aper
c alled
ribut ed
Ġqu ant
Ġsuff ered
Ġpers pective
Ġse vere
Ġviol ent
Ġstand s
Ġqu iet
E very
Ġsu it
ll er
Ġdist ance
ĠPro t
Ġup gr
ĠSte ve
Ġprom pt
Ġpublic ly
Ġb urn
Ġse m
ĠChar l
ĠV e
em ploy
Ġlist en
Ġexperien ces
Ġpack age
l ines
ĠLab our
Ġinst ruct
es ters
ĠS ol
Ġtechn ical
Ġcal cul
Ġon going
Ġgr ab
Ġsubst ant
al ed
ĠH aw
J ust
Ġden ied
Ġg iant
ens ions
Ġbroad cast
se x
Ġdel ivered
ap ed
ain ts
Al though
Ġmov ies
Ġem ails
Ġactiv ists
Ġdecl ared
ok ing
Ġord ered
ne ll
Ġc raft
Ġre action
Ġwe ather
Ġco ff
Ġref erence
Ġsat isf
ĠJ o
ĠO ut
h ab
al ing
id el
An other
Ġcl oud
Ġco oper
Ġcircum st
Ġshould n
un te
Ġsh ar
Ġrout e
Ġset s
Ġtal ent
e ah
! !
k et
ion ally
Ġleg it
Ġp ages
Ġem phas
Ġconnect ed
Ġex cell
is ters
Ġexpl ains
Ġl oved
Ġacc ompl
Ġarg ue
Ġfr anch
Ġval id
Ñ Ĥ
res ents
Ġpick ed
Ġg ra
Ġ ;
Ġadm itted
ĠJack son
Ġper man
Ġgun s
Ġarch itect
Ġsecret ary
Ġl it
Ġmod e
Ġterror ist
Ġfor get
Ġt un
Ġenem y
O U
Ġeffect ively
Ġar med
Ġe c
Ġg ather
ĠOh io
Ġreal ize
Ġi Ph
Ġp roud
Ġf ly
ang ed
Ġfac es
Ġb ull
Ġess entially
Ġappro x
Ġour selves
ĠS ing
Ġthan k
Ġmess ages
Ġpr in
u ations
ĠMuslim s
ĠTur key
Ġpract ices
Ġr ail
ĠP enn
ĠTe am
Ġwrit es
3 7
Ġappropri ate
Ġcan n
il it
ĠC ur
re ens
ab in
Ġag ents
Ġrespond ed
Ġdel ay
ed s
Ġinit ially
b ur
ĠT oday
Ġmar ried
Ġread ers
ound ed
Ġed ge
im al
Ġfl ag
Ġbuild ings
Ġwalk ing
Ġaut h
Ġf illed
Ġconf irm
Ġdri vers
Ġplay off
Ġlawy er
ĠH ol
Ġgovern or
as tern
m ates
Ġadv ice
ĠM att
ok en
Ġdef ault
Ġstate ments
Ġcent re
Ġalleg ations
end a
Ġro t
Ġmor al
raz y
Ġath let
Ġoff ense
Ġev al
f ree
is hes
Ġsub sequ
, âĢĻ
Ġphilos oph
ent ure
ĠS oviet
Ġnecess arily
Ġdis s
Ġfac ed
Ġexp ansion
il ty
k er
ĠO pen
Ġdi plom
ĠT ime
Ġexerc ise
ĠSaud i
p ass
Ġcr ack
Ġinj ured
Ġ198 0
Ġte ch
Ġlab el
Ġdes ire
z er
ag ers
Ġs ession
re land
Ġreport ing
Ġ200 3
Ġd ial
ĠSc ot
amp ion
resp ond
est ival
ang ers
Ġpr ay
Ġle aves
od d
Ġrad ical
ĠUkrain e
ĠB raz
Ġpat ient
r id
ĠWill iam
Ġwar ned
Ġn ations
Ġd ynam
t op
l ong
h y
Ġb ond
Ġinj uries
ĠDirect or
Ġadv anced
Ġj oint
er ry
Ġmiss ed
ĠH uman
ĠSp ace
Ġpict ures
Ġmaterial s
ĠB BC
tern al
ell y
Ġinvest ors
Ġab andon
ob e
Ġth inks
Ġfind ings
Ġ200 1
Ġat mosp
Ġwe ar
ĠBar ack
M any
ill ance
Ġsh op
Ġca uses
H is
ar ters
Ġannounce ment
ad ow
Ġsu c
Ġrep resents
Ġpo ol
ul ations
ĠRom ney
Ġyes terday
Ġb are
Ġart ist
Ġdem ocracy
Ġdecl ined
Ġmanufact ure
Ġconsequ ences
Ġaccept ed
Ġinc or
Ġs ad
Ġpus hed
ord ers
Ġn ut
Ġlink ed
Ġobject s
w hel
Ġmot or
Ġthreat s
Ġne ither
our ney
m ond
Ġnear by
ĠSe attle
Ġrough ly
P e
ĠM a
Ġdo ctor
Ġlaw suit
Ġf ish
Ġr ising
Ġmag azine
ĠW al
H ere
ĠR ad
Ġschedul ed
ocrat ic
ĠWh o
ab led
Ġevery body
t ion
Ġs ought
Ġre in
Ġrem ark
Ġperform ed
Ġfor t
ic ing
Ġmy ster
Ġ3 6
Ġpar liament
! "
Ġrece iving
3 9
ĠR on
Ġr ain
it a
Ġfor g
Ġconsum er
ĠS her
ĠR oad
Ġcolle agues
ess or
Ġs ke
Ġunlike ly
Ġinter pret
ul s
Ġp ure
Ġheav ily
Ġincre ases
Ġsong s
o oth
O L
un ction
Ġnet works
Ġp ra
Ġn ative
Ġis land
Ġ ing
Ġcomb ination
Ġcreat ive
ĠChrist mas
Ġlist ed
ĠM L
ĠMich igan
Ġrestaur ant
Ġhistor ical
Ġf ill
m ail
C L
Ġupd ates
ĠAnd rew
i at
Ġcont ains
Ġwith d
Ġdat ab
Ġres olution
Ġimpro ved
Ġv s
c ons
ad or
Ġdiscuss ed
Ġsurpr ised
Ġsp ons
Ġexam ples
F rom
Ġst ood
ĠR od
du le
Ġhigh light
er ved
Ġfl ood
ĠL in
f ortunately
i est
Ġpro hib
Ġ id
c an
Ġexpl an
Ġmov es
I P
c ol
Ġappl ied
Ġres ident
Ġregul ations
Ġfair ly
Ġbr ings
ner gy
Ġcl ient
ans as
Ġsc ored
Ġsa v
Ġent ered
Ġhouse hold
ĠI reland
Ġgu ilty
ĠGr and
en ger
ĠB et
Ġwar m
Ġconsist ent
Ġcur rency
Ġr ide
Ġyoung er
Ġsh ots
ĠS qu
g ia
az a
Ġcont est
Ġexist ence
Ġal cohol
Ġsuc ceed
ĠL ib
ww w
Ġcamp us
Ġalleged ly
Ġfact s
Ġp hen
Ġy ell
r ich
Ġv ice
Ġen h
ed y
ot ic
Ġtot ally
Ġsqu are
Ġdist ribution
Ġclass ic
Ġm ir
Ġthough ts
w ater
Ġt ree
Ġal t
Ġst orage
ĠPro ject
Ġadd s
Ġfac ility
at o
Ġch art
ĠSt an
ĠD aily
ĠN BA
ou ston
st ood
mb ly
ĠIS IS
ird s
Ġmarket ing
Ġplan e
Ġman age
ĠC ub
l aw
r um
Ġfew er
ĠJew s
Ġprot ests
ov es
ĠM em
Ġbehav i
Ġstore s
Ġdo ctors
us al
Ġbeg ins
ĠF e
Ġfr aud
Ġsh if
ac he
Ġbr ight
Ġany where
ĠS cience
Ġboy s
Ġsch ol
Ġbu ying
Ġimport ance
ĠF er
Americ an
Ġclass es
ar n
g reg
Ġrepl aced
Ġs am
ĠCol umb
C H
ĠBraz il
Ġfl o
ĠW ood
Ġsome what
Ġdec re
ĠSw ed
ĠKore an
Ġbre aking
Ġindust rial
Ã Ń
ĠAs ia
ĠN ov
Ġdeath s
Ġd iet
al ty
ill y
ĠSh ow
ĠIt s
g ent
M ore
ĠK im
as ure
Ġclose ly
Ġd ownt
Ġspl it
Ġopp osite
ev in
Ġacknow led
Ġb ike
Ġmet al
G o
Ġa f
Ġwar ning
ani el
Ġprom ise
ar l
ĠB ook
W ell
Ġtarg ets
Ġl ock
ĠP ower
ĠR em
ĠMay be
Ġess ential
ĠC NN
Ġhard er
Ġimmig rants
Ġhop ing
Ġhard ware
Ġwas te
Ġbl ow
] ,
ĠA ff
Ġadult s
ĠE ach
Ġmom ents
Ġpl ot
Ġdiv ision
ĠS ee
Ġres c
Ġg rown
ir ty
Ġact s
h ost
Ġn av
ĠA M
ĠV ict
b orn
T V
Ġvol unte
ĠiPh one
Ġalong side
Ġint ention
Ġb oss
iqu es
Ġsymb ol
ĠBo ard
ĠH en
Ġent ry
het ic
Ġfeat ured
Ġopp onent
Ġr um
Ġr ally
u pp
Ġro w
om a
ĠG en
Ġtemper ature
Ġhold s
ĠM s
Ġear ned
Ġl ie
ĠW he
Ġf ashion
n ic
Ġse es
Ġcustom er
Ġhe ll
Ã ¤
Ġcontrovers ial
m itted
Ġart ists
Ġmot ion
Ġsqu ad
Ġpus hing
ok ed
am in
Ġcircumst ances
Ġvar i
es ome
Ġfundament al
P l
Ġlibr ary
al a
as p
ĠAri z
ĠM ount
Ġsuff ering
ĠD ou
Ġcommit ment
Ġv an
ĠI ll
ic an
Ġc ere
Ġcompet itive
Ġfav our
us iness
Ġemot ional
Ġdef ined
Ġfl at
ap ter
Ġreg ional
Ġem br
ĠR el
Ġdec line
Ġrepeated ly
form ation
Des pite
olly wood
Ġill ust
ĠL ake
olog ist
Ġto w
Ġimmedi ate
Ġexcell ent
Ġsy m
ĠSec ond
Ġrelationship s
Ġch ain
and al
ĠRe v
Ġz ero
ĠColor ado
Ġp ed
Ġrele vant
Ġvers ions
Ġcarry ing
Ġs now
Ġext ent
Ġt iny
Ġis ol
Ġfor med
ĠAn other
Ġeff icient
w est
ens us
O ver
Ġkind s
ef ully
an es
G et
ĠPalestin ian
Ġun us
ri p
ĠF ree
Ġ3 00
ac le
Ġev olution
Ġche ap
ĠT ra
Ġcomfort able
M ost
Ġcor respond
I V
ol ve
ac ter
Ġact ing
ĠMed ia
om in
ĠOn ly
Ġattempt ed
ĠPh oto
ab b
Ġfrequ ently
omet imes
ĠCath olic
Ġmain stream
Ġcy cle
h us
ĠPut in
n et
ag an
Ġp ip
A m
Ġur ban
ard en
el lect
ĠTe chn
Ġchair man
Ġsubs id
Ġrefer red
Ġs ick
in em
Ġout put
ĠP rem
I nd
Ġfun ctions
Ġh at
Ġded icated
Ġup coming
Ġtourn ament
Ġem pt
Ġauth ors
ĠC IA
er ves
Ġown ed
4 4
m es
Ġcon gress
ĠR ights
Ġag enda
Ġw ave
ĠF ar
v in
Ġh ur
Ġtr ick
Ġb ag
u able
c hers
Ġsh aring
Ġdetail ed
Ġsurround ing
P R
Ġl ies
Ġhead s
Ġopp onents
ul ous
Ġover whel
cer tain
Ġfem in
Ġart icles
Ġstru ck
Ġinsp ired
Ġinst ru
Ġexpress ion
Ġan cient
T ube
Ġpl ed
Ġtarget ed
hip s
Ġrep ut
Ġdescrib e
Ġsurve illance
Ġser ving
Ġmechan ism
ĠH ouston
r ations
Ġhot el
Ġreal ized
Ġint ent
ĠSy stem
Ġ200 2
ĠA v
Ġman ner
ĠH y
Ġreturn s
Ġstud io
Ġparticip ants
ate ll
p an
Ġc ert
L et
Ġconf ig
Ġn arr
Ġdeep ly
Ġteac hers
P D
ĠI D
ĠBro ok
Ġstr ange
Ġin put
Ġasse ts
or se
h t
ĠS um
our ce
Ġbut ton
Ġappro val
Ġlat ter
Ġfollow s
ĠA T
Ġpre gn
Ġca using
ĠS ign
P U
Ġter min
Ġfranch ise
u ated
Ġun iverse
ĠDe velop
ĠVal ley
l o
oc key
Ġdep th
Ġl augh
al ian
Ġwat ched
Ġf asc
ed ia
Ġm ine
Ġsy n
Ġc razy
du c
Ġknow ing
x ual
Ġw ire
Ġbas ket
5 5
Ġvirt ual
Ġl inks
Ġtrans p
Ñ ģ
Ġliter ally
Ġun employ
Ġexc iting
Ġl iqu
( )
Ã ³
Ġs ending
Ġb at
ĠD iv
Ġme at
Ĥ ¬
Ġj ourney
Ġpass ion
Ġprec ise
Ġdeal ing
ĠW alk
Ġimp ressive
Ġas ide
iven ess
Ġus ual
Ġwalk ed
f oot
Ġwin ter
Ġw age
Ġ3 4
__ __
Ġsign ing
p m
Ġinvol ving
Ġsu icide
ut ch
Ġexpl ore
I M
ĠR am
Ġmed ic
om ing
n am
c hen
Ġdes k
Ġw ins
3 1
Ġt ort
Ġprom ised
Ġsche dule
Ġnom ine
on na
Ġsust ain
T A
Ġrefuge es
Ġto m
Ġn orthern
ĠS ky
Ġra pe
Ġterrit ory
Ð ½
Ġcoff ee
Ġnar row
Ġw ake
Ġsent ence
ĠBl ue
en a
Ġfol ks
Wh y
Ġdefe at
ĠAriz ona
ĠO k
Ġris ks
Ġm outh
Ġord ers
ĠJes us
g as
Ġg ap
ke l
Ġstr ing
Ġbatter y
w oman
Ġnot iced
Ġh all
st yle
Ġk it
ath an
Ġsim pl
ch o
ĠCru z
ic ious
Ġab ortion
Ġcommun ication
etro it
Ġsk ill
Ġprom ote
Ġs ister
ĠD an
Ġob serv
Ġrem ote
g ame
Don ald
lud ing
Ġs and
Ġb on
d ef
4 7
or ry
ver ty
Ġ197 0
Ġr ing
r as
Ġterror ism
ig er
Ġfor th
Ġfl u
ĠA N
Ġcopy right
n ew
Ġattack ed
Ġcol umn
Ġw est
com m
Ġrequire ments
Ġmere ly
ĠDav is
4 8
az i
Ġprot esters
Ġch annel
Ġg ang
Ġgu ide
Ġex hib
ĠE ric
Ġpo verty
Ġk ing
Ġall ies
Ġput s
we ight
Ġne ut
Ġphen omen
Ġrecogn ize
Ġret ire
ĠW ork
Ġdisc over
Ġext ended
Ġstre am
Ġch ose
Ġapprox imately
Ġjournal ists
ĠDef ense
ĠE lect
ing u
r ating
Ġfac ilities
Ġbl ame
Ġcrit ics
it arian
ĠJ ul
m m
w ord
ord an
Ġcommun ications
Ġproper ties
Ġe ating
Ġob lig
es h
D o
Ġsudden ly
= "
aw a
Ġem issions
ograph ic
Ġsh o
ce ived
ĠE nergy
ici ency
ĠCl ub
ĠYou Tube
Ġloc ations
Ġmod er
ĠE ll
âĢĻ .
t witter
ĠB oy
Ġe ast
Ġshe l
ger y
v a
b el
Ġsome how
ĠB at
Ġtest ed
Ġre ward
Ġcon ver
Ġe gg
ĠChar les
g ender
Ġde als
i pl
Ġvol ume
Ġtyp ical
Ġdestroy ed
Ġsk y
Ġmist ake
Ġteac her
im ents
g or
ĠG M
Ġlik es
R ep
Ġslow ly
ock et
Ġmat ches
Ġpro of
Ġass ume
ĠD ie
Ġd u
Ñ Ģ
ĠI P
r ison
p o
Ġal ive
Ġp ic
Ġencour age
F irst
ol t
rim ination
Ġproper ly
ab is
ĠS ar
I I
Ġw al
Ã ¶
Ġclaim ing
A D
Ġad apt
Ġpoll s
Ġany way
iam i
ĠW ik
Ġfe es
Ġdis ag
ĠE conom
Ġwor ried
ĠG ra
Ġso le
ĠL ife
Ġs outhern
ĠB ack
Ġp al
Ġdi agn
c ers
Ġsupport s
Ġthem e
Ġmeet ings
Ġelectric ity
Ġsche me
ĠD C
ĠAg ency
Ġhon or
Ġhar ass
Ġcut ting
ĠM ot
Ġprof it
Ġcontro lled
ĠG ar
k o
ap se
Ġunder stood
Ġse lection
ĠW ild
Ġlim its
Ġcomp rom
Ġ3 3
Ġexp osed
GB T
ĠS ports
Ġan onym
Ġch ampion
Ġswe et
ed d
og an
Ġlic ense
Ġobser ved
Ġstrong ly
Ġb unch
ĠW ars
ĠWe ek
Ġun known
Ġprotect ed
Ġhe ight
Ġfall ing
Ã ¼
Ġcond em
ph y
Ġdes per
Pe ople
ĠT al
ĠAd minist
Ġselect ed
ren ce
or ation
Ġpur s
Ġtop ic
ĠH ollywood
Ġconst ant
Ġfl av
Ġwel come
A pp
l ies
Ġbu g
Ġequ ival
Ġsome where
Ġpay ments
ens ity
Ġd ry
Ġb id
Ġf lex
Ġrul ed
Ġperson ally
Ġrequ ests
ĠDes pite
ĠTH E
6 4
x y
i xt
ad el
Ġdevelop er
Ġgot ten
c ow
et her
b urg
et te
ĠN ations
ce ler
Ġd ress
Ġgood s
Ġvill age
Ġoffic ially
Ġfif th
." [
Ġobtain ed
Ġdec ent
Ġemploy ee
Ġamount s
9 5
Ġreg ions
Ġarg uments
ĠStep hen
Ġstret ch
Ġext ensive
Ġdirect ed
Ġthreat ened
Ġdri ven
ĠSp anish
es c
Ġg od
iz z
ĠL u
ĠL ord
Ġpost s
Ġt ies
Ġstrong er
Ġmax imum
Ġde leg
Ġprim arily
ĠC le
Ġdec k
Ġ3 8
Ġun w
Ġtechn ologies
ĠBr ad
Ġhtt ps
ult ure
ĠC ard
Ġresist ance
ĠJer sey
al le
Ġr ub
Ġr ival
ĠAs ian
ĠN HL
Ġide al
Ġconf ront
Ġeng age
Ġnarr ative
ĠT ay
ĠD etroit
Ġcoal ition
d ro
Ġfigh ters
O b
Ġtr uck
O h
r ors
Ġint ellect
ĠY ear
Ġre tain
Ġconst antly
ã Ĥ
ĠYou ng
Ġph ase
m ission
ĠR E
end ers
The n
ack ing
Ġinc l
ĠAtt orney
Ġben ch
Ġd rawn
ĠIt aly
Ġesc ape
Ġcr ash
ĠH ist
ir ms
Ġreg ularly
ĠIr ish
Ġpurp oses
ast s
ĠL ong
ĠJ r
Ġreason able
all as
so le
Ġtrad ing
Ġreject ed
Ġbre w
r ary
Ġperfect ly
ĠD ar
Ġelse where
ac c
Ġprov ince
Ġan x
as ks
Ġend ing
Ġch osen
Ġcol on
Ġemploy ment
at i
is an
ĠG ames
Ġfix ed
ĠK evin
y ou
Ġwin ner
Ġdefin ition
p ool
ĠO ld
b oy
ĠM iller
S pe
Y es
ĠWil son
Ġcompar ison
Ġconst it
ri ve
u y
d is
Ġbase ball
Ġaspect s
Ġcour ts
st ers
Ġpark ing
Ġse ats
Ġev il
S S
st one
l v
Ġsome body
ĠEn ter
Ġsol utions
Ġcapt ured
Ġfind s
Ġ4 8
Ġworld wide
Ġr ig
ĠW ay
Ġbe ar
Ġcho ices
ĠK n
Ġdist inct
Ġcont em
Ġdr ag
ci ples
ĠSoc iety
b ar
ĠAg ain
Ġfound er
Ġs ample
Ġtre es
Ġin qu
Ġ3 7
ĠW atch
ax y
ra id
Ġhous es
Ġdatab ase
Ġvac c
Ġbill s
if orm
Ġsp in
igh ter
Ġincred ibly
ĠF ord
ĠL abor
ĠE r
Ġresult ing
Ġpro te
Ġst im
au g
Ġatmosp here
Ġestim ates
Ġincred ible
Ġcru cial
Ġ4 9
Ġnews let
Ġ icon
Ġsit uations
Ġent hus
ĠGeor gia
Ġlaw makers
Ġpay ment
ĠP y
N C
Ġcontin uing
Ġra ising
Ġk il
Ġdoz en
Ġcl ients
Ġact or
Ġempt y
pect ed
Ġb le
Ġenc oun
Ġw id
Ġform at
ow a
ow ered
ĠC amer
or a
ĠAn n
Ġst ead
ow ed
um s
Ġconclud ed
Ġap artment
Ġout come
ĠP an
Ġdem ands
Ġassist ant
Ġnew ly
isc al
int end
Ġt ied
ĠSt r
Ġro ster
ĠW at
ar ity
Ġf lying
Ġpro ved
i ro
Ġmay or
Ġaggress ive
A b
ĠM ic
ost er
ĠScot land
ĠM iami
Ġfield s
ĠPol it
ĠV an
Ġno body
ĠH el
Ġm urd
Ġwrit ers
Ġrout ine
f ire
or ic
nes ota
Ġkeep s
ĠS T
Ġinform ed
Ġest ate
ĠNA SA
Ġh its
Ġs ight
ĠC y
Ġestabl ish
ĠD i
Ġlo an
ĠTur k
Ġmag ic
Ġex ists
f riend
Ġret urning
Ġlet ters
ins on
ĠCar l
Ġveter an
Ġmix ed
u gh
ĠDis ney
Ġr us
F A
Ġdog s
ĠConst itution
Ġim per
ĠTh ough
Ġorgan ized
w an
' ,
ĠCh ild
C A
Ġaim ed
Ġt ank
Ġregist ered
T wo
Ð¾ Ð
ort ed
Ġrepresent ed
U T
Ġch ances
Ġmach ines
Ġcon ven
ep ing
p ress
ĠW omen
il arly
P ol
ll s
Ġansw ers
ĠT it
ĠJ ava
Ġinn oc
as ters
Ġgener ate
Ġdoll ar
ĠF am
Ġupd ated
Ġu pper
Ġcount y
Ġs oul
Ġun p
Ġsign al
r ates
ĠDe v
Ġaccur ate
Ġcomp ens
Ġbit coin
e lect
Ġg aming
4 9
Ġex cess
ĠF our
az e
in ations
Ġst uck
Ġacadem ic
ĠJ ordan
t le
ĠTh ank
os is
Ġter rible
Ġgrant ed
Ġcompl icated
Ġinf ect
Ġany more
ĠH ome
Ġcons pir
Ġprogram ming
u a
Ġext rem
ĠD NA
Ġassist ance
Ġant icip
Ġoper ate
st r
Ġcateg ory
ang es
Ġprof ile
Ġsuccess fully
Ġcontrol s
ĠIt alian
Ġp od
6 5
Ġover se
ad s
ĠM en
Ġcomp onents
Ġman ip
em en
r age
v ard
c ar
ĠC ast
ĠServ ices
al o
im p
Ġeng aged
ig ation
Ġwe ird
a o
id ency
Ġpen alty
ĠR ight
Ġtick et
Ġcompl aint
Ġpain t
ld er
ĠS outhern
Ġch ampionship
Ġw estern
Ġconclus ion
Ġang ry
as er
uild ing
Ġcapt ure
Ġatt ended
ĠM ax
Ġs atell
ĠSe a
ĠB owl
Ġad s
Ġel ite
D S
Ġregard less
Ġpil ot
O ther
Ġval uable
Ġp ace
Ġ7 5
Ġtechn iques
Ġvulner able
Ġconsum ption
Ġperman ent
ons in
Ġcons cious
the re
Ġnegoti ations
Ġmy th
in er
Ġprom inent
ĠAc adem
Ġrec overy
Ġlawy ers
Ġteach ing
isc onsin
ĠMo ore
Ġ/ /
L E
ĠD un
Ġg ro
ĠO s
Ġrac ial
ĠSp ain
ĠB ell
reg on
Ġtit les
ess ed
Ġha bit
Ġb oot
Ġdownt own
R es
ear ing
Ġadv is
v y
Ġscen es
Ġwar ming
S p
ack ed
p es
Ġdrink ing
M an
Ġreput ation
ĠU t
Ġacc omp
Ġaw esome
Ġd ict
O nce
ĠC ivil
A d
h an
Ġpl astic
Ġt aught
on ic
Ġexplan ation
ĠC am
se a
Ġf old
Ġsol ve
Ġtax pay
h tt
it als
u ine
Ġautom atically
I R
Ġthe rap
ĠVict or
Ġenem ies
f ast
ĠCh ampionship
Ġcomp re
ĠF il
Ġph r
Ġfeed back
ĠL and
ĠL ew
Ġt all
Ġbl ind
Ġph ones
Ġpriv ile
Ġsh ares
ĠPar liament
Ġent it
Ġemer ged
Ġsurv ive
Ġmark ed
Ġorig in
Ġresult ed
Ġpass es
ollow ing
Ġdep ending
ot ten
r ific
ĠB ru
Ġcom ic
Ġcompet e
Ġsan ctions
ĠMos cow
ĠL GBT
Ġdeg rees
ĠPac ific
ĠSen ator
Ġun certain
ĠD aniel
T oday
ĠMin nesota
Ġpar am
ĠSt and
re te
Ġ iron
Ġvis ited
Ġint ense
Ġdis aster
Ġth read
Ġbr ut
Ġminor ity
ĠOr gan
Ġc able
Ġmain ly
Ġrep orter
Ġins pir
ib ilities
ĠN Y
ob ile
Ġport ion
Ġtrou b
ĠFore ign
mon th
Ġt rib
Ġcontract s
ĠIn s
Ġcollect ed
Ġenjoy ed
Ġadop ted
Ġperson nel
Ġsur gery
Ġb om
ĠR og
Ġprin ciples
ĠNet work
i i
Ġengine ering
Ġen orm
Ġf irms
Ġposs ession
k ed
er a
Ġwork er
Ġcry pt
k ay
Ġsym pt
Ġf ought
ĠV ol
Ġfin ance
ĠK urd
Ġinst alled
ĠC D
Ġc ited
Ġf uck
ĠSte ven
atur ally
Ġsuff icient
ĠB rian
Ġco ordin
Ġin ev
gor ith
et ary
a ire
Ġequival ent
qu arters
Ġdisc ipl
Ġunus ual
Ġbl ocks
Ġrec ording
Ġhad n
ĠD allas
ĠO S
a ed
ret t
Ġrare ly
ap es
Ġdef ence
Ġf ake
Ġbus y
D e
m ont
ĠComp any
ĠAr ch
Ġdoz ens
z y
ch ain
Ġadvert ising
l ers
B ecause
Ġtrack s
C an
I G
Ġcor ruption
in ity
ã ĥ
Ġst ations
l ock
Ġexpect ations
ic er
Ġexpl icit
ig g
Ġr ating
C S
Ġcamer as
Ġth in
Ġh idden
prof it
Ġr u
ĠV iet
act ions
al i
Ġd uty
em s
ĠRom an
ĠAut hor
Ġdescrib es
ick en
ĠZ eal
ever al
âĢĻ ,
Ġb es
Ġshort ly
ĠB as
Ġhistor ic
ĠE duc
he nt
he rent
Ġfound ed
ĠAd am
adel ph
Ġp in
un ning
ĠG i
Ġstr ict
Ġaud io
Ġprop ag
d ate
Ġprocess es
Ġgener ated
ĠD am
Ġext ension
T S
Ġtast e
Ġclub s
st ar
ĠE astern
Ġparticip ate
Ġav o
Ġestabl ishment
us se
O W
z en
% .
u an
Ġw ing
ian a
4 6
âĢ ¢
Ġsp r
Ġaf raid
Ġp ounds
Ġcomput ers
Ġac celer
Ġbeh alf
Ġcapt ion
ĠJose ph
Ġcoun sel
m aking
Ġfeel ings
Ġsc oring
ur a
Ġmanufact uring
Ġbasket ball
Ġsu p
or ough
Ġap olog
Ġaff ili
ĠM S
s hip
ĠW isconsin
ĠG all
adelph ia
Ġevery where
Ġfun ny
Ġext ract
b al
Ġloss es
ĠAm endment
Ġag ric
Ġexp osure
Ġscen ario
Ġstrugg ling
Ġg ained
ĠT w
Ġprior ity
ab ama
or ne
Ġcreat es
Ġpattern s
it ar
Ġnomine e
ĠGree k
Ġcy ber
Ġob st
Ġgen uine
ĠP S
ĠI owa
ĠC at
ĠN orthern
ĠP R
Ġform al
H S
Ġst adium
at hered
anche ster
Ġv en
Ġ \
ĠK elly
Ġre ly
ann y
ar lier
p read
Ġrec ip
M ean
Ġstri kes
ĠN ight
ose xual
c r
s he
m o
um ber
Ġla id
ant ic
ĠH un
l ist
Ġvis ible
Ġb orrow
n i
ĠO regon
ĠRe al
3 00
ĠCo ast
v iously
Ġland sc
ĠN BC
if er
Ġ âĢĻ
if ies
Ġth ick
idel ines
Ġback ed
ath y
wh o
Ġt ur
M S
Ġfound ation
ist ent
Ġro ot
ĠT urn
ides pread
c les
im a
ĠT ony
Ġprofess ion
ri a
ĠN avy
el and
ĠSt ill
Ġun com
U p
ĠZeal and
Ġprinc iple
Ġtack le
Ġh ired
Ġair port
t a
Ġl oud
Ġphot ograph
Ġd im
Ġlight s
Ġwonder ful
Ġto ler
ĠB alt
Ġrecogn ized
ĠCl ass
Ġal gorith
Ġbr idge
Ġh o
Ġro les
Ġmed ium
ĠA venue
Ġ199 9
Ġrel ief
Ġsp ark
Ġphilosoph y
rat ors
ĠK ent
Ġbelief s
f all
ut s
Ġjournal ist
ific ations
Ġne uro
as hes
ĠC ome
r ative
Ġprodu cer
Ġhead ed
re ams
L ike
ĠW here
s m
Ġent ering
= =
ĠO per
e z
Ġun iform
ĠL ove
Ġdeli ber
ĠW ater
Ġcann abis
au c
Ġdisc rimination
og ether
Ġm el
Ġg all
ĠLin ux
ĠC are
Ġp ump
ĠT op
Ġdraw ing
Ġa ver
ER S
Ġimplement ation
ot al
Ġmove ments
Ġfe e
Ġrid ic
Ġfarm ers
Ġthous and
Ġ4 00
Ġt or
Ġsh ock
ig en
Ġcorpor ations
Ġinc ent
ĠA h
g un
Ġc rop
Ġele v
Ġshar p
ĠAn th
ind er
An y
Ġachie ved
Ġexcept ion
Ġf ault
Ġy ield
Ġfl aw
Ġfoot age
Ġst ab
Ġst able
ĠBe fore
ĠB ull
Ġchalleng ing
w rit
ĠAdminist ration
Ġleg end
Ġwithd raw
Ġban ned
ĠM u
f ound
Ġm ail
Ġind ex
ĠB est
Ġdo ors
Mean while
ar on
Ġ Î
Ġ19 60
Ġpro ven
Ġinterview s
ĠPol icy
Ġcont aining
ĠTay lor
ĠPro gram
as ion
up id
Ġve get
re p
f ront
Ġ15 0
Ġbare ly
Ġar range
ĠM ars
Ġprodu cing
ĠG er
ĠC oll
ĠR ay
ĠR ick
Ġh ole
ĠV iew
ĠPhil adelphia
Ġpl ate
ĠN ick
Ġ( $
Ġe uro
ĠPrem ier
w orld
Ġch a
ou red
ĠSu pp
oun ced
Ġindic ate
m ate
ĠD ark
ul ating
Ġwhe el
Ġdest ruction
Ġdin ner
ĠPer haps
pr ise
Ġpl ug
Ġcomp onent
Ġsh ips
ĠA li
ĠI N
pr int
Ġw idespread
Ġprogress ive
Ġrestrict ions
Ġconv in
Ġneut ral
man n
8 8
iz on
6 6
et ime
Ġwar rant
ĠIm age
ĠF ort
ĠHen ry
ĠMar c
ĠJ osh
ask a
b ro
Ġwall s
ĠM ajor
Ġret ired
Ġr iver
ĠAl abama
Ġh itting
ï ¿
Ġrapid ly
Ġnot ion
Ġsuggest ing
Ġcampaign s
ĠF re
il ton
an ing
Pol ice
Ġo cean
Ġconv icted
ĠP M
S c
ri ers
port ion
Ġun ex
ind ing
Ġper pet
the w
Ġredu ction
P er
ili pp
az z
li x
Ġl oyal
oc ation
Ġdeli very
Ġb ath
less ly
Ġintellect ual
7 7
am ber
ĠIn vest
Ġoverwhel ming
Ġstruct ures
Ġlik ed
Ġtechn ique
ĠL ight
Ġf iscal
F P
Ġbeg un
ĠCon f
u er
Ġepis odes
Ġreach ing
ĠO ak
ĠI d
Ġh ang
ink ing
Ġill ness
Ġb urd
M ay
Ġredu cing
Ġro se
Ġf inger
Be fore
Ġelect ronic
ĠIn f
Ġ6 5
rou s
ĠR oyal
olog ists
w r
abin et
Ġview ers
Ġut il
Ġsa ved
Ġup set
Ġ3 9
ĠA L
sy lv
Ġto x
Ġinter face
Ġequ ally
Ġconst itutional
AT O
Ġiniti ative
Ġed ition
Ġg ift
Ġwe lf
ï¿ ½
ĠM oh
Ġrecogn ition
Ġrob ot
Ġlangu ages
ĠChrist ians
ot es
m od
Ġj u
ĠB usiness
ĠTurk ish
O C
re ll
act ive
ĠS now
Ġ4 2
Ġind icated
Ġ5 5
Ġwelf are
Ġcont ained
ĠS af
Ġexclus ive
Ġeth nic
Ġtouch down
Ġunemploy ment
y ard
Ġwebs ites
Ġsett lement
ĠV R
Ġdep uty
us ive
Ġrepresent ative
ĠO l
p ost
Ġterror ists
Ġcont ribute
ĠDevelop ment
Ġgr ass
ĠH om
ĠR and
ĠAcadem y
Ġcoll apse
Ġfeat uring
ĠC ross
ĠH ot
Ġnorm ally
Ġhard ly
ĠS k
ry pt
ĠTh us
ĠN ation
ĠD own
ĠG reg
ĠSpe cial
Ġfore ver
Ġv ital
ĠCon ference
ĠAs h
ĠE nd
ĠArab ia
ĠIm ages
ĠAtlant a
te en
ĠMay or
Ġprocess ing
Ġpract ical
Ġtrans gender
Ġt ag
Ġel ig
ag ram
ĠF ed
O D
Ġsens itive
Ġrac ist
Ġinvolve ment
Ġsm ooth
ĠE mp
um er
ĠKing dom
ol en
Ġstrateg ic
sylv ania
Ġdev ast
ĠM anchester
Ġbr anch
Ġbrow ser
ĠF red
Ġw ages
n ame
Ġex ceed
op y
Ġdem ocratic
Ġphys ic
E M
Ġcare fully
% )
Ġfant asy
ĠG ov
Ġfail ing
Ġunc lear
Ġth rown
im m
Ġhand ful
Th ose
Ġsett le
Ġconvin ced
Ġindepend ence
t hen
Ġschol ars
a us
Ġrec over
Ġlist ening
ro lled
arr ass
ĠMcC ain
Ġsy nt
Q u
Ġser ves
8 5
Ġcollect ive
Ġlob by
ĠT em
ar ry
Ġfriend ly
ĠL ook
Ġdeep er
Ġs oph
eng ers
Ġinv ited
ig ure
Ġover t
ĠJud ge
Ġ6 4
Ġb ra
ter ing
ĠN SA
ĠT ake
ĠBern ie
ĠR ose
le te
Ġinv ent
ant ed
Ġrefer ring
ĠN ob
os m
ĠMc G
sel s
ĠC all
Ġb ail
um in
Ġcompl aints
Ġowners hip
ĠInd epend
em an
Ġpres um
Ġh ide
Ġprep are
Ġjo ining
ol is
ut ies
Ġattempt ing
ĠGl obal
ud es
Ġrespect ively
ĠK ir
y stem
J ohn
Ġconnect ions
ĠLat in
b a
Ġcitiz en
Ġw ars
t es
use t
ĠEduc ation
0 5
Ġcompre hens
Ġf iction
ĠT est
Ġframe work
Ġpro sec
F r
ĠF oot
Ġen able
ow ing
Ġg athered
Ġinvestig ate
ab s
Ġmind s
ĠSer ies
Ġex ternal
ust ed
E A
r ical
Ġincor por
Ġtick ets
ĠF ood
Ġr ural
Ġsc andal
ach ing
Ġv ary
Ġvisit ors
ĠJ ac
Ġfear s
op her
ĠHar ry
ĠMin istry
Ġtr ained
Ġplatform s
Ġroad s
Ġfr ag
Ġal ien
Ġt ail
Ġt rem
og en
ĠDe ad
Ġdiscuss ions
os a
Ġfl ash
M L
Ġreview s
Ġcivil ians
he ast
Ġlic ens
Ġany body
ĠDie go
l ad
ĠTe le
Ġtem porary
Ġperm ission
ĠP ay
ĠL o
ĠCent re
uset ts
ĠO nt
Ġexpand ed
ach usetts
Ġre ven
Ġseem ingly
Ġcontrovers y
Ġeas tern
Ġan ger
Ġj ury
Ġh ook
Ġacc us
l an
Ġattack ing
Ġ199 8
a un
Ġst eal
Ġro ok
R S
ĠF und
Ġ4 4
" .[
ih ad
D r
Ġenorm ous
Ġassoci ation
l ights
P resident
Ġdisc overy
ĠPenn sylvania
Ġneigh bour
alle l
Ġground s
Ġlegit imate
ri ent
Ġtest im
ĠI T
Ġimplement ed
Ġcas ual
Ġprov iders
Ġaware ness
h our
im ore
Ġsp aces
Ġadvoc ates
b ec
ams ung
Ġco aches
Ġreg ulation
Ġl ists
Ġpe ak
Ġentertain ment
ĠW in
th is
Ġact ors
Ġg onna
u ce
Ġhead ing
Ġsuff er
it i
Ġnot ing
Ġ ]
S e
Ġdisag ree
ent h
Ġbehavi our
Ġext end
Ġcap tain
ĠE p
ĠM id
y e
own ed
ĠH as
ph ones
Ġult imate
Ġsm oke
bur gh
aw ay
ĠB ry
Ġrem em
ition ally
ĠPh ot
Ġactiv ist
Ġf ab
p ower
Ġaff airs
Ġst ake
d em
ĠDiv ision
ou ver
Ġout s
Ġrank ed
Ġbr ill
Ġlo ans
Ġinvestig ators
Ġdynam ic
Ġpublic ation
Ġdram atic
Ġpurch ased
ĠH ay
Ġsuspect ed
b ell
omm od
Ġinvol ves
ĠH it
ĠIran ian
O r
g ener
Ġhol iday
Ġrefere nd
ivers ary
inc luding
ned y
o en
d a
ĠK ansas
Ġno ise
Im age
ĠF air
ĠJ ason
Ġconsist ently
Ġstat istics
Ġsubstant ial
Ġf oss
Ġrem arks
ĠTh anks
Ġin ject
% ,
Ġoffic es
4 2
Ġinter vention
ik es
Ġt one
Ġimprove ments
ĠP ent
Ġtransport ation
ĠF urther
Ġb ureau
ĠTh ree
Ġign ore
ĠS n
Ġdis pl
Ġscore s
un ior
6 7
Ġas ks
Ġsal ary
T H
Ġing red
Ġleg s
ick ing
Ġadm it
f are
Ġhuman ity
Ġr aces
Ġg ear
Ġfall en
Ġlog ic
Ġest imate
M P
Ġam id
4 00
rat or
Ġbrother s
Ġconvers ations
Ġdef ine
Ġliqu id
ĠT enn
Ġthe at
am i
ul es
ĠA R
Ġcele b
Ġview ed
Ġm o
ĠCamer on
b n
Ġj ur
re pre
Ġf ulf
Ġthrow ing
ĠP en
S ec
Ġfact ory
Ġvirt ually
ĠU FC
Ġdis rupt
anc ouver
ĠPh ilipp
Ġdesc ription
Ġrecomm ended
Ġatt ached
Ġreg ister
ere nces
ĠMass achusetts
Ġr ational
um a
Ġimprove ment
Ġemb arrass
Ġd iversity
Ġt asks
Ġinfl ation
Ġsubject s
Ġrec all
Ġlay er
Ġprof its
Ġgen etic
6 8
Ġconspir acy
Ġvot er
ĠGree ce
w orth
repre ne
Ġsusp ended
Ġstay ed
ĠL ind
ict ions
Ġr het
if est
Ġrep rodu
Ġar ray
Ġresour ce
ĠA BC
l og
Ġabs ence
ar ms
e en
ĠC irc
Ġmedic ine
Ġg am
Ġsympt oms
Ġacc ommod
Ġmiss ile
ien ces
um es
Ġhand ed
Ġopin ions
level and
Ġball ot
ob s
st ead
ĠX box
ĠN C
Ġpre ced
N e
Ġinvestig ating
Ġres ign
m ad
es ter
ĠS ir
Ġast ron
ĠConserv ative
is p
enn y
Ġover s
Ġs in
Ġguarant ee
Ġprem ium
Ġsh r
Ġcontribut ions
ĠF ield
ĠT O
ĠAl bert
ĠColumb ia
ĠG aza
Ġaddress ed
ĠL uc
ĠL y
Ġport ray
Ġne ck
omet hing
Ġmin ing
ino is
Ġp apers
ĠS uch
Ġsc reens
C ont
Ġw rest
Ġins ist
Ġaut hent
Ġencour aged
I ON
Ġr anks
Ġlow est
am ac
Ġp orn
ĠN ote
Ġhor ror
ick et
Ġperson ality
Ġfant astic
0 1
il er
Ġb ars
Ġvers us
ĠM ir
x it
ĠAnt on
ĠBro ther
Ġr aw
Ġst upid
Ġsur f
Ġh am
Ġl uck
ĠUn fortunately
Ġinqu ir
m al
Ġcon ce
Ġtweet ed
Ġhor se
Ġg ains
ĠE SP
I nt
ĠMed ical
Ġcover ing
Ġw ine
Ġsw ing
Ġcare ful
Ġprinc ip
P G
Ġatt itude
ĠVe gas
C E
Ġinnov ation
m aker
B O
Ġprom ises
ĠE s
Al so
ĠGuard ian
ĠH or
Ġj e
ĠWalk er
Ġd rew
ĠRe ad
Ġsh it
ĠL ive
Ġprotect ing
ĠSqu are
Ġpet ition
Ġimpro ving
Ġfore st
ĠH T
Ġnom ination
ang el
00 00
Ġjud ges
Ġmount ain
Ġpo ly
Ġbo at
Ġch apter
ov al
Ġcontribut ed
Ġinc idents
iv als
Ġcom edy
ĠIraq i
ĠRad io
ult ural
Ġshould er
i el
am med
h o
Ġacknowled ged
Ġre vel
j a
p age
ĠKe y
Ġco vers
Ġcl osing
Ġmus ical
ĠN ic
Ġdep ends
Ġtemper atures
Ġappreci ate
un icip
Ġphot ograp
Ġsubsequ ent
Ġl ands
ut ed
Ġab st
Ġmen u
Ġhyp ot
Ġsam ples
Ġmar ks
rop ri
Ġh int
d ri
ĠBe ach
ĠM ah
Ġth rew
Ġreferend um
Ġ4 7
Ġdr ama
Ġsp oken
Ġclot hes
ĠJ ay
ĠCh air
Ġconserv atives
Ġin ner
Ġeff iciency
sc ale
amac are
ĠAll en
Ġ199 6
Ġste el
Ġd iverse
ur rent
intend o
c ling
Ġfr uit
ĠRe uters
ĠAnth ony
Ġspirit ual
ĠSant a
Ġdist ributed
j o
p ed
c ore
ĠN ATO
Ġsu gar
Ġreplace ment
ĠProf essor
Ġmid field
ĠKen nedy
ĠS C
Ġtri es
c ase
S L
i ability
ĠPat rick
Ġcom pe
Ġread er
Ġpre f
Ġspokes person
Ġpartners hip
are t
os it
Ġg rav
Ġbar rel
Ġhom eless
ĠAust in
Ġdef icit
Ġunivers ities
Ġcritic ized
Ġfund ed
Ġcol ors
ĠInd eed
rap h
ĠMex ican
Ġun ions
ĠF reedom
c ific
ĠMe an
Ġhand ling
U nder
iver pool
Ġl ucky
pl ed
Ġâ Ĥ¬
ĠM useum
port ed
m l
Ġg al
Ġb acter
it age
Ġdep ression
ij ing
i y
Ġl ocked
Ġabandon ed
Ġtom orrow
ĠO tt
Ġcongress ional
f rom
Ġd ance
Ġcommon ly
Ġr om
Ġso il
ĠGold en
ĠV ancouver
Ġrece iver
ĠQue en
z ed
ĠI ce
Ġte a
Ġmil k
ĠR oy
Ġread s
Ġmist akes
Ġrepresent ing
Ġstri king
ĠRev olution
ĠInt elligence
Ġk m
A dd
ĠMat thew
Ġprot ocol
Ġord inary
Ġc ogn
Ġdiv ided
od ing
Ġacqu ired
Ġsett ings
Ġhead quarters
ĠC leveland
ĠPat ri
ĠU lt
Ġcap abilities
ĠSt one
ĠF C
ke ep
ect ive
Ġ4 1
cl aim
Ġinstru ment
l ah
Ġpres idency
Ġn aturally
ĠC BS
f und
Ġpropos als
ĠS at
iet ies
ĠO K
4 3
Ġf estival
r ac
ĠA D
aed a
ĠS ony
our se
Ġi P
Ġ199 7
Ġche cks
ĠAr m
Ġcon sole
ge on
Ġconvention al
Ġpass engers
red it
Ġtrans actions
Ġi OS
Ġequ ality
Ġign ored
ass ador
Ġgr id
Ġspeak s
Ġstud ied
4 1
ĠL ittle
ĠB udd
Ġske pt
ĠIll inois
St ar
Ġdemonst rated
Ġin equ
p ie
Ġleg acy
Ġrac ism
ic ity
Ġd ump
Ġst one
ĠL as
ĠA le
Ġveter ans
ĠCommun ity
er ted
Ġsy mp
Ġhop ed
ĠEn vironment
Ġst olen
8 6
ec ut
Ġcop ies
ag g
Ġins isted
ĠW W
ĠSpr ing
r imin
ap ing
Ġappoint ed
L C
Ġdist ract
Ġsen ator
Ġbreak s
pl oad
ĠBalt imore
Ġmonitor ing
co ver
ed ing
M c
f lix
Ġ20 20
Ġcent ers
sen al
Ġpolit ically
Ġl ying
Ġab road
Ġliter ature
Ġlet ting
ĠAP I
ĠH ospital
ĠH ard
ĠA ction
d es
Ġsil ver
Ġwat ers
ĠN ever
ch ange
Ġsupp lies
ĠS amsung
Ġlandsc ape
ĠSt adium
ann els
Ġle ts
Ġsc ope
ĠWith out
Ġ( âĢľ
Ġc ro
av al
in ction
' .
Ġass ert
Ġtrack ing
ĠAnd erson
Ġconc rete
Ġclass ified
Ġb ub
oty pe
te xt
Ġ4 3
pp ers
ĠS ometimes
Ġc ust
Ġprogram me
Ġmat hem
Ġentit led
Ġcount s
ĠK at
Ġfall s
ĠHow ard
Ġsho pping
we red
Ġst ages
Ġrel iable
Ġtrans it
Ġd ub
Ġc oc
Ġr amp
Ġperform ing
Ġch at
ann a
Ġw ider
ial s
ou ch
Ġgu est
Ġj oy
Ġst y
ĠT own
ĠD ig
Ġart ific
v i
Ġr if
Ġt ape
re ts
Ġvir us
Ġdismiss ed
Ġjo ke
ĠR en
back s
Ġpurs ue
c ription
Ġbl ast
Ġbro wn
s ing
R uss
Ġarri ve
Ġl es
Ġtarget ing
Ġspokes woman
ĠBro ad
ĠP ack
ĠP itt
Ġrepresent atives
Ġt ie
Ġvis iting
Ġpar allel
ĠB attle
ĠB ureau
ĠN ev
Ġpopular ity
Ġre ar
ak a
est y
Ġm oon
ĠB ang
Ġsum m
Ġsubsc rib
ion e
ĠHar ris
9 8
Ġsh out
Ph oto
Ġhelp ful
Ġm arch
Ġh ockey
N E
ac on
Ġupgr ade
7 8
Ġassess ment
Ġprodu cers
Ġm useum
p at
Ġdro ve
ĠMus ic
Ġappear ances
od ed
S en
ĠESP N
Ġintrodu ction
aw are
Ġc up
Ġrestaur ants
ĠMark et
arg o
the less
ĠT ro
ord on
Ġbeaut y
ĠAtlant ic
Ġabs or
Ġfocus ing
ĠK ong
Ġwar n
Ġtr ave
Ġv es
Ġob s
ĠLew is
Ġcan ce
in ch
Ġwealth y
Ġlegisl ative
Ġun pre
app y
Ġfor cing
Ġmembers hip
Ġm aps
Ġsc an
ĠH ind
ct ic
Ġgu itar
ĠWh ich
Ġt ip
Th ough
Ġent reprene
ĠP oint
Ġd ad
ĠR oss
Ġ4 6
Ġarg uing
Ġmeas ured
Ġpip eline
ĠIndian a
ĠV is
ult ane
Ġtestim ony
Ġex it
ĠMar vel
Ġrespons es
Ġwhen ever
Ġsoc cer
Ġs orry
Ġm ad
Ġbank ing
Ġdemand ing
pl us
ĠAs se
O ff
Ġblock ed
Ġur ged
ĠC O
b ors
Ġrequest ed
Ġtact ics
B oth
Ġviol ation
Ġoverse as
Ġdocument ary
ĠAb b
M ar
d oor
ord inary
Ġcl ock
or able
Ġpl ain
Ġgener ations
h op
Ġarg ues
Ġretire ment
Ġt ens
Ġbrill iant
m ade
Ġpredict ed
Ġbroad er
u ction
in ating
Ġtit led
com es
P C
Ġh ung
ĠC ook
ĠH D
hel sea
h igh
Ġact ively
Ġemploy ed
Ġyell ow
Ġappro ached
Ġh osp
re c
ir ts
un es
ide o
Ġtw enty
Ġf iring
Ġc ul
ĠC ore
Ġd ust
ĠOb amacare
ene z
ĠK ar
Ġhealth care
il a
Ġpop ulations
Ġscient ist
ab eth
Ġintrodu ce
Ġsmart phone
ĠII I
ĠR a
z ing
Ġprison ers
Ġtrig ger
ĠRep ort
usal em
Ġmonth ly
Ġth orough
Ġprosecut ors
Ġresc ue
ĠPl us
em ed
ĠOnt ario
Ġf ro
j ud
ĠB a
Ġafford able
he im
Ġunex pected
en cing
Ġcont rad
sh ire
Ġprep aring
Y et
min ute
Ġfigh ter
Ġstrugg led
or ous
Ġinvestig ations
Ġsatell ite
Ġsett led
Ġsurv ival
m ony
th on
ĠBe ijing
ĠL yn
Ġrock et
om es
Ġrook ie
F F
Ġphr ase
ĠN intendo
ĠRe view
Ġreform s
Ġdesign s
ĠR et
Ġfore cast
Ġgrad uate
Ġmort g
ĠEmp ire
ĠOlymp ic
Ġsure ly
ĠB ab
Ġ199 5
Ġsav ings
ĠH o
E d
Ġus age
Ġass ign
Ġprov ision
Ġphenomen on
Ġann iversary
d og
Ġre nder
E n
Ġrat io
Ġc ig
ĠF ull
ĠUt ah
room s
ĠD id
oun ce
Ġhy per
Ġcl ar
ĠT ri
ĠDen ver
e als
on ly
ra pped
Ġb read
Ġsw im
Ġst ability
Ġaut o
Ġimportant ly
ĠPr ince
er ies
Ġs orts
T e
ĠB ron
Ġent r
ound ing
Ġharass ment
Ġm ole
b i
arch y
Ġinnoc ent
Ġcivil ian
Ġch annels
Ġser vers
Ġobject ive
Ġthreat ening
re f
Ġchild hood
c ut
Ġmaintain ed
Ġcelebr ate
ĠB all
Ġdis order
Ġtr illion
ĠHar vard
Ġunivers al
ĠA I
ĠIn formation
Ġout rage
ĠE ag
Ġsp ots
Ġlo ose
Ġden y
Ġroom s
he ld
lah oma
Ġexecut ives
y er
Ġkil omet
Ġpers u
Ġdom ain
Ġcomprehens ive
Ä ĥ
5 9
al ia
eder ation
ĠSwed en
Ġprom ising
Ġprote in
Ġw edd
ĠFoot ball
Ġpre par
ĠA p
Ġtrem end
R C
" )
ĠG ulf
Ġb orders
or gan
Ġencoun ter
ĠD utch
Ġm os
Ġplayoff s
f ol
Ġsh adow
! )
is ons
Ġcomp are
Ġanx iety
Ġbu ff
R L
ĠAm ong
ĠGal axy
ĠB uff
om ed
Ġwe igh
Ġd ates
the y
Ġprecise ly
Ġint im
ĠLiber al
ĠPort land
Ġquestion ed
Ġdifferent ly
Ġhy dro
Ġsh ame
Ġex ha
ced ented
ĠSt at
pl ate
Ġanaly st
C o
ack et
Ġ199 4
hes is
Ġdead ly
Ġsecond ary
h ar
nt il
Ġsa ving
ĠM arsh
ĠA S
ĠGovern or
Ġde lic
ĠMary land
l ined
ĠL iverpool
m ind
ac co
Ġaward ed
Ġpropag anda
Ġp ig
Ġfl ags
ĠT ed
Ġaut onom
su pp
Ġqu oted
Ġpers ons
ĠJer usalem
ĠMean while
Ġdemonst rate
Ġpoint ing
Ġstre aming
Ġexper iments
hold ers
ĠFam ily
we et
Ġround s
qu est
Ġvo ices
L A
Ġtort ure
Ġf ate
Ġmeaning ful
Ġl unch
Ġodd s
l ow
Ġreve als
Ġa x
ĠB ible
Ġwant ing
Ġsequ ence
Ġemer ging
Ġsub mitted
Ġr ush
Ġcooper ation
Ġa er
Ġab ilities
Ġcons ensus
ĠPalestin ians
Ġste pped
or ious
Ġcons ent
as ury
Ġposs ess
ĠChe ck
th rough
Ġphys ically
Ġbreat h
G O
Ġconsider ation
Ġland ing
Ġro of
ol ves
Ġremark able
y o
Ġhost ed
ct r
m at
ĠAd v
ĠâĢ Ŀ
Ġst ored
Ġcounter part
Ġst em
Ġadv enture
Ġse ar
ore t
ĠCon nect
Ġaccess ible
ol ph
Ġpromot ing
Ġdial ogue
P P
ile y
Ġmin i
Ġweek ly
ĠViet nam
ĠCo oper
ĠD ave
Ġsim ultane
Ġcompet ing
Ġrel ax
ah u
Ġre verse
br idge
Ġman aging
Ġopen ly
ĠS cient
Ġstay ing
Ġse vent
ian o
Ġrele ases
ir lf
Ġfoss il
Ġrat ings
ĠR ef
Ġ5 2
ĠScott ish
ĠH a
Ġcr imin
Ġassum ed
ĠA ward
er ts
Ġgreat ly
Ġf ool
Ġathlet es
Ġcirc le
ĠCont rol
ĠH op
Ġass ass
Ġinvest ments
ecut ive
d ney
Ġdes erve
Ð »
ĠP ot
Ġf ur
Ġco inc
Ġsem i
Ġleg ally
5 7
Ġag es
Ġsm oking
pt on
c a
Ġcere mony
Ġarchitect ure
D av
ĠEng ine
Ġenthus i
ĠY emen
Ġh al
ĠS wit
Ġbut t
Ġp uzz
ĠD ata
Ġf ing
Ġcent uries
Ġdri ves
m ans
Ġdr one
Ġjud gment
Ġp atch
Ġw aves
Ġimpl ications
Ġend orse
Ġdist ingu
old s
Ġparticip ation
ĠCor por
ĠT our
Ġinter f
ou ri
Ġm it
s a
Ġg ross
ĠNe xt
Ġkn ee
Ġbi as
Ġdon ations
Ġp icks
b ered
Ġpr on
ĠHe ad
Ġb irds
ĠM ill
o is
Ġdef ending
9 6
iff s
Ġelig ible
ĠEd ward
Ġdisp ute
Ġstrateg ies
ĠA cc
Ġl ux
at ar
Ġwind ows
Ġ %
ĠWar ren
ĠB rew
Ġexpand ing
it ol
ĠA st
ĠNet flix
Ġche st
Ġb urning
Ġsm ell
h att
Ġsil ence
ic ism
Ġd ying
port ation
ĠBel g
Ġe ase
d ed
ast y
Ġindust ries
ĠAb out
iz abeth
L ook
ent er
Ġeduc ational
ĠLib ya
Ġman agers
et ers
8 00
ĠTechn ology
el a
Ġexec ution
ten ance
ir a
Ġg ent
Ġdifficult y
ĠFr ont
. -
Ġfac ilit
int erest
ier ce
ab et
av ed
ĠAlex ander
Ġar bit
Ġcont ribution
Ġre vers
Ġstud ying
Ġclot hing
Ġcal m
Ġfund ra
Ġsuper ior
Ġwhere as
ĠLe ader
Ġspect rum
Ġal ter
Ġac id
9 7
Ġrhet oric
ĠOk lahoma
Ġd ating
Ġass igned
Ġrac ing
Ġform ation
part y
ĠB ad
Ġdiscuss ing
Ġg if
cept ions
s es
Ġr iding
Ġcateg ories
ig ate
5 6
Ġh ip
Ġmem o
Ġscr ut
ĠBre xit
Ġper ceived
Ġdefe ated
ĠV ice
in als
ĠJ am
Ġcoach ing
Ġback ing
Ġchar ity
b its
Ġhop efully
M e
Ġke ys
Ġpass age
ĠPent agon
ĠC ro
Ġproced ure
as ant
h ot
ĠB ra
Ġdomin ant
all ing
a is
Ġins pect
Ġmin istry
el son
ĠM oon
ĠJust in
ie v
ĠAss ad
ag h
ĠRober ts
enn is
ĠHist ory
ĠHe ll
bre ak
w alk
Ġton ight
Re uters
0 8
Ġgu idelines
ĠT es
ĠH ur
igen ous
ig ious
Ġinst itution
Ġunf air
aut hor
Ġburd en
ĠB oe
ĠBer lin
Ġmem ories
vern ment
Ġpick ing
Ġn ic
Ġ19 50
Ġgather ing
Ġsubst ance
Ġw ounded
Ġc ow
ĠS us
Ġadv iser
Ġm ac
ĠAff airs
Ġout lets
Ġcapital ism
Ġmarg in
ri ends
Ġl apt
Ġrepe at
R ec
Ġinstruct ions
ĠBe ck
Ī Ĵ
B M
Ġe ager
ĠU ber
ĠH ong
re ction
Ġindic ates
Ġbill ions
ĠM ake
omp son
Ġbatt les
er g
Ġst ere
Ġdiv or
r ace
od ox
Ġrec re
a fter
e ven
ĠAsse mbly
Ġc iting
Ġregul atory
es see
St ill
os ystem
Ġer rors
b ow
ag a
Ġunder lying
Ġexpl aining
Ġreb els
Ġhosp itals
af e
Ġt ons
ĠGra ham
R I
Ġ5 1
Ġf et
ish op
Ġdis h
ty pe
S cript
Ġrecru it
ĠR os
Ġcontact ed
ĠCome y
a ver
Ġun con
ĠB on
ors hip
Ġt ap
ĠBr idge
ĠP o
se ct
Ġph arm
Ġman ifest
Ġso vere
N ote
Ġengine ers
Ġarri val
Ġunpre cedented
Ġgen re
Ġob sc
Ġdam aged
ĠCar ter
ar ation
Ġh ire
ater al
Ġblock chain
Ġsuspect s
Ġtrans action
b ian
Ġsh ield
Ġpresent ation
w as
Ġimp ression
Ġp ocket
j i
Ġenh ance
r ome
Ġ199 2
Ġrequ iring
ge red
Ġqu ote
or ge
Ġbl ank
c est
Ġacknow ledge
Ġt ired
ĠG un
Ġthe ories
Ġst ance
yl um
ing ton
Ġm ood
ag ic
r if
Ġaddress es
Ġmiss ions
ĠT ai
ĠBat man
d on
Ġsix th
ĠU r
ĠC helsea
Ġtherap y
ĠB ud
ĠN orm
rib utes
usse ll
Ġpull ing
) )
OR E
Ġn in
it udes
Ġkit chen
art ed
5 8
Ġconv ince
ĠR ather
it ary
ĠV ill
Ġv ig
ĠA k
H er
ĠBl oom
ik a
ĠHam ilton
Ġhe lic
Ġtal ented
Ġrequire ment
Ġch icken
Ġfl ed
Ġbon us
est ed
C ol
ĠC ow
Ġproced ures
Ġevery day
ĠA C
Ġdise ases
Ġfollow ers
ĠCr ime
ĠAr k
ĠMar x
Ġper mit
Ġorgan ic
Ġpart ly
Ġn a
Ġesc al
Ġmus cle
Ġprefer red
Ġcommand er
st ep
Ġstop s
Ġline up
Ġclin ical
unicip al
Ġop ens
oen ix
6 00
ĠML S
im b
Ġcust ody
Ġs alt
Ġfrequ ency
E arlier
New s
ann on
Ġins ult
Ġfood s
enez uel
ĠP op
Ġo kay
Ġch ip
Ġmig rants
Ġpoll ution
Ġover come
Ġb ot
Ġbe ating
Ġpun ishment
Ġag ed
ĠRep resent
Ġbe ings
Ġb owl
Ġsurv iv
P M
ĠL A
Ġro y
Ġanaly sts
Ġtri als
ap olis
Ġhom osexual
Ġam endment
ĠComm on
Ġdram atically
Ġcre am
ĠSy dney
in f
Ġextra ordinary
Ġsign ature
ĠM aster
alt ies
Ġcr us
ass y
Ġtrend s
ĠSar ah
Ġsh ipping
d it
ĠBru ce
mark et
Ġelimin ate
Ġunder t
Ġspeak er
Ġcreat ures
ond er
Ġinc hes
Ġencour aging
ĠS S
Ġemploy ers
Ġattract ive
Ġbad ly
Ġpo ison
Ġg ig
p a
Ġs ed
Ġt iss
Ġhelic op
ative ly
it ure
Ġb in
Ġsearch ing
Ġpsych ological
Ġcl er
Ġbe ach
Ġperiod s
ĠWhe ther
Ġmer ch
Ġtim ing
Ġmanufacture rs
ĠCap ital
tr ans
7 6
Ġeconom ics
Ġdisc ount
Ġconstit u
ugh t
Ġn erv
ch ild
ĠS om
ĠPro p
5 2
Ġprincip al
ĠA ud
we ek
ĠOak land
Ġse ed
Ġun ve
Ġsign als
ll a
ĠMc K
om y
ĠW olf
it ual
" :
ĠLe on
Ġassoci ate
Ġtop ics
Ġfrequ ent
ĠA ge
Ġpubl ishing
ail ed
ak h
Ġar ts
ĠRub y
Ġcompens ation
Ġcontem porary
ĠInd ust
ĠF al
Ġcollabor ation
Ġan s
ut en
ad i
Ġgr ade
ch ing
ĠB ase
-------- --------
ĠS ix
Ġprospect s
ĠMr s
Ġcou ples
ĠHaw ai
aren cy
Ġsent enced
Ġbott le
S m
Ġrepl ied
Ġtown s
Ġdead line
Ġb ow
Ġaim s
Ġgraph ics
it ter
Ġg ate
Ġdiplom atic
Ġinv asion
ĠDo es
Ġp ill
Ġcar ries
ol ving
ĠMag ic
iz er
Ġe lder
Ġnot able
Ġengine er
Ġrem oval
ĠMor gan
Ġrec ipe
Ġ9 5
Ġ201 9
ĠC ost
ĠV ik
Ġche aper
Ġar r
Ġprompt ed
Ġcom ics
ar re
Ġle ct
ĠS ab
Ġre nd
er ia
ĠS ure
ĠM etro
Ġro lling
Ġweak ness
ple te
ro ph
Ġinequ ality
li est
Ġcor rupt
Ġdeploy ed
Ġ199 3
Ġsm ile
Ġcoll aps
Ġro ots
ĠSe an
ĠL ow
P r
b ury
ĠG DP
Ġs its
Ġm ath
Ġocc urs
ĠSil ver
ĠA z
Ġconst itution
it o
ĠTh rough
og y
Ġcommun icate
ĠM ach
ĠTenn essee
0 9
Ġviol ations
ĠTr ade
Ġinst ances
ocol ate
Ġir re
Ġlab our
ĠPro v
Ġneigh bors
ri ors
Ġconcept s
ne cess
Ġins ight
ĠT ok
Ġv end
Ġut ility
Ġfab ric
Ġappro aches
Ġsh oes
Ġcamp s
irlf riend
es y
Ġstat ist
Ġpost ing
Ġoccas ionally
Ġperform ances
h ard
Ġmoder ate
ĠY an
Ġcomp at
our ces
ĠJ ere
Ġec osystem
Ġse ctions
ĠT en
A ss
Ġopp ose
C ons
Ġse gment
Ã ¢
ĠW ales
ĠF orm
Ġper ception
Ġar c
em ic
ĠEl izabeth
ĠD V
ber ry
5 1
ĠG ary
ĠE xt
ĠAssoci ated
Ġdemand ed
Ġprofession als
Ġland ed
Ġtem por
ĠP res
Ġl oves
Ġartific ial
is a
ĠF all
Ġinst ant
ib an
Ġridic ulous
Ġmaintain ing
ĠMur ray
Ġinquir y
Ġdef ender
Ġb old
Ġinterview ed
Ġmain tenance
Ġl ad
Ġinter action
Ġaccomp an
Ġtox ic
ĠG irl
Ġse ized
M s
Ġimp osed
Ġc ock
Ġ( "
Ġdisappoint ed
ĠSh ar
ĠS el
ĠKent ucky
ĠLe ft
ĠRe agan
ĠG T
Ġmilit ants
op en
Ġrec on
ĠDe ath
ĠD et
ĠH old
Ġrecommend ations
ac hel
ag ger
Ġtr aged
0 4
ĠMan agement
Ġtwe ets
Ġown s
oc ument
ĠL am
Ġgen es
ol n
Ġadop t
Ġshe ll
Ġtravel ing
Ġgu ests
Ġt ut
ĠE th
ĠJon athan
ĠSe ason
Ġsub ur
o z
land o
ĠHar per
Ġint r
Ġdist ur
ra ig
art s
Ġopp osing
en ess
Ġex port
Ġd ies
Ġs li
Ġres olve
Ġdi am
Ġbul let
Ġvolunte ers
est yle
Ġl ift
5 4
Ġaccompl ish
ĠTe ch
Ġj ihad
Ġfat al
ĠK ick
Ġdesign er
Ġad equ
Ġrep air
ph a
ov a
Ġc ens
Ġpar ad
Ġanonym ous
Ġs essions
Ġv ocal
5 3
ĠL ine
ĠH on
ĠAuthor ity
W ill
br id
inc ome
Ġas set
Ġoccas ional
Ġcou p
Ġint ellig
b ase
ixt ure
Ġelect oral
Ġb ands
Ġshe et
Ġcol our
Ġadvoc ate
Ġfight s
ang le
8 7
y es
Ġp unch
0 7
Ġrepresent ation
Ġorgan isation
f r
Ġw ww
Ġbu ck
oc a
Ġmyster y
ĠEx ecutive
d y
et he
Ã ±
ĠAnd re
ke e
ĠChild ren
Ġlif etime
i ate
Ġdescrib ing
Ġbi ological
ĠH oll
E l
igh th
Ġsustain able
Ġdisplay ed
u h
Ġn urs
Ġg est
Ġu pload
ĠD er
Ġpri ze
ĠG iven
ĠThere fore
g us
Ġunder ground
Ġbrut al
Ġt ips
ĠCl ark
Ġple ased
ĠTh ompson
U ST
Ġd reams
Ġpregn ant
ĠG il
Ġless ons
Ġf o
Ġsp an
is k
Ġingred ients
ad ers
Ġsum mit
Ġgu id
Ġexist ed
Ġsurround ed
0 6
Ġdesper ate
Ġspe ll
< /
Ġset up
Ġkn ock
Ġjump ed
Ġstrugg les
app ropri
Ġmoment um
Ġm ask
st al
Ġh anging
Ġter r
Ġin herent
Ġans wered
Ġemot ions
Ġcho osing
ult y
m ath
e lection
ĠOr ig
Ġexc lud
Ġ2 50
le e
ac her
S te
Ġn ose
Ġbank rupt
Ġpur su
Ġdom inated
Ġide ology
ĠV enezuel
Ġembr ace
w ill
Ġpeace ful
rib ed
Ġegg s
Ġhero es
Ġlob b
ĠCharl ie
un ity
hatt an
ac re
Ġexp ense
ĠS P
ĠG ordon
che ck
m ers
Ġst ating
row s
Ġinter ior
8 9
Ġteam mates
play er
ĠJ ean
Ġdon ors
Ġg ene
ak i
ĠS a
Ġ- >
Ġintegr ity
htt p
Ġeng aging
Ġvar iable
Ġisol ated
Ġsusp ic
Ġmin imal
Ġ5 3
ĠSt ation
ĠL t
Ġ1 20
Ġdr unk
in stein
Â Ĵ
ĠC ode
Ġdistrict s
Ġfunction al
ĠMic hel
ĠSt ore
Ġcomp r
Ġjust ify
i ens
se ction
Ġcomprom ise
Ġacc um
Ġst amp
Ġtremend ous
Ġsoph istic
Ġref ers
ĠN OT
Ġclos est
ap ore
Ġbox es
ĠCap itol
ĠO cean
Ġ199 1
Ġexplos ion
E P
ĠC S
0 2
is dom
Ġbirth day
row ing
In stead
Ġm ile
Ġprof ound
ĠEconom ic
Ġinspir ation
F inally
ere nt
Ġwedd ing
N S
Ġut ter
Ġexclus ively
act s
ĠRes erve
Ġconscious ness
Ġpromot ion
ĠP ass
ĠBrook lyn
Ġrel ation
AT E
Ġgl ad
Ġe cho
Ġacqu is
ĠB ol
orne ys
i ac
Ġrepe al
Spe aking
ĠAn na
Ġref use
Ġsubsequ ently
ĠMont real
ĠF inally
Ġmin isters
Ġcorrect ly
Ġaccept able
ĠPitt s
ows ki
ĠH art
Ġs ne
ĠLe ban
Ġrefuge e
ĠE PA
ĠProt ection
ĠP erson
Ġrem oving
Ġev ident
ĠD O
ĠO x
Ġlo op
ĠInt el
Ġconsider able
ibr ary
ĠKh an
Ġconcer ning
ĠMar ine
ĠL i
iz za
Ġwond ering
Ġfle et
Ġh oles
Ġless on
Ġbur ied
Ġspec ulation
Ġsh ocked
Ġabst ract
Ġsubsc ribe
Ġbrief ly
Ġh arsh
ix on
Ġkick ed
Ġbr ands
ri or
Ġgu ards
Ġde emed
ĠR ussell
ĠB ow
con f
ll y
Ġh iring
ĠS on
Ġsold ier
Ġsex ually
Ġstead y
Ġmod ule
Ġexp enses
Ġas ylum
ric ane
h as
Ġelect ron
Ġrec alled
ĠC re
Ġat he
Ġst ro
Ġann oy
ĠCon vention
Ġsh irt
Ġregist ration
sc reen
ĠTre asury
Ġback s
Ġdesk top
h uman
Ġbom bs
Ġp a
ĠZ e
Ġatt ending
Ġpr ide
Ġcont rary
ac les
Ġan cest
ĠNev ada
W he
Ġintegr ation
Ġfle e
Ġsc ar
H z
Ġcogn itive
Ġend ors
ĠI ron
ou b
he ro
Ġchalleng ed
Ġj er
ĠE qu
ĠAr gent
D em
Ġ9 9
Ġmod ified
Ġen act
Ġstreng then
ĠPh oenix
Ġcrimin als
ĠUs ing
Ø §
Ġc abinet
ent al
is d
Ġpro st
Ġdel ight
ĠKe ep
ot ing
ĠDel hi
ist ol
pt ions
Ġle aked
Ġnewslet ter
Ġeng ines
ĠCo al
Ġsc ream
ump h
Ġpro be
ĠMiss ouri
ĠPh ill
ĠM ain
U R
Ġtaxpay ers
am ous
ĠUkrain ian
ro ck
ĠW as
ĠMan hattan
ĠL ist
Ġlog o
ear ly
u z
ĠHit ler
Ġrob ust
f ather
w ed
S im
ol i
Ġspeak ers
Ġhousehold s
Ġf el
im ize
Ġd ual
ĠD ick
Ġresearc her
Ġstim ul
Ġbut ter
ĠH amp
Ġ5 6
Ġsub mit
aw ks
Ġg ri
Ġ vert
Ġm ice
Ġfor um
ĠCap tain
Ġme al
oc ated
inc oln
ĠTal iban
C O
ĠB al
Ġrout es
ĠInst agram
Ġth ro
ĠR un
Ġo rient
Ġc inem
Ġconcer t
ĠF estival
Ġrevolution ary
Ġattract ed
Ġsil ent
ĠInd ones
Ġexecut ed
ing e
og a
ĠSt ew
ib l
ĠS av
ĠT rib
Ġguarant eed
Ġdro pping
ik h
v an
s ome
book s
ĠAnton io
Ġcon vert
li hood
ĠEx pl
le ft
c or
Ġsen ators
Ġnerv ous
th ood
le ans
Ġinterpret ation
: :
Ġdisapp ear
Ġcha os
ĠSim on
Ġconf usion
Ġ5 4
ĠN azi
Ġagree ments
st op
Ġin du
ĠM ess
Ġcharg ing
ĠTes la
). [
ĠO cc
p in
Ġpack ed
oph ob
Ġphys ics
ĠR oll
Ġqu it
oc ial
Ġsurv ived
ist le
Ġout comes
um ble
Ġnow here
ĠR ome
Ġfig ured
Ġj unior
Ġblock ing
Ġte eth
Ġconf used
Ġsimultane ously
ĠM it
ĠH al
Ġalgorith m
Ġpass enger
ik i
ig ration
on z
ĠMedic aid
Ġb arg
ĠCo le
ĠH aving
ĠPr ice
Ġsurprising ly
? ?
ĠJ enn
Ġproduct ive
Ġeng agement
Ġcur ious
ĠPort ug
Ġnation wide
ĠP ers
Ġrefere nces
Ġp ir
Ġf ert
Ġgame play
ĠH u
ĠRuss ians
Ġjournal ism
Ġpod cast
st arter
Ġdef ended
Ġprint ed
Ġpat ri
Ġload ed
at tered
Ġwitness es
Ġimpact s
Ġv enture
Ġhost s
Ġintegr ated
Ġhigh lights
B ack
ĠSher iff
Ġep ic
h ist
Ġkn ife
Ġsusp ension
Ġ6 00
Ġbo om
Ġprodu ces
Ġasse mbly
Ġintim id
ll or
ĠP D
gr ad
Ġcred its
th odox
Ġasse mb
C om
d s
Ã §
end ar
Ġb ird
Ġmathem at
sec urity
Ġcert ific
ĠOr leans
Ġche ese
ĠOr lando
ist ant
el ing
T P
ĠIndepend ent
ĠPri v
ĠD ur
ĠW H
Ġch ronic
Ġorgan is
Ġbl amed
ĠE V
Ġcon secut
Ġpres ents
Ġmon ster
Ġall iance
Ġmotiv ated
Ch rist
ĠE st
ĠV lad
c itation
Ġo xy
Ġexpect s
Ġrele asing
m ir
Ġbacter ia
Ġcl ip
Ġpubl ish
ĠL ater
Is rael
t ra
m ble
Ġfl ights
ĠMP s
u its
ethe less
Ġr ic
Ġoccup ied
Ġbomb ing
Ġre ass
Ġhun ting
Ġflav or
lyn n
Ġbre ast
l s
Ġt ear
ĠAl an
Ġpromot ed
is hers
Ġexplicit ly
ag en
ĠE ver
Ġt ables
Ġpat ent
ter ror
Ġdepart ure
Ġinev itable
Ġun necess
Ġin aug
Ġkey board
Ġst ack
Ġpolitic ian
Ġinflu enced
ĠCanad ians
ĠB i
Ġqual ified
g al
Ġmet h
ĠAll iance
Ġinflu ential
Ġ5 7
ĠU se
ĠDo ctor
Â °
Ġinvest ed
Ġcy cl
ĠE vent
Ġcharacter istics
iz arre
Ġcreat ure
Ġconflic ts
Ġdevelop ments
Ġra ises
Ġ ).
ĠO F
ĠEvery one
Ġmod est
Ġmir ror
ĠG ro
N BC
ri x
Ġrel uct
Ġcontin u
à ¤
Ġev olved
ĠAr senal
ate ful
St ation
Ġsl ot
EN T
ĠSing apore
ĠMedic are
Ġsh ops
Ġrec overed
ĠChair man
0 3
ĠD uke
l ay
Ġall y
Ġtransp arency
Ġuncertain ty
Ġcol leg
Ġ198 9
Ġfail s
Ġprov ider
Ġrest ore
ĠB M
mer ce
Ġoccas ion
Ġexpect ing
Ġcheck ing
Ð º
K e
Ġrad iation
an im
Ġsol o
m ay
Ġw et
Ġconfig uration
Ġdepend ent
G A
Ġg ut
u ition
Ġem bed
Ġres erv
Ġev ac
Ñ ĥ
Ġcour age
s ub
Ġin her
Ġt ab
Ġexam ine
v ation
o ice
or ate
b ound
Ġh ub
M us
Ġforg otten
im ir
bour ne
Ġtransfer red
Ġpro portion
app er
Ġout f
Ġsole ly
ĠGi ants
Wh o
ĠP sych
wh ite
Ġdist ribut
Ġburn ed
Ġb ol
6 9
ĠB urn
Ġuncom fort
Ġtele phone
ĠCh annel
Ġlaunch ing
Ġl ane
Ġstri p
bre aking
Ġvol unt
on ed
Ġd imin
ĠPitts burgh
ĠH an
Ġneighborhood s
u ating
Ġacc ord
Ġprosecut or
ĠT ax
Ġprivile ge
Ġcompe lling
re ck
ĠM un
ĠP ant
Ġoper ated
ĠBar b
Ġrenew able
Ġfing ers
sc ar
le ading
Ġsp o
Ġmand ate
g ood
g ate
Ġregard ed
ell ow
Ġign or
Ġbul k
ĠB ul
Ġin ex
Ġbel t
Ġrec ession
Ġc osm
ĠE ve
el le
ĠE b
Ġsim ilarly
Ġpack ages
Ġlong time
Ġal ert
Ġbab ies
h ire
b es
l u
ĠTr ust
Ġident ical
ment ed
Ġlif estyle
Ġaccept ing
im mer
ars on
ĠUn like
Ġt anks
Ġlux ury
ol id
ĠOlymp ics
6 2
ĠEgypt ian
gr aph
Ġconsecut ive
Ġprosec ution
Ġfunction ality
Ġfl our
ĠPer ry
o ft
Ġdes p
Ġpres erve
gg ed
Ġb ases
bit ious
Ġabs urd
ĠPol and
ĠSt art
ĠF ive
look ing
Ġhand led
Ġd iver
Ġcompl ained
Ġdecre ase
el ve
Ġple asure
Ġpo lling
Ġkill er
Ġmet ers
Ġhead lines
Ġguid ance
Ġsing er
s uch
ĠNet her
t arian
Ġprov isions
ĠL incoln
ĠF inal
ut er
U N
ĠIm m
Ġb its
ĠAre a
ĠN iger
Ġball s
Ġsupposed ly
Ġinnov ative
Dav id
res hold
Ġang le
Ġo ught
ĠH ung
Ġrec k
Ġj et
ĠA ccess
ĠF ant
ĠG ill
ĠAN D
s l
ok er
ĠAd ams
ĠH IV
ĠMiss iss
Ġ5 8
Ġen for
Ġthe ater
Ġke en
Ġresident ial
7 9
Ġdet ention
Ġaccur acy
ĠWar ner
F i
ĠP ope
lim ited
be ing
Ġben e
l aim
Ġthe ft
ĠD ak
ĠP ict
Ġearth qu
w a
ĠT el
Ġor bit
Ġpain ting
ĠAnd y
Ġappl ies
Ġdest ination
Ġg irlfriend
Ġv ent
U L
m illion
ĠOtt awa
for ward
Ġoccas ions
str ong
Ġinvestig ated
ond uct
Ġparticip ating
Ġaccus ations
r ics
ĠChr ome
as se
ĠW right
Ġen abled
friend ly
Ġjur isd
ag ine
Ġimp ressed
H A
ĠOr der
i ar
Ġl ens
ur ches
Ã³ n
V P
Ġun re
Ġimp rison
ĠMount ain
Ġg ym
Ġcheck ed
Ġmiss iles
Ġsust ained
Ġcor rel
w ind
ĠL ink
Ġpo et
p ack
Ġproject ed
ĠS ound
Ġemphas is
Ġprevent ing
ĠEx per
ĠSte el
Ġtrad ed
ĠSnow den
Ġbo ards
S ee
am ents
Ġt ent
Ġconv iction
ĠF I
om ic
che st
ĠDes ign
Ġdest ro
n an
Ġrese mb
Ġicon ic
Ġsa ke
Ġreflect s
od ge
viron ments
Ġro lled
che ll
Ġrank ing
Ġsur ge
Ġint rig
ĠG h
ress ing
Ġcrit eria
ar med
Ġtow er
F ollowing
ot te
c ap
ite ment
ĠAl aska
ic ating
Ġadv ent
Ġsec ular
ĠA aron
ĠMore over
Ġsc ared
Ġfin ishing
ĠK ings
Ġbene ath
ĠOff icer
Ġtraged y
ĠStud ies
Ġgl obe
Ġreal istic
Ġle an
Ġout standing
ĠR aj
ĠDig ital
Ġm art
Ġ8 00
Ġaccompan ied
ass ion
gr ade
ĠHamp shire
cent ury
Ġv it
Ġl os
Ġreven ues
Ġvis its
rif ice
ĠJere my
W S
2 50
W here
ĠC PU
Ġform ula
olit an
Ġkid n
ĠKurd ish
ĠB or
u ably
h r
ĠI M
inc ial
Ã ¨
re nd
ĠH ave
Ġt ension
Ġb ump
ĠL es
ick ed
Ġf its
Ġsub tle
Ġn u
r ition
Ġ8 5
Ġear ning
ĠGr iff
ke ley
Ġpred ec
Ġf ut
Ġb ip
ĠH oly
Ġconstruct ed
Ġoccup ation
d ep
ades h
il st
c al
ĠC ould
oll ar
ipp i
Ġsee ks
Ġr anging
Ġsto pping
Ġtr ains
Ġin hab
Ġass ists
Ġad ap
ern and
ĠC raig
Ġphotograph s
ĠJer ry
Ġspeed s
Ġexc use
b en
tain ment
ĠC reat
o vers
ĠW ord
Ġg arden
id en
Ġcons ists
Ġposs ibilities
ar o
Ġdis abled
ter y
j s
Ġp ose
Ġmortg age
Ġentr ance
ĠQue ens
6 3
ia h
z one
on ing
ous es
ĠDr agon
r ons
ĠPhilipp ines
ĠLouis iana
ĠOrgan ization
ĠRob inson
Ġimm une
io x
ĠEm ail
ĠRub io
C al
ĠW i
Ġhost ing
Ġm ales
Ġv oc
Ġdocument ed
g ly
off s
orm al
Ġer u
Ġold est
Ġanim ation
Ġr iders
Ġatt orneys
ĠV en
t own
Ġeditor ial
Ġshel ter
Ġtri ps
____ ____
Ġd a
ĠS everal
Ġinf ection
Ġpan els
Ġg olf
ĠSt ory
P art
Per haps
ĠG ib
Ġam bitious
Ġdisc rimin
Ġcirc uit
id al
O K
Ġel abor
Ġback up
ĠCur rent
Ġf ed
Ġearn ings
Ġinf o
Ġdevast ating
Ġa wards
ĠStew art
Ġd ressed
Ġprem ie
Ġsc rew
Ġdr um
Ġconcent ration
Ġres ort
Ġliber ty
v ised
as ive
P al
Ġpra ised
Ġthe oret
Ġwire less
Ġmyster ious
ĠPlay Station
Ġsent iment
ĠB u
p ing
Ġb other
ĠC ustom
Ġpain ful
ach ment
ĠF A
ĠStan ley
Ġproduct ivity
D R
Ġscrut iny
Ġdepart ments
w ich
Ġpol ar
u els
Ġen vironments
I F
6 1
Ġm unicipal
ĠHam as
ĠAb u
Ġw ise
Ġb one
Ġsu ck
ĠGr ant
Ġcook ing
Ġoper ator
Ġb ags
ĠSt aff
ust ing
Ġlay ers
Ġr ivals
Ġexam ined
Ġf er
Ġoff season
Ġadminist rative
win ning
is ive
ard o
sh ore
Ġbeat en
Y our
Ġle ak
ĠCh ampions
Am ong
any ahu
Ġaddress ing
Ġant ib
+ +
7 2
Ġunf ortunately
th ur
1 50
Ġcross ing
Ġcreat or
Ġl in
Ġsy nd
Ġb izarre
Ġreview ed
Ġsophistic ated
ĠOther s
ism s
Ġfil ing
Ġb icy
ĠN S
ĠNether lands
7 1
Ġan ch
ĠR angers
Ġspot ted
Ġaffect s
Ġexpl oring
Ġcross ed
ĠM orm
ĠD ream
r int
Ġcompet itors
Ġens uring
Ġrob ots
ĠiP ad
ĠS ci
ĠAb d
Ġoper ators
Ġtrail er
ĠJ ane
ĠN on
Ġappear ing
ĠMan ning
Ġnot ably
e le
c os
Ġind ication
? âĢĻ
ne g
ĠMar io
ra h
Ġp ension
ĠStan ford
Ġent ity
iz ations
Ġres erved
Ġw isdom
Ġmother s
Ġk iss
G E
Ġf ishing
T E
Ġch ocolate
c ott
ĠCor p
Ġaw ful
Ġto ss
Ġemploy er
ree k
Ġdeal t
D C
9 2
ĠChrist opher
ĠT ower
ĠB ox
ut her
ug by
al ysis
âĢĿ )
ĠL ibrary
Ġautom atic
Ġcle ared
ĠTok yo
ĠMcC on
un a
Ġreb el
c re
Ġadop tion
Ġreflect ed
ĠN i
Ġcollect ing
Ġpubl isher
Ġuncomfort able
Ġt orn
Ġtou g
u per
n amed
ĠComm and
Ġcop s
Ġdeliver ing
ard ed
Ġ ~
Ġconver ted
Ġamong st
olit ical
Ġcount less
ĠMal ays
Ġnewsp apers
Ġcelebr ated
Ġres erve
Ġinter ven
Ġcomm od
âĢ¦ .
ĠW y
ĠD og
Ġconven ient
ul se
il ation
For mer
ĠUn ivers
Ġdeb ates
pro du
ry ing
ĠUS B
Ġexperiment al
Ġd uties
Ġprotect ions
7 00
Ġrel ie
th al
Ġ _
ĠR s
Ġinteract ions
Ġhe s
Ġmurd ered
Ġsignific ance
ab out
ĠH ug
ber y
Ġdispl ays
Ġt ears
Ġre ign
ĠC old
Ġcomb ine
F O
Ġt ale
Ġvari ables
Ġimp ose
Ġv iable
Ġco ord
9 4
ĠJim my
Ġbet a
ĠEnter tainment
9 3
Ġsafe ly
Ab out
ix el
Ġm isc
Ġit er
Ġrestrict ed
n ie
in ite
prof ile
Ġviol ated
boy s
Q L
Ġexplo it
ĠTai wan
amb ling
Ġw ore
Ġamb assador
Ġover night
Ġcat ast
Ġann ually
Ġcomplex ity
Ġfire arms
Ġpregn ancy
ĠM ail
ĠCorpor ation
arg et
. ),
Ġact ed
Ġman ual
Ġt ar
Ġfil ter
Ġpe er
ĠPatri ots
ar ians
Ġd irty
ð Ł
Ġintellig ent
Ġbur st
d r
ĠW ould
ĠStand ard
i ors
Ġchemical s
Ġce ase
Ġrepl acing
ĠCub a
Ġt ends
Ġlibr aries
Ġcour ses
Ġcar rier
Ġth reshold
ĠSh ort
Ġview ing
ĠTre k
ac ies
ĠT am
ĠN ative
Ġmean while
ĠD u
Ġh iding
ĠK r
Ġanal ys
ĠS N
Ġp our
ch arg
ĠN elson
amp a
go vernment
ĠB ir
Ġst arter
Ġcom ed
ĠE ff
Ġdo ctr
ren cies
Ġthe r
oc ur
o pp
H P
f unction
g ence
Ġdes erves
Ġthem es
ĠB an
w atch
ĠM arg
ĠVictor ia
Ġdelay ed
Ġgrad ually
Ġinf ant
ĠU b
ĠD rug
Ġas pir
ĠA ren
le ted
Ġdes ert
Ġal ike
f ish
C omp
Ġrad ar
ĠM ove
Ġnight s
Ġfrust ration
ĠG ab
Ġwitness ed
Ġquestion ing
Ġarg uably
Ġfavour ite
Ġmarg inal
ĠH ad
Ġco in
Ġequ ipped
ĠK a
k ward
ĠWik i
Ġal ign
Ġrel atives
Ġbond s
tr ack
Ġprepar ation
Ġenter prise
Ġdet ained
Ġwal ks
v o
Ġadvoc acy
Ġtechn ological
ari os
Ġsp ray
ĠB C
Ġdeleg ates
Ġpass word
Ġfac ulty
ist ing
Un fortunately
Ġdraft ed
ant e
ail ing
Ġven ue
Ġsleep ing
ac cept
Ġcontain er
M ich
found er
J P
sel ess
Ġlimit ations
Ġreg ret
ĠPlay er
ĠJava Script
Ġcontro ller
Ġgraph ic
auc us
ĠC itiz
Ġfasc inating
Ġcur ve
Ġdiscipl ine
Ġhighlight ed
Ġ7 2
Ġavail ability
Ġquiet ly
Ġca ution
Ġt empt
ĠL ear
ĠC B
ist a
Ġgr ants
ĠD al
Ġhor rible
Le aks
Ġpros per
Ġline back
Ġpar ks
Ġver ify
Ġare na
Ġpr icing
ĠH ans
ĠC A
Ġpoor ly
Ġprevent ed
ĠQue bec
Ġoxy gen
Ġworld s
ĠF ederation
Ġpled ge
ĠH and
Ġsepar ated
ich ol
Ġdocument ation
ac o
ĠFin ancial
ĠRed s
Ġbe ef
Ġalt ogether
ĠRon ald
Ġs ons
P aul
Ġend less
Ġch amber
for mer
Ob ama
ĠTh ink
Ġcitizens hip
ar at
Ġexpl oration
w all
Ġnewslet ters
Ġpost er
ĠL im
u ates
ĠCongress ional
Ġstart up
Ġan th
Ġaud iences
Ġfor b
ob by
ĠSwed ish
Ġab und
Ġdesign ated
d ict
Ġpart ially
Ġne ur
pie ce
Ġr itual
8 4
ĠL ad
Ġact ress
Ġhistor ically
Ġm akers
Ġme ets
Ġcon ced
Ġpsych iat
Ġagric ulture
ĠMc Donald
Ġlight ing
Ġsup rem
Ġwe aken
k ind
Ġpray er
ĠE C
ĠN az
Ġarrest s
ay ing
E ach
tt es
ĠF ather
Ġcult iv
ĠN one
Ġre wards
Ġcomment ary
ĠB and
Ġst unning
Ġtravel ed
ĠM other
Ġbuy ers
ĠRed dit
op les
ĠC ase
Ġlog ical
c ard
Ġl ady
T ON
Ġtable t
Ġwh is
ĠG ard
Ġdr ones
Ġto b
ĠP a
ĠCoal ition
ur ities
qu es
Ġst ir
Ġm ouse
ĠVlad imir
Ġcalcul ated
Ġdev oted
am ine
Ġpro l
Ġmig ration
Ġremem bered
R ead
Ġappoint ment
ĠN ash
ĠBe ing
ig e
Ġilleg ally
cel ona
ĠC C
ll ers
ĠD a
ĠMississ ippi
ĠSp ir
Ġfocus es
em it
Ġp ending
G iven
ol ar
ĠS et
ĠR h
Ġdemonst ration
7 4
Ġdirect ors
uck er
ĠFurther more
Ġtr ucks
Ġeth ics
Ġtiss ue
ĠEvery thing
Re g
ĠCor ps
ĠDe b
itt y
are r
Ġelect rical
St ate
es ides
Ġcap ability
ĠF lynn
Ġcoordin ator
Ġcor n
Ġcru el
Ġlapt op
Ġbuild s
ĠAdd itionally
ĠBer keley
B N
ĠL arry
** **
ĠColl ins
ĠK now
Ġsevent h
Ġst ats
ĠMad rid
olog ically
Ġhonest ly
Ġdrop s
eral d
ĠOn line
Ġplan es
ah oo
Ġcompl ain
Ġceleb ration
Ġp y
Ġbub ble
le ep
act or
Ġpra ise
Ġy eah
comm un
? )
Ġexpert ise
7 3
Ġpat rol
Get ty
Ġw ound
appropri ate
c ular
Ġaccompl ished
Ġst ressed
ĠNot hing
Ġclim b
Ġdisapp eared
f irst
Ġinst antly
ĠWay ne
ĠV in
Ġsupp orter
ĠS E
ĠHis pan
om ach
l ied
ĠChristian ity
ude au
ĠY eah
Ġsuggest ions
Ġreveal ing
Ġsty les
ĠTh ings
Ġco ins
om er
ĠS essions
i ated
ip edia
ĠP A
ĠO pp
Ġd il
Ġc ous
ĠNC AA
be at
Ġgra ve
ĠAir port
n on
ĠC apt
Ġwin ners
Ġh unt
Ġf urn
ĠC as
ĠP ear
ou p
Ġpress ing
Ġc ave
Ġbath room
ĠS D
Ġquant um
Ġbound aries
Ġdr inks
Ġassum ption
Ġnon profit
ĠEnvironment al
Ġoper ates
Ġse eds
Ġmechanism s
Ġfle w
Ġv oid
Ġtransp arent
ĠMod i
Ġsac rifice
ĠEag les
Ġsl ide
Ġovers ight
Ġin eff
Ġ198 8
ĠChr on
ĠD or
mind ed
Ġexperien cing
Ġr hy
Ġor ange
ĠS port
ĠFore st
onym ous
Ġsuggest ion
Ġc rown
â ĸ
Ġcount ies
Ġst atic
ĠC lick
ĠF ollow
Ġhost ile
Ġperm itted
j amin
t wo
Ġt um
ĠRe id
ĠP ir
pro t
ĠCommission er
Ġadv ised
Ġmount ains
Ġfrust rated
Ġpen alties
Ġan arch
ĠS in
Ġcirc les
ĠFer gus
Ġf ires
P s
Ġhapp iness
Ġconfirm ation
n atural
ĠDV D
Ġfr act
ĠW inter
Ġaw kward
ĠK al
Ġad j
Ġv ague
ĠF le
w ords
Ġiniti atives
Ġscr atch
er r
Ġsk et
Ġgreen house
Ġg aining
Ġto ll
Ġpop ul
Ġcomput ing
Ġsubsid ies
Ġunderstand s
Ġstrong est
ĠE mer
Ġinstall ation
Ġorient ation
hand ed
Ġmand atory
Ġapp lying
Ġinvest ing
ĠR est
Ġqual ify
Ġshoot er
Ġpl acing
Ġfr ank
ĠCl imate
Ġdep os
" >
ĠKick starter
Ġl yr
s ized
Ġ6 2
Ġtob acco
Ġ= >
Ġexch anges
A ct
Ġunnecess ary
ay a
Ġsing ing
Ġfemin ist
ĠSpe aker
ĠN ap
oy d
ĠSt ock
Ġsh ocking
if ier
Ġrespect ive
Ġtrans mission
ast e
Ġincor rect
ĠSte am
ĠN ik
Ġpun ish
8 3
u i
Ġgent le
R ight
Ġlong est
ath on
ĠFor ces
Ġy ard
ĠMod el
ĠM and
anc hes
Ġbre ach
ĠF CC
Ġped est
Ġcrop s
Ġrespond ing
ĠL ions
ĠMur phy
R em
Ġhack ing
Ġhuman itarian
ĠK l
Ġmechan ics
Ġconserv ation
Ġenjoy ing
ĠF uture
Ġent ities
9 1
Ä ģ
Ġheart s
Ġgold en
ĠP el
b et
ĠNet anyahu
ĠB ah
ri k
ĠMcCon nell
Ġcontribut ing
He y
Ġs izes
al id
Ġpain ted
Ġdec or
out ing
Ġacquis ition
Ġrespect ed
Ġce iling
Ġadd iction
um ing
Ġep id
Ġdist inction
V E
Ġsaf er
Ġgro cer
Ġsupp lement
Ġsh ake
Ġl one
Ġmon etary
d iv
Ġimper ial
o op
Ġess ay
Ġsp y
ĠN E
Ġaccept ance
Ġpe ers
Ġclin ic
Ġfast est
ot ion
Ġachieve ment
Ġemer ge
Ġfuck ing
Ġmanufacture r
Ġide ological
augh ters
Ġ198 4
ĠPy thon
ĠN ature
Ġg reet
val id
Ġsl a
A g
s ur
Ġch urches
ĠU C
ĠS EC
N et
Ġd ign
ac ular
ĠT oy
Ġha z
Ġform ally
u j
Ġpartic les
Ġm ic
Ġmotiv ation
ĠFl ash
Ġreact ions
Ġover d
Ġprint ing
g ments
f i
Ġbit ter
Ġdiv ide
ĠM ORE
Ġas h
Ġbe ars
ĠA y
miss ions
h alf
A re
Ġanticip ated
op t
Ġconclus ions
ĠG ene
ĠFil m
ĠK night
O ut
ĠTh ird
ĠM itt
Ġ198 6
T y
D ef
Ġrot ation
Ġdist ant
Ġdis par
ĠBl ake
ĠPe ace
Ġder ived
ĠB enn
G ener
ĠRog er
m un
Ġeconom ies
Ġagric ultural
or ient
Ġc ats
8 2
ortun ate
ĠC redit
Ġcrowd s
Ġjud icial
Ġexplos ive
ĠS U
S C
ĠSing h
Ġcontro lling
Ġsec ured
ĠCh ange
b u
Ġch ips
Ġrespond ents
ĠT an
Ġcrypt ocur
ĠL en
b ably
ĠPro gress
uer to
Ġcomm ands
Ġ5 9
Ġcomp osed
Ġis lands
Ġvacc ine
ĠDak ota
ag u
Ġm ild
Ġannoun cing
Ġres erves
Ġbal anced
ĠLeg isl
Ġbu nd
Ġflex ibility
Ġst omach
Ġg host
ĠMel bourne
Ġin box
Ġparticip ated
Ġher itage
Ġtreat ing
Ġdem o
b ie
ll i
ra it
ĠL ocal
Ġbug s
ĠFergus on
ab ling
Ġanim ated
ect ed
ĠDe an
Ġres igned
ell er
Ġt urb
ĠE T
ĠHawai i
Ġcr ude
ĠSw iss
ĠM ult
Ġprior ities
Ġinc omp
Ġoper ational
Ġappro ve
angu age
ã Ģ
Ġdesign ers
Ġinn ings
Ġf illing
ĠY OU
Ġapp eals
AN D
Ġfin an
le ments
out heast
qu er
Ġsla very
it ate
Ġrece ives
ĠBloom berg
Ġscen arios
Ġparam eters
by n
Ġl anes
Ġt une
Ġvolunte er
S everal
Ġpled ged
ĠSc he
Ġint ensity
ici ary
m atic
Ġref using
Ġsent ences
Ġflex ible
m other
Ġtransform ation
Ġr ice
Ġ6 6
form ed
Ġcal endar
Ġobserv ations
lim inary
Ġacqu ire
Ġsh orter
Rep ublic
b urn
ĠK y
Ġcult ures
P I
C he
ĠCl oud
Ġatt ributed
Th ree
se ts
Ġcondem ned
ĠInd ians
em in
Ġres idence
Ġex em
Ġ3 60
ĠBar celona
Ġcont ents
# #
Ġspread ing
ation ally
Ġattend ance
w estern
Ġpre view
ore r
Ġdam n
ĠK as
it ably
Ġt ensions
Ġunder min
o j
ĠL uke
sc ribe
Ch ina
Ġexc itement
Ġtou ched
Ġhigh way
ĠIn n
ĠBr us
Ġre hab
Ġun l
ĠS ac
l ash
bor ne
er ving
ĠMot or
ĠP i
ĠP age
spe ed
Ġdeliber ately
Ġp ays
M ark
Ġconvers ion
Ġelder ly
Ġprov incial
ĠAr ctic
com ed
Ġfree ly
Ġdefend ers
e u
Ġrum ors
Ġ ?
ier re
ver ning
ir s
Ġins ane
ight ing
Ġcle ver
ĠSum mer
ĠO il
ĠOr ange
r idge
Ġspace craft
ĠG O
zer land
Ġconsequ ence
Ġs her
ĠBl u
AS H
us er
Ġteen ager
Ġpos ed
ĠWh it
ĠS ud
Ġworth y
Ġl ung
Ġtun nel
b at
Ġinc ons
ĠP oll
Ġequ ity
at ile
um m
Ġbu zz
Ġinf ring
ond s
Ġdifficult ies
ĠJ en
Ġdirect ions
ĠO w
ĠMarsh all
Ġexp ed
ĠEx press
il ateral
ĠS ection
oty pes
Ġinst inct
Ġdes ired
Ġinstru ments
th ink
Ġdep ict
p ot
sh ot
b ecause
ast ed
c rat
P L
Ġparliament ary
Ġtradition ally
ĠDe ep
ĠD omin
Ġal arm
Ġlegend ary
ĠSh ould
Ġtechn ically
Ġinter rupt
Ġaff air
Ġhat red
Ġport fol
Ġcondem n
Ġharm ful
ĠAlbert a
b les
Ġadvert ise
Ġident ifying
Ġdisp os
Ġpress ed
umb led
Ġdecl aration
ĠH ann
Ġdec iding
ix ed
ond a
Ġm amm
ne red
Ġlegisl ature
Ġprot otype
b in
Ġ1 000
Ġj okes
Ġminor ities
unt u
Ġcon j
Ġgr ateful
Ġc am
Ġ19 30
Ġpri est
Ġu gly
ec onom
Ġz ones
Ġb io
Ġto ile
Ġpresum ably
Ġw ings
Ġshif ted
Ġw rapped
Ġch ap
Ġremind ed
ĠC R
ĠH uff
Ġdiscl osure
i ary
Ġ6 3
Ġb ones
Ġt el
Ġrif le
and ed
Ġaltern atives
Ġcomp osition
ĠMit chell
Ġro cks
ĠO p
Ġ197 9
Ġimm ense
ue z
Ġconduct ing
ĠK erry
Ġsc ary
Ġtransl ation
ry ption
Ġimmig rant
Ġcolleg es
ĠMc M
ĠAr ts
Ġtempor arily
A ut
ĠM uch
Ġst un
ĠLaw rence
pl ing
ug s
N ext
ĠAbb ott
Ġn aked
st orm
Ġinter rog
Ġfr ight
Ġavo ided
r ane
in itely
ĠBl ood
Ġab ol
Ġneg lect
Ġhope ful
Ġwh istle
ĠL ady
Ġtrig gered
Ġcolle ague
ĠY ang
Ã ¥
The ir
Ġbel oved
be it
Ġste ep
o ard
Ġgr asp
ĠCirc uit
Ġathlet ic
Ġpan ic
8 1
H T
Ġd ensity
Ġr all
ĠPark er
Ġcomple tion
Ġmechan ical
Ġtend ency
Ġser ial
Ġover l
Ġeconom ists
C ar
ĠM as
Ġf est
igh ters
ul pt
Ġear liest
Ġkn ocked
ĠL aur
Ġunder mine
ĠOx ford
ist ance
it ivity
ĠM aine
Ġh ier
ĠT otal
Ġass ured
at al
Ġ7 00
ĠW ard
ĠN a
b rew
Ġsocial ist
ock ets
Ġra id
ĠSaf ety
Ġs od
Ġre aches
ro c
ĠM ind
ĠCamp bell
Ġdecl are
ĠF if
Ġspark ed
Ġadvant ages
Ġdistur bing
ĠAm b
Ġp or
h ol
Ġassum ing
Ġconst rain
ru p
Ġhar vest
Ġtr apped
Ġdam aging
Ġmut ual
ĠB aker
Ġliber als
Ġa est
x x
su its
im ens
b art
Ġtrust ed
Ù Ħ
spe cific
Ġp ink
ĠTe a
ĠSte in
Ġimag ination
ĠR io
Ġrus hed
back ed
Ġbar riers
on ia
z es
Ġbr ains
ip her
Ġflu id
Ġe ars
Ġabs ent
ĠRem ember
Ġsa uce
Ġres olved
Ġpursu ing
Ġha bits
Ġcompl iance
ac er
Ġdeploy ment
urn ed
Ġexcess ive
ĠD rive
arent ly
ĠCommun ist
Ġun se
ĠR T
ĠR ow
Ġhy brid
Ġpur suit
d rop
ĠWat son
r in
Ġoptim istic
Ġhack ers
Ġregul ators
Ġex ports
ĠT s
Ġpurch ases
Ġeconom ist
H aving
S E
Ġvir al
are ttes
Ġs ends
ĠJac ob
Ġst ocks
ĠL og
Ġemp ire
M art
ĠWiki Leaks
ĠT odd
Ġlobb ying
g ary
or i
l ink
ic ut
Ġg rip
Ġflo ating
k m
ĠI RS
Ġtour ists
ĠMod ern
} }
ĠBen jamin
Ġsoc ieties
G e
Ġtext s
ĠR ap
Ġremind er
Ġl un
ĠP uerto
Ġsu itable
own ers
ĠHe at
Ġres on
Ġsw ord
m id
qu ality
put er
S U
li ver
c ount
Ġ6 7
Th rough
m are
C omm
ect s
rop olitan
C or
ĠG re
ĠComm ons
j an
ĠMor ris
Ġrom antic
Ġwh ites
Ġf are
Ġf itness
Ġpassion ate
p owered
Ġaccount able
ĠL ie
ĠK u
ĠTr udeau
v ia
ĠR oc
ĠT ampa
Ġgar b
Ġsatisf ied
fl ow
greg ation
Ġindic ating
ĠJ e
Ġplan ets
Ġdivor ce
su ccess
Ġre cept
Ġb ass
Ġwel comed
Ġrec y
Ġwor ship
ĠConserv atives
m art
M od
Ġmag ical
Ġur ge
w he
ĠMag azine
ĠMedic ine
20 15
Ġunf ortunate
arm a
Ġhum or
Ġgo verning
at oes
Ġdec ides
ĠSo ft
im s
Ġatt itudes
r ust
ch ron
ro t
ay er
Ġwa ited
ut t
P lease
Ġdet ain
Ġperm its
Ġgrab bed
Ġcart oon
Ġapproach ing
Ġto ken
Ġeth ical
Ġstruct ural
Ġinfect ed
Ġdon ated
ast ing
idd ing
Ġbreak fast
ĠSwit zerland
Ġ198 7
Ġthere by
st an
ht ml
ater n
On ly
Ġt rop
af i
Ġsqu ee
ĠP od
AT CH
Ġprev al
Ġsumm ary
Ġlif ted
ĠV ideo
ac ent
ĠChrist ie
Ġex empt
Ġhead line
Ġfin ancing
ĠN ichol
ĠB eng
ĠG a
ĠU I
Ġsub t
A F
iv an
ĠS aints
ĠS aint
gu ard
Ġten ure
Ġhe aven
Ġdis pro
ĠH end
Ġins urg
Ġund ers
ri ke
Ġsequ el
Ġcomp ly
b est
Ġmill enn
keep er
Ġc ake
ĠOcc up
Ġsu ed
ruct ive
M B
ĠE lection
ur red
d ec
Ġl ake
w hen
Ġsurviv ors
ĠCo hen
ne ver
ĠBrus sels
Ġcare ers
Ġcast ing
com p
May be
Ġclick ing
Ġbar rier
ĠW el
ĠCh ance
ĠBe at
ĠI V
Ġpure ly
Ġt ang
Ġrec ount
ĠR aid
Ð ²
wr itten
h ill
B ar
pro duct
. ]
ĠHun ter
ĠC H
Ġtaxpay er
ĠD NC
Ġsc rap
ĠF ollowing
ĠD J
Ġthrow s
Ġsac rific
ĠPl ace
aren thood
Ġretail ers
Ġn ick
Ġfound ing
Ġ6 1
ĠPart ners
bo ards
en cer
.... ....
Ġdetect ed
ĠVenezuel a
Ġess ence
ĠMan ager
Ġtut orial
S D
Ġt ill
/ .
Ġcapital ist
Ġp ow
abet es
Ġwind s
ĠF O
Ġm ixture
Ġmeant ime
ĠPro duct
Ġorganis ations
ĠTr ue
ĠB art
ĠAren a
Ġstr ain
Ġprob ability
Ġtreat y
ĠR ice
Ġch ampions
Ġafter math
ap le
Ġur ging
ĠLyn ch
Ġsucceed ed
Ġâ ĪĴ
r ained
oc ate
ĠU ntil
ar ound
is en
Ġarri ving
Ġp owered
s ki
ĠO scar
ig ers
ĠJ ess
s ky
Ġgrow s
Ġh orm
ĠBl ock
ĠTy pe
ĠKir k
ĠIslam ist
ab il
Ġprocess or
ĠI C
ĠHot el
ĠBar ry
Ġf ierce
Ġev angel
Ġfar ms
Ġ198 5
? '
s chool
s k
Ġm asc
ĠTer ry
Ġpen et
Ġle verage
Ġadv ances
Ġbe ers
ĠF DA
Ġbatter ies
Ġw ishes
am an
m n
F acebook
Ġout right
Ġret reat
ĠG PU
ĠSm art
Ġa uction
ĠK yle
Ġstab il
Ġdestro ying
Ġgener ous
Ġdraw s
ĠHe art
Ġcomp aring
ĠJ ets
Ġfail ures
Ġtr agic
un ct
Ġd uration
l as
ab e
Ġind ict
Ñ ı
ĠEv ans
Ġm m
Ġdiagn osed
re qu
con nect
ar ia
ĠBr andon
ĠCor byn
ĠSt orm
ous ing
Ġscreen ing
ĠF ig
Ġexp end
ĠC ry
Ġroutine ly
ĠR y
Ġun ity
iz able
T O
Ġfl ip
est one
d ing
ir able
Ġcomp os
is ers
Ġve gan
h aul
ĠFrank lin
Ġsuspic ion
Ġn ons
st ory
Ġident ification
n or
vers ion
Ġintent ions
Ġfr action
Bl ack
Ġqu otes
ĠPh ys
ĠEx p
ch arge
Ġcommission er
Ġlack ing
Ġwork place
Ġinter ference
Ġed iting
ur se
oc c
Ġlicens ed
Ġcreat ors
Ġlicens ing
Ġtouchdown s
Ġn ode
new s
Ġembed ded
ab y
Ġsec rets
Ġvill ages
ĠBr ady
Ġcred ibility
Ġwarn ings
Ġconclud e
ee k
Ġtreat ments
Ġcons iders
Ġdis g
ere r
Ġfro zen
ard less
L Y
ĠT un
Ġanaly t
ĠN O
20 16
20 14
Ġtransform ed
Ġbelie ving
ĠR ail
ust ers
Ġinst itutional
ĠLa ure
a a
Ġlast ed
Ġdem ol
Ġmed ian
Ġpre ference
Ġun e
Ġsm ugg
accept able
Ġ6 8
Ġnovel s
Ġmass es
ĠCh ap
ĠWW E
Ġadm its
Ġwond ered
Ġout er
Ġsl ower
Ġfe ared
Ġgam ers
ow ell
Ġdoub led
ĠMer kel
Ġincl usion
Ġmon op
Ġdisc our
Ġre un
o ons
v als
Ġorgan izing
ĠI an
Ġsepar ation
Ġrecru iting
ĠV ar
Ġd aughters
Ġeduc ated
ĠGet ty
force ment
in st
pr ising
Ġentreprene urs
Ġrus hing
Ġl aser
se ud
Ġ vel
ĠDep uty
Ġbott les
Ġwork force
Ġunve iled
Ġstre ak
ĠVer mont
ed ed
inc inn
Ġenc ount
Ġcomp ound
Ġa ired
Ġs illy
ear chers
Ġcount ing
ĠBuff alo
Ð ¼
Ġencount ered
Ġbl ess
oll ah
Ġisol ation
Ġag ing
g ree
Ġgif ts
Ġf ence
htt ps
Ġincent ives
Ġcounterpart s
F S
Whe ther
Ġen ables
ĠArk ansas
Ġobserv ation
Ġac res
Ġcontact s
Ġbenef icial
s ize
E G
Ġsupp ose
Ġtraff icking
Ġwilling ness
ut ical
Ġincent ive
Ġsmart phones
ord able
Ġauthor ized
ĠM A
ern el
Ġbutt ons
Ġcont am
Ġcollaps ed
G u
Ġdub bed
au kee
W A
Ġin sect
Ġintrodu cing
Ġsoon er
ĠConnect icut
ĠE nt
Ġemot ion
ĠP ence
T R
ĠPhil ip
Ġult ra
Ġdec ks
ell o
Ġvert ical
az y
ast ically
â Ħ
Ġoff set
Ġshif ts
ĠCent ury
Ġwrest ling
ĠHT ML
Ġfeed ing
Ġjust ified
Ġun h
Ã £
Ġrec onst
ĠTem ple
Ġl au
ur i
incinn ati
ob b
d i
ĠJeff erson
ĠJ un
ĠDou g
Ġt ong
Ġche er
Ġnegoti ate
gl as
Ġsusp icious
op es
Ġking dom
ĠLiber ty
Ġsl ave
it bart
Ġas c
ĠWar riors
ĠGr ay
Ġsens or
t ail
Ġde ce
Ġhelicop ter
on er
b ig
Ġfirm ly
ĠRog ers
Ġexec ute
Ġcomp iled
Ġden ial
dri ven
Ġlength y
Ġconnect ing
Ġspons ored
ĠB ears
ĠB und
Ġaw a
ĠF ried
Ġmidfield er
ĠSh an
Ġwar fare
Ġwal let
ĠCh uck
Ġelimin ated
Ġsolid arity
c at
Ġenh anced
ag raph
ĠNor way
Ġdo se
Go ogle
g iving
ĠP ok
g ian
Ġshe er
ĠF a
Ġh ors
ig hed
t est
Ġn an
Ġgen et
ĠB ou
ĠD ub
Ġfem ales
Ġreal m
Ġpil ots
ch i
Ġgrav ity
Ġestabl ishing
Ġwild life
Ġbe ll
Ġtr ash
Ġf ict
Ġgl ob
Ġappeal ing
ot ton
Ġclean ing
Ġed itors
or ph
Ġd ys
Ġse ctors
ra ham
ĠF ro
ĠB uck
ud ge
ĠHoll and
w aukee
Ġconv inc
ad vant
s ign
Ġcivil ization
Ġthreat en
Ġvis a
ĠC rit
Ġv ibr
Ġinv ented
Ġment ally
Ġaver aged
Ġendors ed
Ġple aded
O s
Ġeval uate
ĠAgain st
Ġsc ulpt
ĠHind u
Ġcelebr ity
ĠQ aeda
Ġdisappoint ing
Ġam pl
Ġinv ite
Ġinvest or
Ġcre ep
Ġpl aint
her ic
ĠHar vey
Ġarrange ment
ĠF riends
Ġpe oples
Ġtrad itions
ĠColumb us
ĠS H
pr om
Ġaccur ately
Ġpre liminary
Y eah
g i
Ġrhy th
Ġvac ation
ĠPakistan i
Ġver dict
cont rolled
Ġr ib
f old
ĠBr and
Ġd iox
Ġshif ting
ue ller
Ġste am
Ġte ens
per or
Ġind igenous
Ġcr icket
ĠK arl
f ive
Ġb oring
Ġz omb
Ġproceed ings
ĠSc ar
Ġele ph
ort heast
ĠB ash
ĠQ ual
Ġun rest
in ance
Ġfire f
Ġhe nce
ĠS ex
ĠT a
ĠS ide
Ġam end
ĠF isher
ĠTurn er
p op
ias m
claim ed
Ġdon ation
Ġimplement ing
Ġbreak down
UT ERS
Ġavo iding
Ġdis orders
en c
Ġh ill
Ġr iot
Ġcomp assion
ock er
ĠRec ords
Ġlaw suits
Ġcl uster
Ġrenew ed
Ġbr anches
Ġsens ors
Ġvar iation
Ġdam ages
ace utical
ĠA wards
Ġbreat hing
Ġlyr ics
ĠN atural
Ġfundra ising
ĠC rown
ĠPol ish
Ġover look
Ġmusic ians
Ġclim bing
Ġd irt
h ave
Ġdetermin ation
d ale
Ġm ock
Ġcompar able
ĠR ain
sec ond
Ġtra its
Ġcontin uous
Ġlike lihood
Ġaccount ing
or ia
Ġlab els
Ġsevere ly
Ġadequ ate
Ġcreat ivity
Ġstatist ical
Ġle agues
Ġmagn itude
Ġgener ating
ĠCommun ications
Ġd ivers
Ġ< /
Ñ ĭ
iv a
Ġtri ple
ĠC a
ur able
Ġspecial ist
ĠVer izon
Ġgr ace
ĠEb ola
r c
âĦ ¢
ĠKe ith
d am
umb ling
icial s
ĠM obile
== ==
ĠT able
Ġp izza
Ġmar ine
ol er
Ġpsych ology
G M
w id
vis or
ĠN ixon
Ġjump ing
ĠT reat
S ub
Ġcontin ent
not e
ĠR aven
Ġto y
ĠB uilding
ĠMorm on
( "
Ġc ub
ĠP AC
Ġshould ers
Ġprec ious
ĠE li
Ġwhe els
T ime
ĠEd ition
ĠC z
Ġf uels
are st
Up date
Ġexcept ions
ĠMad ison
Ġtrans f
ĠSci ences
U s
ate ur
ĠQu est
Ġcorrespond ing
ol ine
Ġaccomp any
Ġshe d
oc us
ank a
Ġtw ist
Ġcount ed
act ory
Ġprohib ited
Ġb ust
Ġbankrupt cy
ing ing
Ġme als
Ġcor ners
ĠUn iverse
Ġconsult ant
ĠLuc as
Ġf ib
ĠCh all
ĠLeban on
Ġalbum s
Ġin hib
Ġsubsc ription
Ġscream ing
Ġcoc aine
Ġin mates
Ã© s
en z
id ays
enn a
ĠRod rig
ĠMc L
d ig
â Ĥ¬
Ġmotor cy
Ġan ime
ĠD raft
ĠIndones ia
Ġsuper hero
ĠMor ning
it ative
Ġh oney
ĠMem orial
Ġgr ain
Ġc odes
Ġd ivid
Ġun ch
Ġliter ary
Ġless er
Ġbet ray
Ġfol k
iz ard
ĠWith in
Ġinst ruction
ank ing
th an
Ġproblem atic
Ġfil ming
ham mad
Wh ite
per ial
ĠAl t
k ers
d irect
ĠY ahoo
Cl inton
Ġsn aps
e or
f s
Ġreg ards
p ace
agh d
Ġag rees
Ġmagn etic
w al
ĠR ams
Is lam
ĠC elt
ĠIs lands
Ġdis m
Ġsp are
Ġpart ial
ĠIm p
Ġd umb
an ium
Ġoff shore
Ġwor n
ĠRes p
ĠSupp ort
point s
ĠC arson
Ġautonom ous
ĠSus an
Ġsupport ive
Ġadapt ation
Ġpurch asing
S upp
Ġc ents
ĠP ed
av or
Ġconsum ed
ip h
Ġcost ly
ugg ed
Ġteen age
D E
ĠCam bridge
ul ative
op ard
Ġtri umph
Ġ198 2
ĠC orn
ĠNe il
Ġhe d
Ġref lection
fund ed
arent s
pl an
st age
Ġtransl ated
v ar
n ormal
Ġaffect ing
Ġsh aped
B ook
Ġmatch ing
E uro
Ġmob il
m ain
Ġth irty
Ġpubl ishers
ĠG arden
ul ent
ĠBrazil ian
Ġarm or
Ġm aker
ĠP arenthood
i ots
ocument ed
ell a
Ġ !
ĠE c
ĠPri ze
Ġve to
Ġwhere ver
Ġmar ry
ec hes
ĠC incinnati
Ġearthqu ake
l en
ut o
ĠB os
ĠK rist
Ġmet ab
art isan
- >
B re
ĠCol omb
Ġsk illed
Ġsl ip
ĠWik ipedia
Ġpriv ately
Ġl ip
Ġform ing
ĠSo x
ĠFire f
ac ious
arth y
it ated
Ġpres c
le m
ĠTh under
Ġ) ;
Ġinf amous
Ġaggress ion
Ġp upp
Ġind irect
Ġpath s
Ġrep ly
Ġwood en
g ov
Ġcy cling
ell ar
Ġunder way
Ġassum ptions
ne ath
âĢ Ĳ
g roup
d ated
ĠCharl otte
Ġsher iff
Ġfar ming
ĠCamp aign
ig nt
Ġblack s
iv ic
oub ted
Ġh alt
te ch
Ġdecre ased
Ġh ij
Ġobser ve
Sec ond
ĠCow boys
ĠMar ia
Ġcolon ial
Ġcry ing
Ġtest ified
Ġun anim
ĠBrad ley
Ġch ains
Ġin appropriate
Ġbra ve
Ġimp ress
Ġtrad em
Ġm erc
Ġsu its
ĠAnt i
Ġ7 6
Ġpre st
ank ed
if ting
mun ition
Ġorgan ize
Ġpract ically
writ er
ĠB h
or ical
Ġdiox ide
Ġloc ally
Ġnom inated
ĠAr thur
ĠN av
ĠIn valid
Ġloc als
Ġshoot ings
Ġoblig ation
Ġlim iting
Ġtr ace
Ġfun eral
ĠPr in
Ġthorough ly
Ġj ew
Ġcorpor ation
Ġfrust rating
pp y
Ġresign ation
Ġportfol io
m i
Ġbus es
Ġesc aped
F urther
Ġ198 3
Ġaccommod ate
ar ming
Ġ19 20
se lling
Ġreason ing
M en
ri en
Ġphotograp her
Ġobser vers
Ġair line
Ġcomment ed
ĠO liver
ĠS alt
Ġrep ublic
Ġcons olid
ili ation
ĠP ap
Ġroy al
ail able
U C
Ġmon sters
ke es
on i
ul um
opy right
Ġbroad band
B r
ol k
Ġclass ical
ubl ished
ĠRob in
Americ ans
ĠE mb
Ġinter cept
Ġe ighth
Ġtermin al
P re
ĠS ong
Ġdel ays
E m
ĠF ind
ĠD anny
ios ity
Ġor chest
Ġlineback er
Ġab used
Ġdemonst rations
ĠO R
Ġes p
Ġsl aves
Ġadm ission
Ġinteract ive
Ġsa il
ubl in
red ict
al og
Ġexha ust
co ins
Ġcertific ate
res a
Ġsh ore
alk ing
Ġcap s
Ġswim ming
ian g
AR T
ĠFin ance
ĠSm all
Ġattack er
ĠPet ers
ĠBelg ium
v iol
ĠR ound
N T
Ġexp ose
Ġrec alls
Ġinev itably
m ap
Ġfundament ally
Ġreb ell
m outh
Ġtrib al
Ġath lete
ĠHom eland
Ġcr ashed
amp s
Ġorig ins
is ible
ale y
ĠE arly
let t
Ġins ure
ĠRE UTERS
V iew
Ġterrit ories
ĠS ource
Ġswit ched
Ġemb assy
ĠT ory
Ġrel ating
es is
le ton
Ġstraight forward
Ġ' '
Ġtem ple
b ull
ĠLe af
Ġtra uma
ck er
ad ows
Ġdeal ers
Ġmount ed
ĠFant asy
ut ter
Ġ 00
Ġint end
Ġw reck
Ġenc ryption
Ġlect ure
Ġindepend ently
form ance
Ġun st
ĠT ob
st ring
ro ots
Ġpred omin
Ġle ather
Ð ´
ĠV ery
rem lin
Ġtem plate
pe ople
ion ed
ĠGer mans
Ġins ists
Ġdis advant
ĠTy ler
Ġdesper ately
Ġenthus iasm
Ġafter wards
ĠSer ge
ĠA CL
Ġimag ined
ignt y
ĠTh or
ch a
ĠPalest ine
ĠArgent ina
Ġhypot hesis
20 13
Ġ19 40
re ach
D is
Ġf ame
w art
R T
Ġdesc ript
au x
Ġformer ly
Ġres ume
Ġgarb age
Ġclass room
Ġsw ift
ĠPr inc
H ar
ro se
Ġpit cher
u cc
ĠBern ard
ĠD isc
Ġne at
st art
ĠAr men
ĠW r
Ġaud it
ĠSuper man
m aster
Ġcelebr ating
Ġp ione
n esty
ins ula
om o
cul es
Ġl ap
Ġdem ographic
Ġunf old
Ġcontrad ict
Ġle aks
Ġlay out
Ġmis leading
Ġarch ae
ĠMil waukee
Ã£ o
ort ions
Ġbillion aire
Ġhistor ian
re nder
Ġstri ker
Ġcar riers
Ġaccount ability
Ġwid th
Ġqual ities
Ġp ub
Ġsp ill
Mus lim
Ġrel ies
C NN
oc aly
ĠR osen
Ġloyal ty
ĠBe h
ĠJ u
Ġaltern ate
Ġc ra
Ġdecl ining
ĠHill s
u ity
ĠK och
Ġkill ings
Ġwh ilst
ol o
Ġout break
Ġstat ue
Ġpredict ions
ĠMil itary
Mich ael
Ġsound ed
ĠBron cos
ol utions
Ġmat ched
ĠStud ios
ĠG arc
itt ees
Ġd angers
Ġvulner ability
Ġveget ables
Ġt ub
ĠB ond
Ġmid st
Ġt att
l ie
qu al
Ġexpress ing
ĠSe ah
ĠD E
ĠE ss
K E
Ġb ite
ill o
oubted ly
Ġboy friend
ĠS M
Ġsear ches
Ġlock er
Ġrespons ibilities
ig ma
air y
Ġdiscl ose
Ġd rought
ĠP ur
Ġrein for
N ame
Ġexerc ises
ri ving
R ed
ĠTrans portation
ĠSun ni
Ġpresident s
Ġor g
Ġsp awn
Ġsubstant ially
Ġdi abetes
Ġp ants
Ġpro x
iss ance
pe lled
st ore
Ġfulf ill
Ġdoctr ine
P at
ĠBro s
Ġun le
ĠTe h
Ġmet res
Ġfresh man
Ġrank ings
Th anks
Ġout door
h al
ĠF el
he alth
ĠD om
ĠGl enn
ĠPlan ned
ĠU RL
Ġgr ay
Ġregul ate
ĠUnivers al
Å ¡
Ġcon vey
Ġspect acular
Ġelabor ate
Ġign oring
Ġadd ict
ĠS ad
Ġc od
f il
ĠG onz
th irds
S emit
Ġman ages
Ġl oving
Ġs isters
Ġgr at
Ġb urg
ĠK it
ĠF igure
ĠM M
Ġed ges
Ġeffect iveness
and y
resp ons
Ġdem on
Ġalgorith ms
h ner
ĠHigh way
ĠO d
ĠGold man
Ġad min
Ġex agger
Ġst ays
aff e
at ers
Ġdark ness
ĠW rit
Ġconsider ably
Ġse iz
Ġbehavi ors
Ġlast ing
ex us
Ġam munition
M edia
Ġsac red
Ġorganiz ers
IC E
Ġdelic ious
Ġexcept ional
rep resent
ĠBud get
ĠM ission
Ġves sel
put ed
Ġchart s
M on
ĠK am
Ġbes ides
Ġbrief ing
olph ins
ĠW ATCH
Ġh oly
ple x
Ġpre jud
As ked
Ġle af
ĠG ates
ĠS A
Ġ196 7
Ġteen agers
Ġtr ap
u um
Ġcompat ible
ĠA FP
j e
Ġfriends hip
Ġunc ons
Ġchem istry
we alth
Ġexhib ition
Ġs ie
c ode
Tr ans
Ġ198 1
id ges
S uch
ĠJ ake
â Ķ
Ġa ide
Ġr ated
ab ul
C D
Ġmilit ant
oca ust
Ġarr anged
Ġn ull
Ġrub ber
le vant
ĠWe iss
in os
Ġadjust ed
Ġd ated
Ind eed
Ġinc umb
ĠCh o
ĠH ub
Ġlabor atory
Ġmaintain s
ugg ing
Ġden ying
Ġhe aling
Ġgenuine ly
Ġap ology
G l
ĠArt icle
ill ery
Ġo x
ĠC ass
ĠH unt
fe ld
Ġaccident ally
Ġm ph
Ġtim eline
Ġc ort
Ġperman ently
Ġoblig ations
ĠEl sa
i op
Ġconf using
Russ ian
Ġeval uation
p ur
Ġsh y
Ġpart isan
orn s
Q aeda
ĠLiber als
ra pe
ĠH P
ĠG PS
Ġin ch
f our
Ġp ile
h ome
be an
Ġexam ination
ĠMar co
erv ation
Ġin ability
Ġme g
Ġconsum e
Ġmed ication
Ġ6 9
Ġmisc onduct
Ġdisp ens
de gree
ĠA w
p y
Ġskept ical
ĠFor mer
mar ks
Ġsche mes
es ity
Ġgovern ance
Ġinhab it
ĠA th
G ood
m ons
Ġover haul
op ing
g t
Ġrap ed
ĠJ oy
ĠConf eder
Ġn it
r ament
ur ring
Ġgod s
Ġc her
M AN
Ġgar age
Ġoccur ring
Ġwithdraw al
ĠPlay ers
ĠAM D
Ġblood y
uster ity
Ġpre season
Ġun limited
Ġcontract ors
Ġtack les
ir k
Ġmon ument
ĠAn ne
Ġb ikes
W orld
Ġen cl
Ġfin es
Ġmem orial
ĠDou glas
p se
Ġp orts
Ġsp ends
Ġris en
Ġclos ure
ĠSil icon
ĠRepresent atives
Ġto ys
h is
Ġqu o
ĠR C
Ġ196 8
Ġnegoti ating
pe red
ct ive
Ġsexual ity
Â Ķ
ĠPok Ã©
Ġphot ography
e ast
Ġsubscrib ing
ID S
Ġple a
ĠM ueller
Ġnew est
ĠMu hammad
Ġlabel ed
z o
az ing
Ġed ited
Ġfil med
Ġdiagn osis
Ġv on
Ġh ood
Ġs ink
Ġal tered
ah n
Ġsuccess or
Ġanonym ity
Ġautom ated
Ġrev ised
ĠBull s
ll o
Ġcoast al
as i
Ġvict ories
ft en
Ġinf er
Ġredu ces
run ner
Ġp seud
ĠÐ ¿
Ġspe eches
Ġsh ipped
ĠS omething
Ġstrict ly
Ġsp ite
Ġag greg
Ġmort ality
ĠC ON
ĠGu y
d ata
oc ity
m ile
ĠT ill
Ġdet ection
Ġout lined
Ġatt ributes
Ġdemonst rates
ĠN in
Ġbip artisan
writ ing
al in
Ġfor ums
min ation
ĠPal in
Ġcred ential
L ist
Ġun acceptable
ist ically
Ġbelong s
Ġemp ower
ess ional
g el
ĠGl ass
ĠOb viously
ĠEx change
ĠVik ings
Ġlaugh ing
ag ging
Ġste pping
iff erent
ĠL uck
Ġqu ad
Ġsan ct
Ġreason ably
aw s
Ġpro c
ĠN DP
Ġch ase
Ġdefin ing
ĠRaid ers
Ġvol umes
ING TON
Ġpres cription
ĠWal ter
H ill
ĠSeah awks
N ever
he w
S ometimes
Ġdiv isions
Ġhear ings
ĠCub an
Ġspot light
L a
Ġembr aced
pp o
ĠF arm
ail and
Ġtw in
ĠBre itbart
act ic
s ource
ĠM D
work ing
ĠE dd
roll er
Ġlegisl ators
ĠSol ar
Ġhung ry
ĠM MA
Ġunder neath
Ġbed room
d ev
Ġhe ter
p ublic
Ġfan cy
W ar
Ġad vers
P ost
Ġmed al
Ġshut down
f ile
ch air
eng u
Ġf iber
Ġart ic
Russ ia
Ġf oul
Ġm ature
ĠSub scribe
Ġed it
Ġfel ony
ik ing
Ġkill s
Ġliber tarian
Ġrel ate
ĠV i
Ġpublic ations
ĠD ublin
Ġfl owers
pro of
ĠCl ar
Ġdis k
Ġim pe
Ġdr illing
st itutional
ĠSen ior
Ġout let
ĠM ason
Ġl ined
Ġprocess ed
Ġlic enses
ĠStud io
Ġelectron ics
u itive
Ġvari ations
ĠH ockey
E E
ic he
ĠJ oh
sh irt
Ġspir its
au er
in ate
ĠR ico
Ġfrank ly
Ġtour ism
Ġspec ified
Ġsk ull
Ġsol ved
elt a
ĠCh ile
Ġvend ors
Ġdirect ory
ĠM ort
S ch
Ġmeasure ments
ol an
Ġfacilit ate
ĠL ED
Ġl ib
Ġsport ing
ĠIs a
ĠTe xt
Ġl oses
ĠJ a
Ġconfront ed
Ġ7 7
Ġsurve ys
Ñ Į
Ġab oard
Ġsell s
Ġhero in
ĠL ane
Ġl uc
Ġname ly
v ol
Ġfl ows
Ġmal ware
ant h
Ġ197 6
Ġp iv
Ġsovere ignty
Ġ197 3
n ik
Ġrest ored
Ġback lash
ĠDen mark
ĠBl air
at on
Ġsal aries
Ġmarket place
Ġsubject ed
Ġ197 2
Ġqu ery
Ġbo ats
Ġw ip
Ġw and
ĠSpir it
Ġbattle field
urrent ly
d ays
Ġr age
Ġlack s
Ġlegit im
Ġcor rid
ai res
Ġ `
w ear
Ġse ct
Ġswe eping
rane an
Ġstre ams
uls ion
ĠZ h
Ġc argo
ĠK le
ĠBrook s
ĠUb untu
Ġtoler ance
Ġpuzz le
Ġle ap
ĠAl f
Ġsign atures
Ġmid night
ĠV eter
Ġsub mar
ĠO N
Ġsymbol s
ĠJohn ny
Ġref usal
Ġgu ilt
Ġcance lled
M al
v ious
Ġves sels
Ġprem ier
u v
Ġlist ing
Ġp ipe
Ġbureau crat
Ġm elt
ĠCom merce
Ġdiscl osed
ĠG host
ĠB ased
supp orted
t able
re r
ĠB JP
Ġhors es
Ġd ash
Ġpar agraph
ant o
Ġcon cess
T ake
R ef
ie val
Ġind ef
ather ine
Ġarrange ments
Ġinc oming
ak u
ĠZ ion
Ġconsist ency
Ġd ense
Ġtrave lling
Ġgrocer y
ĠV A
Ġt ribute
ri pp
Ġdoub ts
ro lling
wid th
ĠH um
ĠC her
ĠW orks
ĠCont in
ab a
âĢĿ âĢĶ
Ġtransl ate
Ġpredec essor
A ust
ĠRe ed
Ġtact ical
Ġint ens
ull ivan
Ġ197 5
Ġd ive
Ġfort un
ah l
Ġre ception
Ġconvinc ing
ĠQ atar
Ġdef ic
Ġen abling
oc ide
ĠWall ace
ĠC L
ĠQ B
ĠCount ry
ov ic
z b
Ġachie ving
ĠBet ween
ĠSt ars
orient ed
Ġconfident ial
Ġred e
Ġmod es
Ġd ancing
i ology
Ġprop ri
Ġret rie
ĠM agn
Ġment ions
Ġth umb
Ġsn ap
ĠSp ider
o a
ĠEvent ually
Ġportray ed
ĠF ab
ĠBr un
ĠCal gary
ĠCarl os
ĠA gr
ĠF ame
Ġpro port
Ġpar ade
Ġhydro gen
Ġvig il
20 12
az ines
ret ion
Å į
Ġnot orious
Ġdetermin ing
I E
Ġdiff er
Ġrecommend ation
Ġdisc on
Ġaut ism
est abl
Ġ7 1
acc ur
Ġtroub les
Ġret ro
al so
ĠAg ree
ĠM oney
Ġfire arm
ap y
Ġfl esh
Ġdefend ants
Ġbusiness man
Ġpret end
om atic
ĠC reek
Ġutter ly
Ġsteal ing
Ġdign ity
Ġover see
Ġw ounds
let ter
ĠC ut
Ġexhib it
Ġext ends
it is
Ġ7 8
Ġhor iz
ĠS or
ĠE le
Ġfunction ing
ĠMichel le
head ed
ĠW onder
Ġcatch ing
Ġastron aut
I d
Ġfold er
ss on
Ġfinan cially
Ġde leted
Ġart if
R O
Ġsur pass
Ġ8 2
Ġenc rypt
20 17
U D
ĠInt erest
Ġcomple ting
Ġ Ï
Ġf t
ĠH em
s is
n ational
Ġw are
Ġart istic
ĠF un
ĠHar rison
iss a
Ġst ark
ĠR ah
Ġ18 0
Ġext ending
Ġ7 3
ĠOr thodox
Ġpremie re
Ġlove ly
Ġent ries
N orth
Ġv ib
u ber
Ġ7 4
Ġr ings
ĠBang l
ĠJ uan
Ġsh apes
Ġfin als
c ill
Ġg rey
ĠD od
Ġstr ings
Ġeru pt
ĠCz ech
ĠMalays ia
Ġtrans c
Ġp ound
Ġacc using
ap or
ri ages
B et
Ġair pl
Ġcasual ties
ar cer
ĠCo ach
ĠBl ues
Ġmist aken
Ġtact ic
n ames
Ġg ard
ĠA my
man uel
val ue
ĠR ou
Ġp ale
Ġbarrel s
Ġwr ap
P ress
Ġchar ter
Ġviol ating
out ed
ĠP as
Ġglob ally
Ġnav igate
Ġfore sts
ĠPh one
Ġdomin ate
ai ro
bl ack
St ep
ĠN ame
Ġtable ts
ĠTrib une
ut ing
p ath
Ġreb uild
ĠSh i
Ġal le
B ig
Ġdecl aring
Ġrel ied
Ġa ides
Ġread ily
l ive
Ġrel ent
Ġflood ing
us hing
Ġdis ability
Ġmod ules
B el
Ġcomm itting
Ġl iability
A tt
Ġgen ius
ER E
hold er
ĠH ud
Ġelect ro
ĠBl og
Ġmus cles
ĠP ere
Ġse am
Ġobject ives
Ġal iens
Ġendorse ment
ĠMcC arthy
Ġnecess ity
Ġhon our
Ġren ov
Ġnation ally
Ġgener ic
in ery
ĠT D
Ġfam ously
Ġanaly zed
form ing
heim er
Ġun ited
ĠPl at
Ġ197 8
ĠBenn ett
ab ad
ĠCh amber
ĠPack ers
I O
ĠSp urs
g ro
Ġhun ger
Ġen l
Ġtroub led
Ġm ate
pl ess
Ġrevel ations
Ġsettle ments
os i
Ġhold ers
Ġo d
ĠK remlin
Ġjurisd iction
f eed
ah a
ke ys
Ġinc omes
h ole
Ġcharacter ized
ĠAff ordable
ĠPolit ical
Ġl ately
Ġad verse
pr ing
Ġshort age
Ġbl own
Ġreview ing
ĠGriff in
Ġv owed
Ġcred ible
Ġa ston
ĠT ib
ĠAd vent
Ġviol ate
uff icient
Ġbi ology
Ġcourt esy
Ġred ist
ĠSoc cer
ect or
Ġb inding
Ġexplo itation
Ġh ind
Ġre iter
ter ior
w er
aret te
Ġstro ke
Ġt ribe
ĠIce land
ĠA ld
Ġha ul
iz ards
Ġstimul us
add y
ĠJ ar
Ä į
Ġprotect ive
ĠF itz
Ġinter im
at hetic
ĠA qu
Ġbe aring
Ġles bian
Ġrefere n
Ġend e
Ġsomet ime
Ġvill ain
ant ing
Ġimm ers
Ġins ights
Ġup side
( '
b ul
Ġpl ates
Ġve t
ĠBrown s
ĠG reens
ĠM ust
Ġcloud s
Ġexpect ation
Ġf art
Ġb ind
J o
ĠTh ailand
ĠM erc
Ġmurd ers
N G
ĠTeh ran
ĠE D
Ġattack ers
Ġl ighter
Ġassemb led
Ġdu o
og g
es pecially
ĠL iving
Ġreluct ant
oth y
Ġ1 30
Ġqu arters
Ġpro ving
Ġnew er
ĠN PR
M C
there um
Ġal beit
bor ough
Ġp ockets
Ġn odes
p it
ĠBill y
ĠM om
Ġca res
ĠNever theless
Ġspons or
Ġre lying
Ġswe ep
ĠL isa
F our
U sing
ĠB annon
ĠBry ant
ĠG ate
Ġtrib es
ĠT igers
Ġtour ist
Ġswitch ing
D B
ĠD ennis
Ġrent al
G od
Ġdeter ior
Ġf ond
Ġcool ing
Ġmem or
Ġinter section
Ġfavor able
Ġp m
ĠChron icle
Ġphysic ian
Ġadap ted
Ġe leg
Ġkilomet ers
ĠD est
ĠI l
Ġcred ited
res pect
ĠL ock
Ġund oubtedly
sp ace
ĠT ry
osit ory
ic ers
ĠB aghd
Ġdefin itive
ĠEd wards
Ġstar ring
Ġhard est
alth ough
Ġn od
ri el
Ġhe m
ard ing
Ġt ube
ĠS i
Ġrevel ation
sc he
Ġt ier
ĠEm ploy
G r
Ġtw elve
b uilding
f ar
Ġident ities
w ick
cc a
ĠDef ence
Ġrece ivers
L S
Ġrecre ational
at ched
ĠSp encer
Ġprov in
Ġinc on
ĠOper ation
ĠD A
ASH INGTON
Ġinsp ire
ou st
Ġrender ing
Ġtax i
Ġlist ened
Ġtrans cript
Ġtheoret ical
ĠK el
B ay
Ġ Ø
ack er
ĠNob ody
ĠSud an
Ġevolution ary
Ġlin ear
ĠG ay
ag ged
Ġtong ue
ĠUr ban
on ge
Ġj ack
Ġdon ate
Ġp etro
ĠSim ilarly
Ġprof itable
as m
ĠShe l
Ġfact ories
Ġglass es
Ġprev ention
Every one
Ġdesc end
u ced
Ġu seless
ade qu
Ġmob ility
ĠLe vel
Euro pe
ĠK ind
f am
Ġgrad uated
Ġover time
Ġk ernel
ĠSand y
Ġcous in
Ġ( )
Ġvolunt ary
Ġbroad c
ĠH BO
ĠMove ment
ĠVill age
Ġpers istent
ĠN AS
Ġmag azines
ĠN eed
ul u
m el
Ġarri ves
ĠI ss
Ġne o
Ġfict ional
Ġkick ing
ur u
Ġevent ual
Ġcl arity
Ġco at
âĢ ĭ
Ġl oot
Ġantib iot
Ġback ers
ĠJ S
Ġintention ally
Ġelev ated
Ġarbit rary
d f
Ġur gent
Ġpers ist
ĠM ov
Ġaffili ate
Ġrun ner
Ġrisk y
ent ions
Ġbreak through
Ġun success
ĠWork ers
raw l
Ġgl ory
Ġpreced ent
ĠM ack
ĠRel ations
uss ion
ĠHispan ic
Ġman eu
Ġcontract or
Ġsoc ially
Ġlay ing
Ġbroad ly
Ġmos que
Ġju ice
Ġac ute
Ġen roll
Ġvary ing
Ġm all
Ġanalys es
Th ank
Ġbl end
Ġm ant
p ic
ager y
ĠSystem s
Ġg au
Ġp uck
atic an
Ġa qu
Ġentreprene ur
Ġdiss ent
ĠUn it
ĠT R
Ġgal axy
Ġfort une
aus ible
y ang
Ġtrick y
ĠB uy
ĠJenn ifer
Ġhe ated
ed ge
row th
Ġb inary
ocrat s
ĠRich mond
ĠPal ace
f ly
pt ic
Ġvar ied
Ġroll s
Ġcan cel
Ġsubscrib ers
ĠU A
Ġr am
ĠNe ither
im ated
Ġf oster
Ġal umin
Ġd ot
Ġapolog ize
Ġc ure
terror ism
ĠE rd
ir i
ĠML B
Ġc ab
ĠV P
k h
ĠPokÃ© mon
in is
Ġdr ill
b ad
amp ed
Ġnight mare
Ġdisc ourse
econom ic
te am
or ity
ĠF R
Ġyour s
ĠAr n
T unes
Ġattract ion
ĠHur ricane
Ġtr icks
ier ra
vel t
Ġtre asure
ĠBut ler
agon ist
Ġmem orable
Ġanaly ze
Ġpos es
Ġd rown
ĠCard inals
uten ant
ian ces
os ures
E ng
ĠFor um
ĠR oth
Ġb out
Ġval ued
ĠM itch
Ġn urse
te lling
Ġphilosoph ical
ĠTit an
Ġg i
Ġpitch ing
k ens
ig a
ow een
Ġa ster
Ġgall ery
Ġteam mate
on el
Ġd read
D id
Ġmass acre
rib ly
Ġf isher
Ġimpl ies
ĠWh atever
ĠSur vey
pro v
Un like
Ġspons ors
ĠB iden
ĠE ither
ĠSt re
ĠSpe ed
ĠArab ic
ĠL uther
Ġint ake
ĠI v
Ġart work
Ġp istol
Ġban ning
Ġp sy
Ġsens itivity
Ġor al
Ä ĩ
Ġst raw
ĠBob by
Ġdefend ant
Ġflaw s
Ġswe pt
ĠD iam
is ode
Ġsepar ately
ĠB uzz
Ġinfl amm
Ġdisappoint ment
Ġimport s
Ġinc arcer
Ġaim ing
re ated
Ġpref erences
Ġsubst itute
Ġun aware
ĠR ic
ĠG it
Ġcl ause
T or
Ġ197 7
Ġnational ist
Ġdon or
Ġdistingu ish
ul ates
ic ians
Ġmeas uring
ĠPant hers
Ġpow der
r ams
p ound
Ġprovin ces
ĠM IT
Ġconsult ing
F l
Ġca ut
Ġoutf it
Ġmis under
Ġstick ing
ĠH ait
ĠG ear
et e
Ġpat ience
ĠW oman
d isc
ĠAust ria
Ġtourn aments
Ġspec ify
Ġk icks
Ġsynd rome
Ġstar ters
ĠB P
ĠYan kees
Ġ8 8
ĠLad en
Ġ197 1
Ġ196 9
Ġhe al
Ġdeb ris
ĠGall ery
Ġpe pper
ming ham
Ġb atch
Ġc yn
sp oken
Ġfr ames
âĢ ³
ĠÂ ±
roph ic
ĠIsrael is
V ER
Ġa usterity
Ġdispro portion
Ġpron ounced
Ġobst acles
DA Y
G erman
Ġworry ing
Ġbes ide
Ġc u
un ks
ak y
on ies
ĠAl ong
Ġdomin ance
Ġassass ination
ĠM VP
Ġcommit ments
Ġyoung est
ĠM all
Ġhand y
ĠNob el
Ġanal og
Ġinv isible
ĠO t
ast rous
A nt
Ġg aps
omet er
Ġrhyth m
ung le
ant i
ĠCast le
Ġgrand father
Ġadminist rators
S outh
Ġequ ation
ĠM ul
p g
ĠSh are
re amed
Ġprov es
Ġmal icious
ĠBrother s
Ġbul lets
cont rol
Ġwor ries
W ASHINGTON
Ġnav al
Ġdynam ics
ĠI BM
Ġinflu ences
ĠM i
Ġentertain ing
Ġiniti ated
olute ly
W atch
a ired
ĠF at
er ting
ĠNew ton
ĠC BC
Ġban ner
Ġc ute
Ag ain
h um
ex p
ane ous
Ġl iv
Ġst er
Ġexclud ed
th ird
Ġcy cles
Ġstr anger
ĠAle ppo
ĠSh ah
Ġevangel ical
Ġ197 4
ĠS ay
Ġse min
Ġconfront ation
Ġcur rencies
c ost
Ġfin ale
Ġorgan ised
Ġinf lic
ĠC u
so ever
Ġhas h
lud e
Ġassault ed
Ġover th
ĠBarb ara
ĠFr an
9 00
S y
ve t
Ġob esity
ĠBe yond
Ġunc overed
ĠOccup y
ĠD ue
Ġball ots
ĠUS S
ose velt
ĠC ape
th ree
Ġpr isons
d el
Ġour s
Ġextrem ist
ĠV atican
Ġp airs
ĠB order
W est
it utes
Ġplay back
Ġcrew s
Ġre ct
id o
Ġcrowd ed
M in
Ġdesign ing
P ar
Ġw ard
Ġtoile t
Ġstead ily
âĶ Ģ
ĠN HS
Ġo h
Ġblog s
ĠW ade
Ġn arc
Ġinterpret ed
Ġaggress ively
B rit
Ġint act
Ġnetwork ing
Ġf itting
Ġassoci ations
Ġ1 10
Ġoff enders
Ġopp ression
ĠV irt
Ġcomm em
ĠC ant
Ġab uses
Ġneutral ity
ĠReg ional
ĠR ush
Ġpre y
Ġsu ited
Ġopt ed
Ġepid emic
Ġpray ers
Ġpresent ing
Ġ9 11
Ġar ise
Ġinv itation
Ġthe or
Ġsear ched
ange red
Ġm aj
ĠH at
Ġauthent ic
Ġshar ply
ost al
Ġbrew ery
ĠPhill ips
Ġan k
Ġelimin ating
M I
lement ary
he astern
Ġconven ience
Ġsub way
N Y
Ġ Ñģ
Ġwas h
ĠR achel
i pt
Ġter rain
ĠSo on
ĠB B
us ions
Ġreven ge
Ġquestion able
A h
Ġneighbour hood
Ġconcent rated
d ie
Ġeuro s
Ġst icks
Ġadvis ers
ĠRo om
ĠElect ric
ĠD aw
Ġt uition
or us
osp el
um ns
ĠAss ange
ĠBoe ing
Ġres ur
Ġmin im
ro gen
in ho
r one
X X
V A
ĠG and
T om
on ts
IL L
the m
Ġshe ets
Ġflaw ed
ĠP ad
Ġcur ric
Ġover ly
Ġcomprom ised
Ġm im
Ġneur ons
H D
Ġsk i
Ġsubur ban
ĠGu ide
at re
ĠAss istant
Ġprem ise
Ġev olve
ĠBrother hood
ĠLe v
z i
ul ator
am ation
Ġor b
Ġcontribut or
g reen
ne x
Ġse al
ĠTer ror
Ġregul ated
ĠE S
Ġdist ribute
M ed
Ġcomple ment
ling ton
Ġsp at
Ġr ats
Ġmart ial
ĠJ oint
ĠM aj
ernand ez
ĠT ar
Ġmet a
Ġextrem ists
ĠC art
et ing
omet own
Ġhot els
k g
ĠÐ ²
ĠM ans
Ġrecip es
wr ite
e very
Ġne ural
Ġpress ures
Ġmulti player
ĠIm perial
Ġbicy cle
Ġle thal
l ib
he nd
Ġgrand mother
Ġachieve ments
ĠSh adow
Ġsub mission
ĠAgr icult
Ġland l
ron es
ment ioned
Ġun lock
Ġsupp lied
ĠSe ven
ĠRes ources
Ġbudget s
Ġdef ines
ĠF ly
Ġpharm aceutical
Ġi Tunes
Ġreject ion
li ers
e ment
Ġcommission ed
f in
.âĢĻ âĢĿ
Ġspe lls
Ġtun ed
ĠB us
Ġbr ick
ĠN ag
Ġwhat soever
Ġqual ifying
Ġsatisf action
ell ing
ĠHol ocaust
Ġremind s
Ġtr ump
our ge
ĠW ii
ĠL ess
Ġint imate
Â £
ĠCh arg
N D
Ġtext ure
Ġanth rop
ĠChief s
ĠCat al
Ġintern ationally
Ġexpress ions
Ġt ire
Ġhel met
Ġembarrass ing
Ġmanufact ured
Ġinj ust
ĠJ ong
Ġtheat ers
off icial
ĠB ishop
Ġcont ing
ĠN ancy
Ġris es
Ġbelong ing
Ġhy d
Ġfac ial
Ġinter medi
ĠTit le
F ig
Ġuncon stitutional
] :
( );
med ia
Ġsecret ly
Ġpl ag
Ġmed i
Ġp up
Ġdisc ont
ang o
Wh ich
St ud
Ġtel esc
o os
Ġcomm ittees
ĠJul ian
ob i
Ġcryptocur rency
C R
Ġmer it
Ġ ðŁ
ĠBry an
ĠSn ap
Ġneighbor ing
Ġprec ision
PD ATE
ĠC ab
ES S
Ġcost ume
ĠFour th
aug hed
app ro
ĠG as
Ġcredential s
Ġc ache
F igure
Ġrecon c
Ġsum mon
Ġle ase
ĠCl ay
Ġbeh ave
ĠCl ose
Ġtroub ling
ĠA B
Ġper ce
Ġdr ain
ĠF inn
Ġignor ance
Ġtouch ing
ĠRod gers
ĠFer r
Ġn erve
Ġmess aging
ĠB E
ĠRe form
Ġtrack ed
Ġsol ving
Ġlif ting
Ġmake up
am o
ĠWell s
Ġdis astrous
ri ved
Ġsur render
Ġdism ant
ĠEnter prise
de velop
Ġbase ment
g rav
W ork
un s
Ġpublic ity
ir med
Ġatt ribute
Ġlink ing
Ġble w
ĠFiref ox
Ġland mark
ĠQu inn
ĠL ang
Ġwr ist
ĠD M
ĠH ope
Ġemot ionally
ful ness
R el
Ġjust ification
ain ted
Ġcompl aining
ul in
Â ®
ĠGl obe
Ġam ateur
Gener al
Ġinvent ory
Ġun int
anc ies
rit ies
ĠLt d
ĠBaghd ad
ĠProf ile
Ġwho ever
Ġencour ages
ac hers
Ġr ou
ĠAngel a
ĠChance llor
com pass
Ġvac uum
bl ock
Ġrend ered
ĠPortug al
Ġdest ructive
Ġhor rific
ĠS ach
im eter
less ness
Ġhomosexual ity
ĠR AM
ĠR ud
J ack
Ġhol idays
ul k
Ġn asty
ĠAl most
in formation
Ġp ause
atter ing
Ġenact ed
ĠK or
head s
Ġsovere ign
Ġl aughed
Ġcorrel ation
ĠC row
do ing
ĠE RA
Ġtradem ark
ĠBook s
S and
Ġpass ive
ĠN exus
Ġnon etheless
ĠRo osevelt
H ouse
Ġhack ed
Ġover r
Ġm ast
ed uc
Ġnav igation
Ġs ab
op ular
Ġnons ense
ĠJam ie
âĢ¦ âĢĿ
Americ a
Ġapp et
Ġint ends
ĠBe ast
Ġprom in
ĠH orn
ĠCar ib
ĠD ra
ĠLaur a
Ġdim ensions
ĠAgree ment
cul us
J ames
ay ed
ĠInvest ig
ĠTr uth
ĠNash ville
ĠIn v
ĠNiger ia
Ġsurv iving
ett a
Ġout look
Ġquant ity
Ġm ush
Ġunder go
Ġinvestig ative
Ġsubur bs
Ġeconom ically
Ġpriv at
ĠW inn
r aged
Ġstud ios
Ġmet ric
Ġhed ge
ah an
ĠP un
Ġdiv ine
Ġback wards
ĠE arlier
Ġremem bers
B ased
ĠN ep
Ġ14 0
ĠBoe hner
iter ranean
ĠSh ield
Ġprev ents
ĠK ath
B en
ĠPet e
Ġh ated
n ut
C ap
Ġun bel
Ġnin th
ĠBase ball
ch ief
Ġlegal ization
ĠS oul
Ġrob bery
Ġconstrain ts
Ġmac ro
Ġfe as
Ġin accur
ĠGarc ia
Ã¼ r
Ġintrig uing
Ġr ivers
Ġforeign ers
Ġc attle
Ġse aled
Ġpack s
Ġsum mar
ĠMarc us
ult s
R ober
Ġtoug her
C ity
Ġj am
Ġl ending
mont on
ĠP interest
Ġunemploy ed
zb ollah
Ġfree ze
Ġen v
ĠProt est
Ġanch or
Ġc um
ĠMont ana
cast le
ced es
ap hor
ine z
ov ich
epend ent
Ġ3 50
Ġintegr ate
Ġupgr ades
ĠB ed
am bers
Ġprosper ity
ĠZ ero
ĠBir mingham
uk i
ĠC SS
Ġrecord ings
Ġirre levant
Ġcl ash
if ully
Ġsa ves
ĠEd itor
Ġin adequ
Ġby pass
Ġham mer
rament o
ĠMoh ammed
ĠP L
Ġind ie
us cript
Ġhor izon
ĠHall oween
Ġst iff
uc le
Ġj acket
Ġsatell ites
ibl ical
ĠR PG
Ġp add
el f
Ġstri pped
Ġad oles
Ġs lic
ertain ly
Ġacc idents
R ich
ĠBroad way
Ġr ides
ĠAl b
Ġcontain ers
br aska
Ġprote ins
Ġvar iant
ic ides
Ġmod ify
c ulation
sp ons
ĠPlan et
s cience
Ġexam ining
ĠBr ig
Ġconf erences
Ġgrad uates
Ġte aches
Ġunw illing
Ġun cle
Ġat e
Ġb er
p ired
ĠS W
Ġ8 4
Ġterr ifying
ĠH alf
ool s
Ġc ord
ĠEd ge
Ġbo oth
ĠâĢ ¢
m us
Ġsk ip
Ġshare holders
Ġh ilar
Ġ: :
U E
NE W
ĠR ace
D ata
U SA
Ġmole cules
Ġto oth
ĠM C
t em
Ġcampaign ing
à ¸
ĠSam uel
Ġprison er
Ġtransf ers
qu is
ch ar
Ġpun ished
K K
Ġadj acent
Ġhoriz ont
Ã¡ n
Ġreal ised
Ġn est
Ġinfect ions
ĠC li
Ġexpl ored
Ġfav ored
Ġmathemat ical
ĠAcc ount
ĠMot ors
min ent
um atic
Ġdu pl
ĠCitiz ens
ĠPhot ograph
Ġhand gun
ĠK az
ĠA ve
ĠHer itage
With out
Ġdisp utes
am y
ĠG B
v as
om i
Ġvirt ue
t or
t ake
Ġnice ly
ĠF ish
ud ed
Ġoffer ings
Ġcl ashes
Ġh ometown
Ġmind set
ĠFI FA
Ġdecent ral
Ġb ay
ĠK ate
ĠV iol
Ġretain ed
fr ame
Ġthro at
s ocial
Ġ10 1
ĠQueens land
Ġspecial ized
Ġn er
ĠCh and
ĠCurrent ly
Ġ Ù
Ġc m
Ġdig it
Ġamb ul
Ġscript s
Ġswe at
Ġturn out
Ġir rit
Ġsince re
Ġ196 4
ĠA x
r ise
r ising
Ġtrad es
ash i
serv ice
ĠPost s
if iable
M E
ĠSt ra
ĠSp ot
gener ation
IS T
Ġhyp oc
Ġoverwhelming ly
Ġboot s
Ġcompan ion
ĠA ven
ĠHol mes
ĠSer ver
Ġr ab
us hed
z illa
s qu
ne apolis
Ġdeliber ate
ĠPet erson
ĠM O
Ġdef enses
ab el
N ET
CL A
ophob ia
Ġg reed
at isf
Ġ9 8
ĠJ obs
Ġdeli vers
Ġbr ush
Ġsw all
Ġcrit ically
ĠMed iterranean
Ġcou pled
ĠSe lect
ig inal
imp se
ĠS ent
Ġinv alid
Ġsle e
oun cing
Ob viously
ĠZ immer
Ġgl impse
App le
Ġsymb olic
ĠSoft ware
Ġindict ment
Ġtri o
ĠC abinet
are z
ol s
ĠÐ ½
min ster
ĠIn side
Ġch ron
Ġco pper
ĠFin land
Ġcat ches
Ġpro long
Ñ ĩ
ĠIm agine
Ġprop ose
ĠAl tern
Ġc os
Ġr ugby
Ġcor ps
Ġ{ \
Ġthr illed
Ġcent res
Ġ8 1
int age
Ġsan ction
Ġsur plus
ĠB ird
ĠD awn
ĠBangl adesh
ĠNaz is
Ġdrag ged
Ġto kens
Ġ196 5
Ġp el
Ġimpl icit
Ġporn ography
Ġtal ents
Ġpred iction
b one
Ġb ats
op ic
irl ines
worth y
Ġproceed s
ĠIndian apolis
Ġel ites
Ġiss uing
Ġcig arettes
Ġincorpor ated
ov o
ĠIn iti
Ġ ic
Ġsocial ism
ĠM es
Ġrelig ions
Ġund ocumented
ĠM ember
Ġover head
Ġ7 9
Ġrecru ited
pl ant
Ġim agery
Ġh ike
Ġmanip ulation
ĠPr om
Ġnorm s
Ġcur b
Ġfurn iture
wit ch
Ġmin ers
Ġbre ed
Ġaff irm
w ould
ĠD ise
Î ±
Ġexpl oded
Ġjo ins
Ġhaz ard
Ġlack ed
Ġrevers ed
Ġpro xy
ĠN at
v ance
Ġcomp ounds
ĠPal mer
Ġgu ided
Ġcomp act
Ġcontin ually
Ġcrit ique
ĠAut o
col m
play ing
Ġconclud es
child ren
ĠK os
ĠPh D
l iter
ĠTib et
Ġmor ality
Ġcont race
Ġcommun ist
ig m
ur as
Ġop io
G reen
Ġannoy ing
Ġdict ators
iber al
ĠCol lect
Ġemphas ized
ĠS ierra
ĠPro du
S er
Ġinject ion
ĠDr ag
ĠB att
i ably
Ġro oted
ĠErd ogan
b oth
Ġreal ise
Ġboss es
Ġoff ence
Ġkilomet res
ĠDun can
ĠSh aw
Ġcalcul ations
ĠC hen
Ġdiscon nect
ĠMem bers
st ra
Ġdis gr
z h
s im
ĠF oster
Ġg re
ĠF ast
Ġcont empt
ĠH TC
Ġmed itation
Ġa irst
ĠRodrig uez
Ġkn ees
ĠCapt ion
Ġch unk
Ġstrength s
Ġch airs
ass es
Ġclar ify
Ġrep et
Ġload ing
to o
Ġflee ing
F T
ĠW ol
asc us
ĠAr med
M uch
ĠAl ice
Ġforth coming
iz ers
Ġflow ing
Ġfemin ism
Ġcol umns
Ġb ans
Ġ19 45
ĠN athan
ĠHug hes
ust ain
ĠCom ics
Ġcance led
am as
Ġha un
Ġ ),
Ġfin ances
Ġd war
Ġaccount ed
an ne
Ġfar mer
Ġref uses
Ġrandom ly
Ġst ones
Ġsimpl er
k ill
Ġencoun ters
Ġsec uring
Ġvo iced
Ġres id
ul ously
ĠAll ah
Ġcrack down
Ġshow er
t w
Ġcop e
Ġp ad
Ġpres erved
F I
lin ing
Ġpoet ry
Ġent ers
Ġprofess ors
Ġn aming
Ġrall ies
ĠLat ino
Ġscholars hip
Ġneed ing
Ġefficient ly
Ġl as
Ġab ortions
Ġa ug
Pro f
Ġcens orship
vent ions
ĠG rey
ĠC our
os ity
Ġsc are
L aw
Fr ank
Ġ8 3
W ashington
Ġfact ions
Ġl iver
Ġobsc ure
er als
un ge
Ġtravel s
Ġdisc retion
ĠL ost
Ġ8 6
v ial
ĠBet ter
V al
ol ics
Ġpost season
at able
ĠJes se
Ġaccord ance
ĠCub s
U I
EC T
ĠP ast
Ġrest rain
ĠCle an
Ġconv ictions
Ġle ver
A lex
1 20
th s
ag ain
ĠEngine ering
ĠC ou
ĠL em
Ġsubst ances
Ã Ĺ
Ġun law
Ġpot ent
St art
Ġimport ed
ur ious
ond e
Ġguarant ees
ed e
Ġsket ch
Ġfor k
Ġorder ing
ĠD R
ĠT ell
Ġshe ep
ĠSh in
ĠCr iminal
imens ional
ĠSw ift
out e
g reat
Ġlit igation
Ġbas eline
ah o
ĠPot ter
Can ada
b ra
ĠT rav
pe ction
ĠL an
L ater
ok o
ĠP oly
Ġcritic ised
Ġany time
Ġref und
ĠCol in
el er
Ġm old
Ġhabit at
Ġpract icing
o ven
pr ises
Ġj ets
Ġliber ties
Ġple asant
Ġpurs ued
Ġinter pre
Ġgl ance
Ġbatt ling
R ob
Ġe rect
ĠPr im
ĠB elt
g s
Ġst ole
ĠC op
H ub
k now
Ġnut s
Ġsu ite
abl o
ĠL akers
Ġsurvey ed
20 11
ĠAny one
Ġgrass roots
ĠW alt
ig ue
Ġcalcul ate
y d
Ġs id
ĠC av
Ġreb ounds
Ġpur ple
ĠP il
Ġamb ig
Ġprompt ing
Ġref res
U ntil
Ġwh oles
ĠB esides
Ġc aucus
Ġtow ers
Ġfather s
Ġres il
Ġl azy
eal ous
ĠWork ing
Ġ9 7
Ġcoll ision
et a
j u
Ġflags hip
ce ans
ĠInd ex
Ġ9 6
and o
Ġl inem
Ġsup reme
Ġconst itute
p ol
ĠSen ators
Ġsc al
ĠEurope ans
ĠM urd
M icro
Ġra ids
ĠL ore
ĠL l
uff ed
ĠS F
A B
re cy
ĠL G
as ma
ĠCarib bean
ident ified
Ġwas ted
Ġdep icted
Ġprof iles
ĠPolit ics
Ġstaff ers
anche z
Ġbackground s
sh aped
ost ic
Ġsuprem ac
Ġacc laim
Ġstart ups
ĠR ivers
Ġpredict able
Ġopt ional
Ġapart ments
Ġschol ar
ĠSac ramento
ĠAnt ar
s ight
ĠR af
ĠTo o
ĠE thereum
raw ling
Cal if
as ures
ri ans
Ġ9 3
ĠEd monton
ĠHung ary
Ġint ensive
ĠTra il
ĠCh ase
Ġdes ires
D ep
Ġfinger print
Ġmet aphor
Ġcollect ions
us c
Ġgest ure
Ġnot ified
Ġatt ach
Â Ģ
Ġfe ver
Ġproject ions
Ġaffili ated
ĠStud ents
ĠDou ble
ĠFl ight
Ġhe els
Ġment ality
ĠTra vel
âĸ Ī
Ġsl ice
A f
ĠM ong
Ġremain der
Ġaest hetic
Ġcommod ity
Ġpack aging
Ġmarg ins
Ġsatisf y
ĠÂ ĵ
umb ai
Ġen vision
g om
Ġceleb rities
20 10
ĠF OR
ĠImm igration
Ġsu cc
Ġastron om
Ġparam eter
ograph ical
ble m
Ġinc om
Ġind ivid
ĠNe braska
ur ry
ok ia
sec ution
A ng
Ġr abb
p resident
ĠHer o
Ġg ambling
ft y
Ġdes cent
Ġdis hes
Ġthreat ens
Ġdis puted
ĠT her
Ġcal ories
f a
B rien
Ã º
ĠC ox
Ġload s
ĠCh ip
ro d
ĠS ullivan
gh azi
ĠP ick
ĠCom cast
Ġt ender
Ġtr im
Ġpromot ional
Ġshout ing
v oc
ĠAh mad
Ġtrop ical
Ġst int
ĠK ash
Ġhas ht
Ġup hold
Ġplace ment
Ġdist ress
agg ering
Ġelect orate
ĠL ives
Ġo ven
Ġsc i
Ġwe aker
Ġdownload ed
Ġcar ing
per t
Ġder iv
Ġacadem ics
C are
Ġsh oe
ĠA irlines
Ġins pection
ĠM atter
Ġpolic ing
Ġpit ched
ĠHe zbollah
Ġdim ension
ĠComm ander
Ġir ony
s omething
Ġlight ning
Ġinf ilt
c ross
us k
Ġhy pe
ĠDam ascus
ĠR at
ĠMus k
Ġsc attered
Ġ Å
Ġmount ing
ĠAr c
ĠM B
Ġcontinu ously
Ġpost ers
Ġd ining
Ġpr one
Ġappreci ation
ĠS pect
em bers
ĠJo el
Ġhel m
ĠMin neapolis
Ġman uscript
ĠMS NBC
Ġtou ches
Ġl ing
Ġpo le
Ġdepos its
Ġsequ ences
Ġlaun ches
ĠCost a
Ġins ert
Ġfl ower
Ġinstruct ed
oul os
Ġassess ed
ĠPresident ial
ĠMajor ity
Ġinstall ing
Ġ8 7
Ġcorrespond ent
Ġthread s
h ad
ere k
ĠAh med
Ġdispl aced
Ġdep uties
pri v
ĠDe al
Ġactiv ism
Ġsl ated
Ġcolumn ist
ere n
ific ant
ĠR aw
Ġneg lig
on est
Ġtra ject
Ġto pped
Ġd awn
ĠT ru
Ġappreci ated
T ur
ĠCom b
Ġen velop
Ġstat ute
ĠClass ic
Ġbuff er
ilit ary
Ġassert ion
ĠToy ota
ĠSt ring
Ġpict ured
Ġden ies
b ling
Ġd ug
ĠHop efully
ĠN ar
Ġh urd
ĠP owell
M ake
es ville
Ġadvent ures
P ut
Be ing
ĠP ink
Ġman ually
Ġcompet itor
Ġattend ees
ĠAn imal
undred s
ĠUS D
Ġapplic able
Ġ9 2
M obile
Ġdis reg
Ġinherent ly
Ġru in
ĠAth let
g ue
ĠWal mart
Ġcons cience
Ġsp here
if iers
Ġdress ing
Ġp und
ĠW R
i per
Ġconce aled
Ġcertain ty
Ġbr idges
Ġorg ans
Ġhe y
Ġreprodu ctive
r us
ĠG ore
ĠLegisl ature
ĠGirl s
Ġamb itions
Ġv ag
ĠClar ke
Ġincumb ent
Ġs add
ia z
Ġunp redict
Ġdis gu
Ġcinem a
Ġpark ed
Ġse gments
Ġremote ly
Ġfr uits
Ġoff enses
uff y
Ġuncons cious
Ġp ars
' '
Ġwild ly
C ong
Ġpass port
Sm ith
ĠOb serv
Ġeas iest
charg ed
Ġpit ches
ĠDiam ond
on gh
Ġmin es
Ġbe ast
Ġphysic ians
Ġwhe at
ĠY ears
ri kes
ĠB ear
Ġpromot ions
ĠS ep
ĠTex ans
Ġfix ing
Ġtransport ed
ens on
Ġdistinct ive
ĠMil an
ĠE sc
Ġinspir ing
uck ed
Ġapplic ants
Rem ember
Ġfavor ites
ĠJ ared
ĠT alk
Ġj unk
ĠS ens
Ġmed ieval
ĠCrime a
ment ation
ĠMer cedes
Ġca f
Ġcont ender
Ġrock ets
Ġdis ruption
w age
Ġaccording ly
d ollar
ĠBar n
sy stem
C P
Ġsl aughter
Ġcent ered
Ġlegitim acy
ĠPriv acy
Ġbull ying
Ġfortun ate
Ġhand les
Ġc ables
ab i
ĠMach ine
Ġprogress ion
ser ver
it ches
L ife
ĠK er
ĠEdd ie
Ġunh appy
Ġgas oline
Ġgr im
at ility
ĠD ian
Ġcomp iler
Ġvacc ines
Ġfif ty
Ġm ud
ĠT ogether
ĠSt alin
ĠStud y
b ank
ĠNor we
em et
Ġeduc ate
ĠB ald
Ġfre el
ĠBre nd
Pl ay
ĠV ers
Ġim minent
Ġaver aging
ur ally
ĠD w
ĠT arget
ĠCast ro
S M
ĠC ond
H ave
Ġflav ors
Ġassign ment
p aid
ĠSteven s
ĠE ight
Ġmo ist
Ġhe ating
ĠJ ed
Ġincorpor ate
ris k
.' "
Ġcome back
Ġcar n
et on
ĠJess ica
ĠB L
Ġplug in
ĠNorm an
Ġimpact ed
T ex
i ological
ick ets
Ġshow case
Ġur anium
gr at
l ast
Ġaer ial
âĢĿ ).
Ġposition ed
ĠâĢľ [
B it
Ġfound ations
Ġdispos al
ĠO z
Ġcustom s
os aur
own er
Ġadvis ory
Ġport rait
Ġsystem atic
Ġconfir ms
S an
p her
ĠCom puter
Ġpersu ade
Ġprec ip
Ġc abin
Ġauthor itarian
Ġsu e
Ġpat ents
.. ."
Ġfoot print
ĠPrin cess
ĠBen ghazi
ĠD rew
Ġwat ches
ean or
ĠThe atre
Ġnut rition
ĠMc D
im age
ues e
Ġstorm s
Ġw ield
k ar
ĠInter ior
Ġrein force
Ġa pt
m ill
run ning
Ġactiv ated
am pton
Ġstr angers
ĠDem ocracy
ograp her
ĠS earch
f ull
ip se
Ġunp opular
ĠH erald
Ġluc rative
Hill ary
Ġill usion
Ġdirect ing
Ġat op
Ġt ennis
ĠH ob
Ġver bal
Ġprior it
im port
Ġreact or
ĠE X
get s
Ġmeasure ment
Ġmix ing
Ñģ ÑĤ
ĠI b
Ġsound track
. ).
ĠY ale
ĠPal m
Ġmy st
Ġdig est
Ġtheat re
ĠOver all
Ġbe ats
ĠSt op
Ġboy cott
Ġinf inite
Ġdig ging
Ġa fore
gh ai
Ġb ored
T op
m ember
st ick
Ġd airy
Ġcollect ively
Ġwood s
Ġde lete
ous ands
Ġg orge
ĠZ en
Ġst akes
> >
Ġl ips
co very
ĠLeg end
ĠS O
Ġmusic ian
ĠT ask
Ġcry stal
Ġmar riages
Ġut ilities
Ġo un
Ġhuge ly
ĠJeff rey
est a
Ġdemonst rators
ny der
ĠMarg aret
ort ing
ĠRec ord
al ph
Ġdes erved
Ġcle aring
izz ard
Ġbox ing
ĠZ one
Ġin k
b uild
yl an
Ġmatch up
th reat
Ġhistor ians
Ġcharacter istic
Ġpay roll
ĠCommon wealth
c s
ys on
ĠM ine
M ike
ĠOther wise
ĠN umber
Ġport ions
Ġbench mark
Ġdies el
Ġanx ious
Ġrecover ing
ĠM ull
B R
Ġbe ans
Ġbl unt
Ch ris
Ġnegoti ated
dis play
Ġgen ocide
ong yang
ĠAl pha
Ġsmall est
Ġmathemat ics
ok u
Ã© e
OM E
Ġcert ified
Ġamend ments
Ġemb ark
Ġquarterback s
le ague
Ġindic ator
D own
ĠLabor atory
ĠL E
ĠLook ing
ĠF an
cer pt
ĠPri or
Ġgi ants
leg al
av i
Ġp p
ĠApp arently
ĠBelg ian
Ġge omet
Ġg ly
Ass ad
Ġven ues
Ġsli pped
ver ted
Ġcompar isons
h ots
ĠAlex and
Ġrecogn ised
Ġw ished
cl ub
ĠK ill
ĠMart inez
el come
Ġan om
Ġclim bed
ĠX i
ĠMos ul
ĠForm ula
b led
Ġfound ers
ĠOb ject
ot ive
Ġsw ap
Ġconsult ation
ĠLu is
Ġadjust ments
Ġ16 0
Ġt ide
Ġm ol
ĠM aur
Ġconstitu ents
Ġadv ancing
ĠS em
Ġmanip ulate
Ġl ied
Ġcol ony
Ġelement ary
Ġexplo ited
l ation
ĠZ ach
2 000
Ġrun ners
Ġab usive
Ġimp osing
Ġcurric ulum
Ġindivid ually
Ar t
ĠR ing
ĠTra ff
Ġsufficient ly
Ġhalf way
Ġab rupt
am mar
ĠAn aly
ĠW es
ĠA bs
Ġhead er
sh aring
cl osure
emet ery
Ġpl ausible
os ph
Ġble eding
Ġwe ighed
ĠAn im
ĠJo ined
ĠB uild
ĠN as
op oulos
J apan
ie ve
Ġrail way
II I
Ġmilit ia
ac cess
Aut hor
aut h
Ġv icious
cific ally
Ġshow c
Ġdeleg ation
ĠTh ai
ĠG am
usse in
Ġfaith ful
S ports
Ġunbel iev
ason able
ĠCh ad
m itting
Ġst aring
ĠÂ Ń
Ġal igned
ĠD ynam
ĠYou th
els h
Ġprohib ition
ĠWood s
Ġm apping
ĠBM W
Ġfl ames
Ġbl oc
Ã© t
Ġintegr al
P oint
Ġabsor b
Ġtreat s
G S
ĠG P
Ġmin imize
ĠMal colm
ad h
oll o
ĠEs pecially
Ġfix es
Ġdist urb
br and
Ġj azz
S uper
ĠAb raham
Ġimm unity
est on
Ġprotest ing
Ġansw ering
ĠIniti ative
Ġplant ed
ew ay
Ġbl at
v or
ĠK ay
ĠB apt
U M
Ġsh ark
ĠRaven s
ig s
Ġcand y
m und
Ġres ent
Ġe cl
ĠB ak
ĠA ub
ott om
Ġpat ron
Ġch im
ĠP ath
ĠM ons
ĠRet urn
ĠSel f
Ġd ough
Ġsc ales
Ġsatisf ying
ĠC it
ar in
Ġgl ac
ĠS ri
Ġsp ike
ing rich
ro v
prising ly
Ġ= =
Ġassoci ates
Ġamb ition
Ġprotect s
Ġfert il
ĠB ren
Ġeat en
Ġvel ocity
iction ary
ĠSocial ist
Ġche ss
gom ery
ĠChe m
ĠSh a
ĠH onda
Ġcateg or
ĠD anish
Ġblow ing
ĠTele graph
y on
Ġcamp uses
h u
Ġr ipped
B L
U lt
Ġpull s
Ġhier archy
ĠLeg al
ĠC urt
Ġenthusi astic
Ġsh adows
Ġd orm
Ġjer sey
om ore
Ġcook ed
ke ll
B ron
Ġop ener
Ġautonom y
Ġcere mon
Ġch asing
Ġdec isive
ĠSur v
Ġfl ies
Ġw ra
ĠO culus
Ġch ick
Ġp estic
ĠCol ts
ĠHud son
Ġtrave lled
{ \
Ġr anges
Ġslow ed
Ġmet eor
Ġacc ent
st ock
ĠL ot
Ġf ont
Ġshe lf
Ġmotorcy cle
Ġcatast rophic
Ġwhistle bl
Ġquant ities
ĠI G
ĠSqu ad
ud a
Ġalleg es
Ġund erest
Ġbre wing
ad ays
Ġancest ors
ĠCons umer
Ġsupp ress
Ġgener ates
** *
U PDATE
Ġju ven
Ġview er
ĠA round
ĠSim p
Ġrecogn ise
Ġl ingu
ĠAn a
Ġcontribut ors
otten ham
Ġal arming
ĠF ac
Ġinhabit ants
ĠTom my
ĠCar r
Ġd are
Ġe go
Ġtask ed
E vent
Ġincl ined
? !
S ur
Look ing
ĠCl in
ĠÃ ł
est e
Ġcru ise
F ox
Ã ł
Ġinstrument al
Ġal erts
iment al
bl og
h art
ĠCath olics
it ored
ĠK in
ĠD ays
Ġo w
Ġbon uses
Ġbail out
Ġsp ont
Ġt ended
su per
ogen ic
ĠACL U
ĠR u
ic ates
Ġprem ature
Ġd ent
y our
Ġnot ification
ult z
ĠM umbai
ĠC ris
s ite
ĠF ile
Ġ9 00
add afi
Ġexp ans
Ġloc ate
Ġconsist ing
ĠH R
c ourt
Ġacadem y
Ġhon ored
ĠCons ider
Ġst aggering
Ġrecip ients
D ay
yn asty
Ġconsum ing
Ġn ail
Ġsimilar ities
Ġc age
Ġappeal ed
Ġconcent rations
ĠSt rip
Ġ9 1
akes pe
Ġo st
on al
ĠSum mit
Ġcl ue
Ġclin ics
M D
og yn
ĠK an
ĠConfeder ate
Ġport able
l ength
ach t
ĠOper ations
Ġbrow s
l av
Ġsh aking
ĠP ew
Ġn ostal
ĠO pt
Ġfe ather
Ġem pir
it ous
Ġf reed
Ġseek ers
Over all
Ġsie ge
Ġrem inis
ĠC T
Ġbe es
Ġmark ing
Ġgenet ically
ĠE P
ĠColomb ia
ĠÂ °
K ey
ĠP etro
m ount
ĠVin cent
Ġp iano
Ġbi ased
Ġlad der
Ġb ru
Ġalumin um
Ġhapp ily
g ay
Ġpost p
Ġdeb ts
Ġwe ed
ich t
Ġdetect ive
Ġpredomin antly
Ġmulti pl
Ġremark ably
ĠK aren
Ġrif les
Ġbl ade
Ġutil ize
C le
Ġc it
Ġcon grat
Ġbehavior al
Ġadjust ment
Ġrecruit ment
Ġfrag ile
Ġprol ifer
Ġnic he
Ġst ub
!! !
E v
ĠW ing
ĠRe yn
Ġflo at
Ġadminist rator
P ac
ĠN GO
ĠKen ya
Ġinvestig ator
ĠGene va
Ġsynt hetic
Ġt ales
erv ative
Ġart illery
ell ed
s or
al one
gg ing
p ers
ĠBe er
Ġp ork
Ġpat ches
,' '
t ic
ĠPortug uese
Ġev olving
ĠBash ar
Ġair ports
pect ives
ĠY e
Ġinc ap
ĠHT TP
ask et
ĠUp on
t age
ĠP ic
el ed
it ially
ĠStat istics
ĠIndepend ence
Ġdep osit
Ġ196 6
ens en
Ġinterven e
ĠD elta
ĠK enn
Ġnurs es
sh ow
il ia
Ġmis er
Ġexplan ations
ĠWest minster
Ġshel ves
Ġdelight ed
ar se
le ased
im ity
ĠP red
ĠSat an
Ġconnect ivity
occ up
ĠV ide
Ġg ates
Ġfore most
uter te
Ġsepar at
n ia
M ac
Ġincons istent
orth y
Ġpar as
u art
Ġarch ive
Ġgang s
ĠHe y
Ġs oup
Ġpr iced
igg s
Ġthr ust
Ġend angered
B E
Ġinsist ing
ĠN ad
Ġp ond
M at
s pring
G L
ĠE A
Ġextensive ly
Ġsim ulation
Ġoptim al
Ġinv ention
con st
Ġassist ed
Ġfor wards
Ġpremium s
is se
il itation
Ġsl ammed
ke eping
Ġat omic
Ġjud ged
ĠS outheast
ere rs
g irl
Ġque en
Ġrest oration
ĠEn forcement
p ically
ĠH ig
Ġar rog
ĠS anchez
Ġo we
Ġincl usive
ch ant
ĠG ive
e i
ĠC os
Ġafore mentioned
Ġsp ying
Ġas leep
ĠFred er
Ġank le
Ġsm iling
Ġliv est
Ġfact ion
Ġr ider
ĠUn ity
ad itional
r ational
ĠS add
Ġro d
" ;
ĠCar roll
p os
Ġ8 9
ĠJ ama
Ġcoord inated
ĠNY C
Ġadvis or
Ġpl um
Ġcat alog
id ity
ĠWe ather
Ġsec urities
ĠSpr ings
s i
atch ing
Ġconsist ed
Ġmonop oly
ĠS old
Ġforg ot
ĠM ann
AT ION
Ġu b
at ics
ator ial
w ent
en ly
ĠNorth west
ĠMet hod
Ġsent encing
Ġhom icide
akespe are
Ġic ons
Ġpo ised
ĠLight ning
t ax
n els
ĠI R
Ġaccess ed
Ġillust rate
ĠChall enge
b ot
Ġcandid acy
Ġth rive
Ġun av
ĠGib son
Ġlight ly
Ġcook ies
Ġblog ger
ĠAdv anced
Ġr iots
âĢĿ :
Ġs acks
Ġmet rics
um ar
Ġch rom
mid t
c all
Ġcoinc idence
Ġcycl ists
Ġemer gence
F ree
ĠT ories
Ġfart her
F R
l ance
= âĢĿ
Ġrow s
Ġun related
Ġgot ta
Ġbo asts
ipe g
Ġbarg aining
Ġpract iced
Ġjail ed
is le
ĠH ousing
Ġ196 3
Ġreal izing
Ġimpro per
Ġst agn
ĠReds kins
Ġcl ips
Ġmet er
Ġupgr aded
Ġshout ed
or um
Ġprop osition
ib les
ĠY ellow
Ġcontem pl
ph is
Ġbre eding
ĠFin als
ĠG round
ĠK ane
el ines
Ġp oured
ĠGreat er
ĠW a
Ġ9 4
Ġhand ing
Ġh ipp
ĠLeon ard
ĠShan ghai
Ġv ic
Ġdown s
anth rop
Ġredu ctions
ĠSome one
In vest
Ġexp osing
Ġmasc ul
ĠSimp son
1 10
ow itz
ĠS id
Ġo k
um ed
Ġrep ository
ĠW A
Ġoptim ism
Ġcig arette
dri ving
Ġvast ly
ÃŃ a
Ġl i
ĠCom ic
Ġcomb ining
Ġorig inated
ĠL ower
ĠC ulture
ĠB Y
Ġreal ities
ĠC airo
Ġdep ressed
ĠVal ent
Ġresc ued
el ong
Ġyield s
Ġdiplom ats
Ġpersonal ities
acer b
Ġdefic its
lud ed
d imensional
Ġext inction
ĠÃ Ĺ
Ġhor r
Ġw itch
ch t
Ġper ipher
ĠTun is
Ġslow ing
ens ed
ĠDar win
ĠSteel ers
Ġbreat he
Ġ( Â£
ortun e
h at
Ġcooper ate
Ġinher ited
Ġk g
Ġmig rant
ĠM E
Ġmon itors
ĠTO DAY
Ġc ad
Ġint oler
Ġc ripp
Ġatmosp heric
B ill
Ġoverlook ed
ĠB ent
Ġchap ters
ns ic
ĠW ire
Ġunder grad
Ġblank et
Ġp unk
Ġche f
Ġord inance
Ġfif teen
Ġenfor ced
U P
ĠDel aware
Ġsynt ax
Ġcl iff
Ġener g
he arted
ĠO ften
Ġappl aud
an ed
C r
Ġlight weight
Ġtight ly
Ġrese t
Ġreward ed
ad ian
ĠA er
Ġs way
ĠW ang
Ġcul p
Ġquick er
ĠL LC
Ġje opard
Ġsymp athy
ĠHuff ington
Ġo ath
ĠMet ropolitan
Ġdiam eter
o ir
Ġp ul
ĠKas ich
ĠEv il
Ġwatch dog
ĠC P
Ġpo em
Ġbureau cr
Ġlad ies
ĠD ame
Ġweakness es
Ġno ble
Ġoff line
ĠBoy s
ĠWeek ly
Ġw ives
J an
F e
Ġhum ble
Ġun supported
em ale
Ġt ires
Ġfe ud
Ġrel iability
ĠNew castle
Ġcoord ination
ĠUp date
Ġsc roll
ibl ings
st ated
Ġpros pective
Ġass erted
ef e
Ġmater n
ĠAmb assador
Ġlobby ists
Ġy oga
ĠK ush
Ġqu ot
Ġse ize
ĠH ussein
er ness
Ġbelong ed
ĠRepresent ative
b illion
Ġinterf ere
Ġint e
Ġlow ered
ĠN okia
ĠNorwe gian
Ġpract ition
ĠN ine
ĠKurd s
Ġag grav
ĠPict ures
Ġpaint ings
Ġspe ar
ope z
ĠK iev
Ġins ufficient
Ty pe
Ġup ward
) (
ĠG A
Ġenjoy s
Ġprob ation
Ġprim aries
Ġaston ishing
Ġreflect ing
Ġc ivic
Ġsens ible
ĠArm strong
ot er
ĠB anks
ĠPy ongyang
ĠB ach
ĠHop kins
ĠC ell
Ġmon itored
ĠStud ent
Ġin ning
Ġcr ap
Ġimprison ment
ould er
and als
Ä ±
Ġr ans
Ġsl im
Ġsc am
Ġrespect s
cl osed
Ġun named
ĠCl int
Ġtest ify
ĠM oss
Ġang les
un al
oc y
s un
um my
ÑĢ Ð°
ĠU CLA
Ġsc iences
Ġve ctor
Ġdr agon
Ġvibr ant
se arch
Ġcirc ulation
Ġreb oot
Ġtour s
ĠWild life
Ġdetain ees
ĠVeter ans
Ġencrypt ed
L ong
Ġbook ed
Ġsl ogan
Ġuncom mon
Ġobtain ing
Ġscar ce
Ġunderstand able
l arg
Ġrelax ed
Ġcrus hed
dep th
ĠM add
per m
ĠM ath
Ġbo o
Ġoutrage ous
ĠDown load
Ġtrad ers
ĠD j
Ġconv entions
Ġtast es
clus ive
% ),
bro ok
Ġm i
augh s
ĠG or
ĠAL L
het ical
ĠS ter
Ġste ering
Ġg ases
ĠO wn
by e
p ical
ĠBre ak
re ctions
ment al
ir ation
Ġflo ors
ĠA K
Ġsh ook
Ġl ion
ĠRichard son
s ix
Ġst aged
ĠM end
Ġn ucle
Ġeff ic
Ġmerch and
ĠP ubl
Ġnurs ing
ĠEm peror
Ġp iss
road s
Ġnot or
Don nell
Ġde portation
Ġpri ests
h ouses
ĠR acing
ĠM ob
ĠB ills
Ġtro phy
a que
ĠPar ks
Ġpositive ly
Ġc ensus
Ġautom ation
Ġrecip ient
Ġcaut ious
Ġbank ers
Ġmention ing
ix els
Ġr ip
z el
ise xual
Ġdr astically
fl u
Ġspr int
Ġc otton
Ġsh ine
Ġc ared
ĠThanks giving
reg ular
ort on
Aust ral
Ġobs essed
is b
Ġcon form
Ġcommer ce
ey ed
Ġinadequ ate
â ĪĴ
Ġcr ashes
ĠV M
ĠD im
f illed
names e
Ġque ue
Ġtw itter
Ġen compass
als h
Ġorgan isms
IT Y
Ġinaug uration
ĠJ av
l on
Ġstate wide
ec d
ĠP in
Ġpast or
ĠX L
V R
Ġb ent
H igh
Ġgen ome
Ġnav ig
ĠL ion
ll ah
ĠW elsh
Ġcol ored
D oes
Ġcar b
Ġnever theless
sh it
Ġecho ed
ophob ic
Ġbr on
Ġex acerb
P ublic
Ġdemonst rating
Ġsupp liers
Ġh obby
ĠK urt
Ġconj unction
Ġadm ire
cons cious
Ġpop ulated
ĠH ence
Ġclass ification
Ġt ense
he art
Ġwe ars
ĠO m
Ġstand point
play ed
ore st
Ġopt ical
Ġfin est
C AR
Ġbound ary
in v
an ies
ĠAct iv
Ġe ld
Ġaccompany ing
ain er
ĠEm ir
ĠLeaf s
Ġint uitive
ik er
s ay
Ġassault s
I ran
Ġliqu or
ĠUn less
Ġemp athy
E U
def ense
Ġu m
ĠP orter
Ġbuy er
Ġawa iting
Ġan them
ĠF o
M o
Ġlic ence
ĠMun ich
ĠT u
Ġprox imity
ĠAbd ul
g rown
w ait
Ġdatab ases
Ġ ì
ĠCo in
Ġcapt uring
Ġlo oph
cient ists
Ġne arest
Ġdys function
ator ies
Ġsec recy
Ġplaint iffs
In ter
ĠI Q
ĠH az
ĠA br
Ġfl uct
Ġdark er
Ġadd itions
Ġwond ers
ĠD olphins
Ġcontest ed
Ġcon gest
ĠJ ays
Ġfl own
que z
Ġu mb
ĠD ri
Ġcraft ed
ĠBudd hist
T w
ik o
ĠS nyder
le um
er m
Ġhur ting
Ġb ounce
Ġborrow ing
Ġrele g
ĠGand hi
Ġwho lly
Ġoverwhel med
Ġwrit ings
sex ual
i Ã³n
ĠK end
Ġinsect s
Ġg ren
Ġrepe ating
ĠCh an
ann ers
ĠM ig
Ġinjust ice
le en
Ġcor rection
ĠCan cer
Ġadm itting
mer cial
ĠSom alia
ĠL ic
Ġred es
Ġde ar
ĠAgricult ure
ĠPro s
Ġbot hered
ĠV oice
ĠTrav is
Ġlog s
ĠN ord
Ġactiv ation
Ġshall ow
an as
ĠAustral ians
Ġretail er
iat ric
ĠM I
Ġvari ants
Ġsurf aces
Ġsub urb
Ġwork out
Ġpopul ist
t alk
ĠS au
Ġcompl iment
c amp
ĠFl a
ĠApp eals
ĠDise ase
Ġexha usted
E r
ob a
Ġinher it
Ġpartic le
Ġfil ters
ĠHe brew
Ġpit chers
Ġmain land
Ġnew com
l anguage
Ġ ^
ĠK i
ĠPre vention
ĠMatthew s
itz er
Ġcomb o
Ġdescript ions
ĠCD C
Ġc ites
ĠC M
e ous
ĠD ate
Ġc ater
Ġcomed ian
st ation
Ġen rolled
uff le
ĠV ent
Ġtrans mit
Ġg rief
Ġerupt ed
ĠCh apter
ĠT ouch
um per
r ays
ĠPD F
ĠDod gers
Ġens ures
ĠG ingrich
Ġtatt oo
Ġhilar ious
he y
ar u
Ġd ip
b ach
Ġinsure rs
ĠN RA
Ġillust rated
Ġcl ues
ourge ois
id i
ĠH ass
Ġgra pp
ĠSh akespeare
im ination
rit ical
Ġhome owners
Ġsurf aced
ot ics
IV E
ew s
od ied
Ã¶ r
Ġimprison ed
Ġsun light
ĠM ills
Ġserv ants
the ning
ĠId aho
Ġfig uring
Ġt a
Ġwell s
ĠR ut
ĠM aking
ĠM asters
ĠC amb
Ġun equ
Ġpromot es
ĠC and
Ġgu ides
ra vel
ĠRe ally
Ġfor ty
Ġrece ipt
Ġbat ting
Ġhighlight ing
Ġdeal er
âĶĢ âĶĢ
p x
Ġperform s
q a
chn ology
it ime
ĠMont gomery
Ġunder cover
Ġdebut ed
ĠS L
s ic
ĠIM F
Ġbas ics
Ġcont ention
Ġpass words
ĠTr aining
ber ger
ys ical
ĠStr ong
Ġtr ails
Ġapp le
ĠO P
Ġunder water
g ow
Ġw oke
V M
Ġpus hes
Ġpick up
Ġassum es
" ).
ĠGu ant
n ar
Ġrebell ion
Ġup rising
Ġabund ance
Ġs iblings
Ġdist ances
g one
e ur
Ġwar ns
lic ation
Ġmetab ol
Ġtri vial
Ġlit eral
. :
ĠV a
Ġwel coming
ĠMe g
Ġterrit orial
Ġstrateg ist
Ġd ude
ĠHold er
Ġhack er
ĠD erek
Ġsen iors
ĠFerr ari
ĠCur ry
ball s
ĠM ap
Ġo ceans
ĠSch ne
Ġcat aly
Ġprov oc
Ġadv ise
Ġconcent rate
ĠB R
Micro soft
Christ ian
B uy
Ġbl u
Ġprot agonist
c iously
ĠEll is
Ġobs ession
ĠGl as
ĠFal cons
p ict
ach i
Ġlot tery
Ġcou ch
" ),
ĠM ol
b us
ĠCo ff
Ġver b
intend ent
Ġgr ades
200 9
id y
ĠS QL
ĠS eth
iet h
ĠC ash
ĠH im
le vard
Ġprob able
ĠA FL
sc ript
Ġrev is
eng ine
Ġfair ness
Ġdisapp ro
Ġconf isc
Ġstory telling
l ings
ad ata
Ġmor ph
G old
Ġmet ro
osa urs
Ġan ecd
l ocal
ĠN aval
Ġmed ications
Ġpartners hips
Ġnational ism
Ġfiref ighters
d est
Ġimpl ied
Ġcomb inations
Ġmin ors
Ġto pp
Ġjew el
Ġ12 5
et ooth
Ġc oding
Ġspin ning
Ġupload ed
TH E
Ġproceed ed
b ucks
Ġobject ions
ĠA G
ĠInd igenous
ÂĢ Â
ĠCoun ter
ĠU l
âĢĿ ),
Ġaffect ion
in ers
Ġware house
rop he
Ġstere otypes
ĠIndust ry
ĠTele vision
Ġcompe lled
L D
Ġform ats
Ġout line
il ogy
S ure
Ġpropri etary
Ġprop osing
ĠWinn ipeg
ov an
Ġen rich
ĠBr ight
Ġsubject ive
ĠI de
Ġten ants
ug ar
Ġhelicop ters
i ott
ĠP engu
ĠViet namese
O G
Ġan ten
ĠNo ah
ĠW ings
Ġind ul
Ġsoph omore
ale z
Ġad ul
Ġapolog ized
ĠP ierre
ĠHend erson
author ized
Ġim aging
ile m
Ġm g
inent al
ĠT rip
Ġman ga
ĠLib yan
sh oot
ĠArab s
od a
ĠK o
Ġdat as
Ġb og
ĠE aster
ĠA IDS
ĠSach s
ĠT ak
Ġanalyt ics
Ġo wed
ĠF alls
Ġathe ist
ĠFl int
ĠPro per
Ġparticip ant
Ġg ru
ĠStr ateg
f inal
Ġpedest rian
commun ications
Ġdef er
Ġsymp athetic
Ġpa ired
ĠK ap
Ġmicro sc
D ec
Ġprest igious
---------------- ----------------
ĠNichol as
Ġtort ured
Ġther mal
G reat
Ġgorge ous
ĠG az
ĠSch umer
Ġeval uated
ĠQ ur
Ġdes irable
.' '
eter min
Re illy
Sh ort
f air
Ġprosecut ed
ĠCry stal
yn c
Ġpur ported
âĢĿ ?
Ġreck less
g on
Ġhom eland
Ġtraject ory
ĠD ow
Ġsus cept
Ġout reach
Ġha w
Ġun ified
Ġp ills
Ġm asters
Ġprocess ors
Ġinform al
ĠPict ure
Ġinter ventions
Ġacceler ate
Ġe ternal
Ġj aw
Ġemphas ize
ĠB eth
Ġhar ness
ĠLouis ville
Ġwh ales
ĠS gt
af ort
Ġadvoc ating
Ġide als
ĠBel ow
Ġsuccess es
Ġincomp et
ins ki
ĠJ in
ĠU ser
Ġmaneu ver
Ġintern ally
Ġprivile ged
L ab
os c
Ġpl ural
S am
ĠSal v
Ġshot gun
ĠT on
Ġdiscover ing
Ġ196 2
Ġvulner abilities
Ġsens ation
step s
Ġf itted
t it
Ġweek ends
connect ed
U K
Ġrom ance
Ġzomb ie
ĠFor bes
uss ions
ĠAl z
Ġat roc
o qu
oc used
ĠF uk
Ġself ish
ĠDep ression
are a
ĠA j
ĠSur face
Ġfeed s
Ġsad ly
ĠM ut
Ġen light
Ġan nex
ĠR ule
Ġprotocol s
ĠMem phis
Ġass ure
Ġl enses
ĠY am
Ġflood ed
Ġcommand ers
ĠSim ply
Ġout field
Ġcons oles
ĠR alph
ĠK enny
ĠE t
Ġcompet itions
Ðµ Ð½
ĠK il
V ID
p res
Ġliber ation
Ġconced ed
M et
Ġphenomen a
h aw
Ġmis dem
rell a
Ġdelic ate
Ġcho oses
B o
Ġairpl ane
ĠLe ave
l it
Ð¾Ð ²
Ġcomment ators
Ġstret ched
ĠArn old
ig ion
Ġcan on
sh adow
ane y
Ġcas ino
Ġexplos ives
it ial
Ġconf ined
Ġdistingu ished
ĠPr ide
ĠNe uro
osh i
Ġcompr ised
Ġcur iosity
H C
ĠRand y
ï ¼
ĠLGBT Q
Any one
ĠJ up
Ġimm un
os ion
Ġdis abilities
1 30
Ġdeb ated
Ġfemin ists
M M
Ġa kin
k ov
Ġdri ed
Ġcolor ful
ourn als
St ring
Ġren owned
Ġunlaw ful
ĠTer min
b as
Ġmole cular
! ).
ĠUS C
Ġadminist ered
Ġsh irts
bu ilt
st rom
S et
int egr
AL L
ĠL av
ĠEmer gency
ĠS ett
Ġhint s
OS E
Ġcol ours
Res earchers
ep rint
Ġd ice
ĠC ort
Ġpl ots
Ġdest inations
ĠG oth
Ġla wn
Ġconnect s
ĠPat rol
Ġvend or
ĠG N
asc ular
Ġhur ricane
Ġmor ally
ri ad
Ġgreet ed
ĠAt hens
Ġval ley
Ġkind a
ĠM UST
e ks
Ġconstit utes
Ġub iqu
Ġav iation
Ġg ently
Ù Ĭ
az or
Ġnick name
ĠR A
om on
Ġver ified
respons ible
Ġsoul s
ĠPel osi
Ġsum s
Ġm es
gg y
Ġsk ate
Ġsn ake
s an
ĠP ul
Ġvar ieties
x on
ĠPhot os
ĠIsa ac
Ġgri ev
In tern
Ġgau ge
Ġexem pl
ĠAd rian
Ġbe am
Al ong
Ġno on
Ġhur ts
ith ub
ĠB omb
Sc ott
m and
ĠT PP
Ġout law
Th us
ract ed
Ġcry st
Ġp ets
ĠC ensus
N one
l iv
ĠNic ol
Ġprohib it
Ġco vert
Ġall ocated
iet al
Ġmeth ane
Ġback ward
ĠG ot
Ġparad ox
ĠT ottenham
ĠSchool s
Ġselect ing
ĠF ortunately
f ood
Ġtime ly
ĠEag le
st airs
Ġd uck
Ġhorizont al
ĠE sp
Ġmis ogyn
Ġcr ises
Ġweigh ing
Ġprem ises
Ġincom plete
ĠW izards
Ġbl aming
Ġ194 8
m ph
Ġmer ger
viol ent
Ġcorrid or
Ġfuel ed
Ġcast le
ic able
Ġcont ests
oint ed
at us
Ġrecru its
ĠM our
Ġcul min
Ġenthusi asts
Ġrecogn izing
Ġperce ive
c ock
ĠGener ation
ie ce
Ġperform ers
ĠD I
Ġextrem ism
Ġunpredict able
ash a
E X
ĠJen kins
ĠBrew ing
ard i
Ġpr ag
ĠH off
on ut
Ġw olf
Ġst ew
ĠAct ually
M er
Ġd oses
ĠJ unior
Ġadop ting
ĠF ight
ad os
ĠCase y
Ġbrows ers
Ġinaug ural
Ġburg l
Ġb ang
ĠBudd h
Ġprompt ly
Ġthought ful
ĠMet al
Ġover view
Ġnotice able
Ġuniform s
Ġment or
ĠSe b
ĠCreat ive
Ġt ags
Ke ep
ĠTri ple
Ġhum ili
ĠTreat y
Ġcorner back
Ġper secution
Ġpar a
Ġteach ings
Ġstruct ured
ind ust
Ġstab bed
Ġmil estone
ĠInt egr
Ġemb ry
ĠD ale
ĠR ust
if a
J eff
ĠTit ans
de ep
ĠQu ick
Ġh ills
Ġman a
Ġafter ward
Ġded ication
ne ys
-- -
hed ral
Ġchampionship s
Ġso y
ĠMon ster
d ist
ru it
Ind ia
Ġbarg ain
Ġeleph ant
p olitical
Ġsystem ic
ĠS ie
oy le
Ġcompl ications
Ġl ining
Ġ196 1
Ġmot ive
ĠPear l
Ġric hest
M or
Ġmach inery
ĠW or
Sand ers
F eed
ĠMar ines
Ġmax im
he ster
ĠBar nes
Ġext ensions
ĠP or
Ġpsychiat ric
V C
Ġsand wich
Ġst airs
Ġeleg ant
ine a
Ġunw anted
ĠPere z
Ġun just
Ġmax imize
ustain able
Ġex cerpt
Ġdetail ing
ant om
O kay
ĠProp het
ĠD rop
ĠSil va
Ġright ly
Ġlo vers
Ġwh ale
ĠFO X
osp here
ĠStep han
ĠEr n
Ġbrut ality
Ġbar red
Wh atever
Ġnomine es
ĠWord Press
ĠWh ats
Ġcool er
other apy
Ġlog ging
rig er
Ġse as
ĠA ur
Ġtrans mitted
ĠAb du
sec ret
Ġball oon
Ġtoler ate
Ġsl am
Ġingred ient
Ġvar ies
Ġcro re
Ġrep ay
Ġsl ides
Ġincon ven
Ġenjoy able
Ġfr acking
Ġwrong doing
ĠS ask
ens itive
ĠW rest
ĠEth iop
Ù Ĩ
in ian
am iliar
ĠCro at
ĠNov a
Ġappropri ately
ĠC ool
Ġb ourgeois
ĠPolit ico
Ù İ
G en
il ight
ob ody
F ar
ro e
ĠSw an
Ġcontro llers
is co
Ġsuff ers
ount y
Ġneighbour s
ĠCole man
Ġsyn chron
Ġs ore
ĠBur ke
Ġel imination
Ġarm ies
T im
ĠN early
Ġl ament
aun ting
3 50
ĠBe aut
Ġunsuccess ful
ĠB ark
ĠC raw
ĠAp ollo
G C
Ġl od
ant on
Ġspecific s
Ġinflu x
Ġcritic ize
Ġpool s
an cer
Ġl end
Ġvis ibility
pe ace
Ġapp arat
Ġs atur
ir us
C urrently
Ġ q
ĠD ylan
Ġexceed ed
B erry
Ġc ups
Ġg em
al iation
ĠEll iott
ĠGab riel
K ing
ĠInd y
Ġro pe
cl ock
ĠC ob
Ġbuck et
Ġg ad
Ġyell ing
Ġdev il
Ġl amb
is i
Ġj ar
Ġbig ot
ĠCh ampion
ĠC rew
Ġvac ant
op hers
Ġfin ed
Ġbroadcast ing
Ġactiv ate
Ġsing ular
Ġignor ant
Ġl ur
a ic
Ġobst acle
ĠDub ai
T ER
With in
Ġsam pling
ĠBa iley
Ġambul ance
f ig
ĠAs k
Ġqu eries
Ġphr ases
er ie
Ġdis respect
Ġpay load
c reat
d eb
________ ________
Ġprejud ice
Ġun m
Ġf lick
Ġp ave
Ġmer its
ĠT win
Ġhost age
Ġ0 1
ĠUlt imate
ren ched
ĠC I
Ġfool ish
ĠBer g
ĠH S
sh ine
Ġmethod ology
Ġmos qu
Ġexclus ion
Ġcal culation
Ġsw orn
ĠBab y
ar ak
act iv
Ġrel ates
Ġre per
N ational
ĠB in
Ġworks hop
ĠL arge
Ġbless ing
Ġprogram mes
F ive
Every thing
Ġgener ator
gu ided
O ct
ĠEff ect
Ġmagn et
ĠReg ion
n is
Ġcon ceived
Ġball istic
ĠDra ke
W ind
ĠM ade
ĠPro cess
ch at
P ort
Ġacknowled ges
Ġpresc ribed
Ġcr ush
Ġr h
Ġrefere e
ĠA CC
ĠIndust rial
Ġacqu iring
Ġb od
Ġex otic
qu ire
Ġbed s
W omen
Tex as
ĠPriv ate
Ġinst itute
ĠP ret
ĠTh rones
amp ire
ĠF ew
Ġk its
Ġfact o
Ġparad igm
ou x
Ġgrad uation
Ġcomb ines
Ġrecogn izes
Ġal pha
Ġappet ite
Ġvit amin
Ġproject ion
Ġcondition ing
Ġcomp ile
Ġtra it
ĠN FC
Ġdet r
Ġm a
Ġreact ed
" [
ĠMc N
Ġfreedom s
Ġcolon ies
Ġinaccur ate
Che ck
AC K
Ġaccommod ation
Ġax is
us p
Ġkn ocking
work ers
uff s
ĠÃ ®
Ġstory line
ĠHe ights
li ber
ĠB rett
Ġpip es
am on
c m
ĠEm ily
ĠD uterte
Ġsing les
ĠRe x
Ġbenef ited
Ġexc av
ĠSt uart
ĠThe resa
Ġpreval ent
Ġv ivid
ig el
ĠWin ston
ĠL ate
ĠH ook
aw i
Ġdown ward
Ġmar ched
do ors
Ġmin us
Ġsex y
ĠShe ll
ĠL um
ĠAven gers
at ivity
H ist
Ġam ended
ĠT ol
ĠY u
Ġmar athon
Ġconsider ations
Ġembarrass ed
ĠBapt ist
ĠN ut
Ġwas hed
Ġoccup y
J on
ĠV illa
ĠGr ace
Ġimpro ves
Ġcle arer
ĠTill erson
Ġband width
ĠC opyright
Ġshut tle
Ġdefin itions
ĠKash mir
ĠS ale
Ġhead set
m ajor
ion age
IT H
che m
Ġdis asters
Ġaccept s
Ã ª
ĠB our
ie ves
ĠB uc
I ts
ĠRoberts on
h all
Ġimp ly
elect ed
ĠN uclear
Ġdefe ating
Ġpen is
ĠT ree
Ġtw ent
Ġsol ic
iz oph
Ġsymp ath
O H
ĠL oc
id av
Ġinput s
Ġint ro
Ġter rific
W H
Ġentire ty
Ġadvoc ated
w ald
g rowing
ĠCharg ers
Â ·
Ġdil ig
ĠP ub
A K
at ism
ĠSt range
ĠEconom ics
Ð ·
D I
col or
ine ment
Ġchar itable
ĠKle in
Ġp ard
ic ans
Ġskept icism
Ġfilm maker
ig o
ĠW ere
Ġc ite
Ġgovern ors
it ational
ic ian
ic ularly
et z
ĠMor oc
Ġtw isted
ĠG ran
ĠBas ically
Ġgl oves
Ġhost ility
nder ing
ĠRe act
Ġexem ption
Ġartif acts
Ġtr action
Ġer ad
Ġround ed
ĠH od
ãģ ®
ĠTrans it
ĠW ag
aze era
Ġprivile ges
pro cess
Ġsett lers
fam ily
G ame
Ġwar rants
ĠO mar
ĠP HP
red ited
Ġhasht ag
Ġvol can
E s
ĠVide os
izoph ren
Ġb ore
Republic an
R eal
V er
ĠE ug
ins ky
Ġprolong ed
igg ins
Ġhe ck
Ġpaper work
ĠÐ ¾
Ġreb uilding
F ire
ĠEd in
Ġw ary
ch anging
ĠL opez
ĠS r
ri ents
Ġhous ed
Ġgoal keeper
spe aking
Ġmot ives
ess ors
ut ic
Ġh over
p olit
Ġlisten ers
Ġfur ious
Ġend ured
ĠPr ison
Ġsur g
ĠPC s
Ġthe sis
h it
ĠFil ip
ĠAlz heimer
Ġunf amiliar
ĠMar ie
ĠW alsh
Ġbe e
Ġgr ind
Ġsm ok
ĠJ os
Europe an
Ġco h
Ġpers pectives
t i
Ġvol atile
Ġtravel ers
Ġt apped
ib al
iff e
Ġfin ishes
ĠHar bor
Ġinterrupt ed
Ġhold er
Ġsyn c
Ġprost itution
Ġexped ition
Ġst ems
ink le
ĠU g
Ġdesp air
Ġper v
ĠReg ister
l arge
ĠGl en
Ġsanct uary
Ġprogram mers
spons ored
ĠLe aders
ĠBr ain
Ġhealth ier
ad vert
Ġs idelines
Ġbureaucr acy
ĠP ract
Ġr ust
ĠCon n
ĠCy ber
ĠÂ ©
ĠT ab
D et
Ġcr ust
ĠJosh ua
Ġintention al
Î ¿
ĠKn ights
Ġden ounced
v id
Ġst yl
Ġcert ification
Ġdiam ond
ĠG aming
ĠMcC l
Ġresist ant
g em
m ake
ĠLl oyd
Ġphilos opher
Ġp ixel
ĠAsh ley
Ġseason al
he ed
Ġcap ita
ĠK ids
ĠJup iter
ĠSU V
ĠCan n
Ġsens es
Ġst ip
he res
d in
ut ton
ĠHel p
Ġpred ators
ĠSpr int
ĠM is
Ġlower ing
RE E
Ġcriticism s
Ġbro ker
ĠD ust
Ġrespond s
ĠWe instein
Ġsub po
Ġheav ier
ang led
r ab
Ġconcess ions
Ġt urt
Ġunst able
Ġtun nels
ĠS ave
ĠTrans port
ĠR idge
Ġdisplay ing
op ath
Ġrig orous
Ġend uring
ĠChampionship s
J im
O O
c oun
Ġun b
Ġoff ences
Ġsm arter
Ġdiscuss es
ump s
ric anes
ĠI CE
Ġgun man
Ġthere after
Ġrec laim
Ġwip ed
Ġred irect
Ġl over
Ġsh aping
Ġident ifies
ĠF L
Ġsl og
OR K
Ġbeaut ifully
at in
ĠVis ual
Ø§ ÙĦ
ĠD oc
Ġanaly zing
Ġver se
M ad
Ġcritic izing
p ark
ĠP and
Ġwar rior
Ġstun ned
Ġback drop
Ġatt ain
ĠL anc
ĠSer b
ĠS pl
rat ives
ĠÐ ¸
sh irts
ĠAg ent
pt ive
IM E
Ġund is
Ã ¸
Ġcoun cill
Ġinv iting
Ġinfer ior
ĠProgress ive
Ġrequest ing
ĠS K
Ġint ric
e pt
Ġcommun icating
J S
Ġrev ision
ĠIS BN
Ġpsych ologist
Ġreg imes
c ig
200 8
ĠJ agu
ĠM ets
Ġcon qu
ĠA A
Ġan at
Ġtake over
ĠG ang
Ġagree ing
ĠKn icks
im ag
Ġc el
ĠNS W
ĠM oto
ent ry
Ġv est
year s
B rown
m ax
ĠN am
Ġrec ons
Ġcoordin ate
Ġunder going
Ġde er
ĠMov ie
f ax
Ġar che
Ġsubsid iary
Ġf ren
Ġcl oth
ĠSadd am
em ail
ĠMan afort
Ġbl essed
Ġattract ing
Ġter ribly
Ġdisp ers
en es
Pl us
Ġalt itude
Ġd y
Add itionally
ĠGet ting
Ġborrow ed
l r
Rec ently
ĠFrank en
Int erest
Ġfat igue
Ġsimpl icity
ĠTurn bull
Ġste alth
ĠL ogan
ĠN y
Ġgr ams
r ights
ĠH ack
Ġabsor bed
ĠVictor ian
Ġaggreg ate
Ġpal m
Ġsl ots
Ġsoc io
ĠT iger
im er
Ġcell ular
Off icials
Ġsne ak
am ount
Ġun real
Ġunus ually
ĠP T
le aning
ri um
Ġcorrect ed
r ina
Ġme ga
es ar
Republic ans
Ġst ellar
ĠS B
Ġpun ct
ĠBro ck
Ġd ilem
ins pired
Ġnational s
A FP
Ġreg ain
Ġaff idav
ĠPro bably
Ġspecial ists
stan bul
Ġwar mer
Ġthr one
M att
Ġtr aces
xt on
Ġfright ening
Ġimper ative
Ġret aliation
ĠAlf red
Ġsquee ze
Ġdet on
Ġenter prises
Ġvis as
Ġcrack ed
ĠK ell
Ġuns afe
if le
Ġcy l
p ose
Ġn ortheast
ĠSN P
ĠHait i
p ad
isp here
Ġbund le
ish ops
Ġrestrict ion
Ġbroadc aster
Ġengine ered
re ra
Ġtour ing
Ġg odd
Ġcell phone
Ġhy ster
Ġcont end
al ion
Ġstr ains
Ġchar ities
Ġshe lls
Ġtack ling
Ġtro op
Ġbom ber
IN E
Ġpot atoes
Ġar row
Ġ20 30
Ġanticip ate
Ġp ap
ĠPers ian
Ġintrodu ces
Ġsuper b
Ġfav ors
it ives
Ġins ider
Ġforb idden
Ġv intage
Ġcooper ative
ĠSwit ch
Ġdiplom acy
Ġinnov ations
ĠGreg ory
Ġs i
ĠB io
ĠT roy
ott esville
ĠM ak
display style
Ġproud ly
ĠM az
im en
Ġton nes
Ġpr inter
d id
Ġapparat us
nd ra
achel or
tt a
ĠLe Bron
Ġillust rates
ĠInn ov
ar ious
ĠAust rian
Ġcontract ed
Ġb isexual
Ġj ournals
Ġrespons ive
Ġ" [
ĠE arl
Ġrad ically
ĠSy n
Ġcontent ious
ĠV el
Ġloc ks
Ġhand c
Ġoff ended
Ġreferen ced
ĠReyn olds
ĠFal con
Ġdict ator
ĠBou levard
Ġclean er
Ġposition ing
B ro
Ġback yard
Ġd od
Ġpredict ing
ĠSpace X
ĠW end
ĠD ad
00 1
ĠU FO
ĠR abb
man y
Ġsuper visor
Ġh ref
Ġundert aken
Ġrecomm ends
Ġfree zing
ĠSe oul
ipp le
ched el
it as
Ġstar red
ĠEp isode
Ġantibiot ics
b ial
Ġman kind
hol m
fund ing
omed ay
re v
Ġb acon
st ud
l ived
ĠH alo
ĠG R
gu ards
Ġreiter ated
Ġche ating
as a
Ġhard core
Ġmir acle
Ġstret ches
Ġpos ing
ry s
Ġst unt
Ġbal ancing
ĠJ eb
Ġl av
ĠF u
Ġo ct
b ps
Ġannounce ments
Ġconfir ming
ans on
Ġinterrog ation
12 5
ĠW ait
Ġdef ect
in ational
Ġt il
ĠUlt imately
Ġv in
Ġdis se
ĠArch itect
Ġgl uc
Ġvolunt arily
ĠAtt ack
Ġexp on
Ġque er
Ġcha otic
Ġend ure
ĠMill enn
Ġnum er
Ġlength s
un ci
b uster
Ġa rose
Cl ass
Ġbr acket
Ġl aps
Ġf usion
an ity
Ġcap ac
ĠEv an
Ġupd ating
ag le
ĠFre eman
sequ ently
Ġref ined
Ġcirc ular
re a
ish a
Ġenroll ment
ĠC F
Ġcompens ate
ĠSC P
ĠPartners hip
Ġar senal
ĠL ux
Ġrival ry
Ġstretch ing
Ġemail ed
Ġrelent less
R yan
ĠAd vis
Ġobject ion
ĠRe ading
Ġdece ased
ĠEm ma
S ource
ex cept
Ġid iot
ĠP oke
Ġvis ually
ov ak
Ġtyp ing
Ġcourt room
with out
Ġat oms
ĠK id
Ġmerchand ise
c ot
ĠL ag
Ġby tes
ĠId ent
c ur
Ġdeleg ate
Ġinst ability
Not hing
il ers
Ġbrand ed
m itt
Ġwor s
ot ine
Ġastronaut s
Ch ar
Rober t
Ġg le
Ġre ef
% ).
Ġterr ified
Ġf ist
Ġty r
ĠH E
ĠFa ith
Ġz oom
ind uced
ĠSpe aking
ĠMon th
Ġce ment
Ġreminis cent
Ġdub ious
' )
Ġwa ist
Ġf ost
Ġt ant
c ond
Ġout spoken
Ġmer cy
Ġshut ting
ĠLim ited
ĠB rent
Ġjust ices
ĠH appy
Ġgall ons
ĠI L
More over
ĠC aval
ĠSp icer
mod ern
ci pl
Ġur gency
Ġaccess ories
ar us
Ġn avy
Ġaut op
mo il
Ġreact ors
ĠÂ «
Ġpe cul
ĠSat urn
larg est
OR T
ĠNY PD
ĠB uch
Ġbet ting
Ġalleg ing
ol ith
ĠBlu etooth
ĠJud iciary
ĠDO J
ian i
Ġfor fe
Ġa in
ĠK on
in qu
on ial
Ġexclud e
Ġdump ed
Ġup held
Ġd iving
Ġunch anged
ĠD ana
atern ity
Ġru ined
ph abet
Ġb aking
Ġinfring ement
Ġdetect ives
Ġown ing
ri z
âĢĿ ;
Ġsh ade
ĠHe aven
cy cl
Ġdevelop s
ĠGlas gow
ract ion
ĠHer oes
ĠPen insula
ĠCelt ics
udd enly
Ġtheir s
Ġwithd rew
Ġrob otic
Ġreg ener
Ġpreval ence
ul ed
Ġrig id
ph p
Ġdevast ated
Ġ194 4
ĠStar bucks
Ġb ilateral
Ġmet als
Ġup s
ĠGT X
âĸĪ âĸĪ
ĠThe ory
Ġwh it
b ird
ĠRom ania
Ġaut umn
Ġsubmar ine
Ġde port
Ġrev ival
c lick
ĠMor rison
Ġacc use
Ġdem ise
ĠE M
Ġmin eral
] )
Ġdistract ion
Ġstatist ically
Ġcr unch
ĠL amb
ĠL ith
Ġcontam ination
Ġsustain ability
ĠReg ardless
ĠCol lection
ag ne
Ġsp am
Ġnegative ly
Ġmir rors
Ġacceler ated
squ are
Ġl ag
Ġe Bay
Ġalleg ation
ela ide
Ġsm iled
Ġrep airs
ĠIS IL
Ġs perm
Ġobser ving
iv ia
ĠD h
] ;
part isan
ĠMurd och
keep ers
ĠKush ner
ocaly pse
ĠEver ton
Ġso ap
Ġcongress man
Ġj ungle
Ġr im
Ġec ological
ĠNot re
Ġt outed
Ġref riger
Ġvis itor
Ġcontam inated
ĠCirc le
Ġanticip ation
Ġshel ters
Ġcrypt o
Ġpen al
ĠGonz alez
ĠM t
R et
ĠR ugby
Ġside walk
Ġassess ments
Sp ace
Ġfest ivals
Ġc ows
Ġradio active
Ġinspect or
Ġmy riad
G R
Ġa ven
act ed
Ġillust ration
ĠSher man
Ġrese mble
o ids
P ass
Ġill icit
ĠTh om
um mer
yl on
ĠB ever
ourn ament
ĠEdin burgh
s ided
Ġout dated
est ine
Ġs ights
b usiness
ĠFif th
Ġpres erving
Ġth a
it an
Ġtr aced
inf o
Ġmodel ing
ĠRoll ing
ĠElect ronic
Ġbe ard
v ity
Ġfore front
amm ad
ĠC inem
Ġlau nd
ĠHaw ks
ĠR hod
Ġst al
Ġacknowled ging
Ġembr acing
d esc
ĠIn g
! âĢĻ
Ġrepl icate
ĠCent ers
Ġro de
th ouse
ĠSch midt
Ġde af
ĠLear n
Ġcar pet
Ġn urt
p df
Ġclear ance
ĠInc re
Ġpour ing
S erv
Ġcompet ent
Ġswit ches
Ġmilit ias
ĠR ift
k ara
Ġposs essed
ĠPrinc eton
ĠT i
ĠH A
ĠPan ama
N on
,âĢĻ âĢĿ
ĠAn onymous
Ġren amed
1 000
ĠR BI
S QL
Ġre he
h ops
f ired
Ġpig s
Ġappoint ments
Ġshr ink
place ment
Ġbron ze
ĠEc u
o an
ĠÎ ¼
Ġiron ic
ĠGu ild
ax ies
Ġtoss ed
ixt y
Through out
Ġindic ators
Ġins ulin
ĠAbdu llah
Ġb end
ĠM ode
Ġunbeliev able
ast ian
Ġtransl ates
ev al
f light
ĠH ood
Ġvir uses
Ġle aking
Ġmicro phone
Ġje ans
Ġprosec ute
Ġple as
ĠW ant
Ġreward ing
Ġcore s
Ġmat rix
Ġspir al
ort ium
ĠF ace
Ġr apper
ee red
or p
Ġinterf aces
af ia
ĠR ot
Ġele ven
Ġineff ective
c ision
C ome
ple asant
Ġconcept ion
o at
Ġmult ip
Ġprogram mer
ĠJul ia
Ġgr an
ĠSim mons
Ġdetermin es
Ġviol ates
ĠMa o
uk a
w ere
and ing
bal ance
c ourse
Ġbol ster
Ġa u
Ġopio id
ĠO ri
ĠEvery body
Ġhapp ier
Ġc ried
Ġto e
Ġdo omed
y ers
Ġposs essions
Ġshort s
Ġmerch ants
Ġmet adata
Ġext rad
Ġsn apped
Ġn odd
Ġall ied
ĠAng els
Ġnarrow ly
In st
anc ers
Ġsex ist
ters on
Ġport al
ĠEmb assy
ĠCore y
ĠE isen
Ġlog ged
re view
verse ly
Ġairst rikes
sh ould
A round
A ug
ĠBurn s
m ass
ut ral
ĠDay ton
Ġnar ratives
Ġfeas ible
ĠG raph
G I
f ix
Ġcost ing
Ġjud ging
Ġdepend ence
ĠPri x
Ġpres ervation
Ġt ally
Ġkidn apped
Ġep it
Al most
Ġtur moil
Ġcort ex
Ġw ipe
Ġdecentral ized
ĠVirt ual
ĠX ia
or ie
ou g
Ġobser ver
Ġnegoti ation
Ġvoc als
ĠSask at
Ġb ast
T T
ĠP aper
Ġpo orest
n ings
duct ed
Å ¾
Ġp ensions
itness es
ĠContin ue
Ġp ixels
Ġauthent ication
rest rial
ress es
oph y
ah ar
Ġs om
Ġp ine
ĠS ak
S ign
Mc C
ĠSu z
ĠA be
i u
Ġcosm ic
Ġr uth
ĠJ ill
Ġcapt ures
Ġforecast s
Ġconf ron
Ġph ases
ĠScient ists
ĠD ownt
ĠH ab
Ġstreng thening
Ġnot ices
Ġnot ifications
ĠU pper
iv able
Ġdisadvant age
ĠI stanbul
ĠIns pect
ĠC atherine
ĠSc reen
Ġfre ak
Ġprop he
Pac ific
B esides
ĠC able
oot s
Ġwar riors
Ġd ull
ener gy
Ġha iled
J oe
ĠRe be
ĠCon way
Ph il
ustom ed
ĠCharl ottesville
Ġrem ed
ind ex
Ġfl ame
he tt
Ġret ros
in th
r ill
Im agine
ĠLind a
ĠSter ling
Ġun armed
Ġsl ump
ĠC e
Ġph osph
ĠI van
Ġsh red
Ġpl asma
Ġpar an
so ver
health y
ĠOr acle
Ġsurpr ises
Ġfalse ly
Ġathe ists
Ġrest art
ĠM ik
s n
Ġ19 00
Ġcont ributes
ĠR ab
d b
Ġpo pped
ĠR apt
Ġpret ending
ĠF ighter
Ġup wards
ĠMon itor
og s
Â »
ĠF ocus
Ġbl ows
ĠBren nan
B as
Ġpri zes
Ġsex ism
Ġfore nsic
Ġcollabor ative
ĠSky pe
Ġtrain er
Ġsch izophren
Ġpal ace
Ġrest ing
AR D
Ġhorm one
ill es
ent ric
k it
bl ood
Ġsell er
Ġd well
in ters
Ñ ħ
Ġfr amed
gg er
Ġsc aling
ĠHe avy
l at
ĠIns urance
Ġgoal t
ld a
Ġth under
ĠL ed
Ġpod ium
d ling
ĠRock ets
Ġstake holders
ĠD ani
Ġcost umes
Ġd un
ĠTim othy
P eter
Ġwithd rawn
ĠLeban ese
Ġ12 8
ĠSch ultz
Ġbomb ings
Ġlo oming
_ {
Ġs ack
Ġdiscover ies
Ġchar m
Ġm arsh
we b
ĠD in
oy s
we ather
Ġaccess ing
i ov
Cong ress
p arents
Ġnorth west
he ll
Ġv apor
ĠChe v
ĠBru ins
ĠC ork
Ġemploy s
H ead
Ġdimin ished
Ġvers atile
Ġmark er
Ed itor
Ġle aning
ĠV ince
ĠGM T
em ption
Ġall ocation
Ġrel iance
Ġdecl ines
Ġbr ig
Ġperpet rators
ff iti
rah im
ĠMan uel
ook ie
Ult imately
ident ally
ĠSc ript
ĠPer l
Ġp and
Ġwas hing
ĠF ine
Ġjuven ile
Ġselect ive
Ġtang ible
w ife
Ġex terior
Ġmamm als
ĠH ogan
Ġleft ist
ĠD iet
ur st
ĠB ody
ien cies
ĠPr adesh
Ġresearch ing
N P
E arly
ĠLeg ends
ĠPer formance
h n
ĠN ak
en berg
Ġheight ened
Ġneuro log
att ed
Ġun cover
ĠObserv atory
ĠS weet
Ġun a
Ġh alls
Ġexplos ions
Ġacceler ation
ick ers
ĠF ear
Ġembarrass ment
Ġsuper st
tr ue
Ġsever ity
b ard
ĠR uth
Ġfranch ises
Ġhun ter
ĠH ernandez
O pen
Ġso ber
ĠVi enna
Ġrans om
ĠL ex
Ġdepend ency
Ġdisappear ance
F ile
ĠWhats App
oc o
Ġ194 1
ĠR iley
ĠCitiz en
ie u
T er
Ġv andal
ĠN L
Ġh orn
ĠMe yer
Ġgovern ed
Ġcan cell
ĠMin i
Ġper tain
Ġiter ation
rec ord
Ġo lig
Ġde ported
Ġdwar f
cast ing
Ġhop eless
Ġoverth row
Ġsmooth ly
Ġsect arian
Ġaw aken
Ġair lines
Ġramp ant
ing ham
Ġins erted
Ġtax ation
Ġhypot hetical
ĠEx xon
spe c
Ġcr ashing
Donald Trump
ater ial
Ġuns ure
Q ue
Ġrefres hing
on so
Ġinter ceptions
Ġwholes ale
Ġl ou
B ern
Ġ0 2
Ġadequ ately
Ġg ays
Ġch ill
asp berry
Ġher b
Ġ ×
in vest
p al
ĠConserv ation
Ġseiz ure
Ġres olutions
AC A
Ġm asks
Ġlone ly
Ġwith hold
Ġempir ical
qu arter
ĠSt rike
Ġprim itive
ent e
oss ibly
ĠSpe cifically
Ġe man
Ġdest abil
Ġfilm makers
Ġna ive
Ġpund its
ar ium
ĠAub urn
ra f
ĠAut om
az ed
Ġru ins
Ġhun ters
Ġground ed
Ġmel ting
ä ¸
Ġf og
t z
Ġdownload s
Ġcomp ares
ĠM iles
ĠIns ider
ĠN um
ab we
ĠL O
Ġprop onents
l ins
Ġregul ator
Ġtw ins
Ġunique ly
ĠP H
Ġgrant ing
ster dam
Ġcelebr ations
ĠS tern
un ny
ĠP le
ĠK ob
ess age
Ġindu ced
Ġper ceptions
he id
Ġpath way
ĠUs ually
Ġdirect ive
ĠIS Ps
pro ve
ist ical
ĠAP Is
Ġst acked
ĠZ ucker
Ġdom ains
w ic
Ġv om
Ġexch anged
Ġblast ed
be h
ĠMoh amed
Ġsc andals
Bet ween
Ġinto x
Ġ10 5
or o
R P
Ġchar ism
Ġobs ess
Ġsp ouse
ĠE rik
ĠJed i
B ER
Ġind o
Semit ism
Ġnight club
Ġmechan ic
ĠOw en
ĠGo ing
S il
ĠD ell
Ġsusp end
Ġt am
he ard
Ġmult inational
,âĢĻ âĢĻ
Ġillness es
or f
ĠRich ards
id able
ĠâĢ ĭ
Ġredu nd
Ġdiplom at
ĠJ ob
ĠH erman
Ġpe an
Ġindef initely
Ġreinfor ced
Ġaccum ulated
Ġmod ifications
ĠSt ay
Ġv ine
f alls
oster one
Ġburn s
Ġb idding
Ġind oor
Ġdoub les
w ave
Ġl aughter
imb abwe
a unch
Ġmyth s
ĠLink ed
Ġ} );
op ed
ograph ics
ot ers
Ġ10 80
Ġfundra iser
M arch
16 0
hel p
Ġsuper vision
Ġconstitu ency
ĠSouth west
ĠChe ney
ot on
c led
Ġfut ures
Ġmit igate
ĠD S
ĠPar ad
Ġconcept ual
ĠSh ane
ĠFried man
Ġch amp
if ted
ĠCl are
Ġr anged
Ġsuccess ion
Ġthe rape
all ah
Ġ194 7
Ġj ealous
Ġunder went
Ġe cc
Ġrec urring
Ġgif ted
ond o
ĠSt o
Ġelig ibility
ol iberal
Be yond
Further more
load ed
ĠV I
Ġdepth s
Ġcomp uls
it ures
Ġthe ology
Ġsurround ings
D el
Ġfraud ulent
let te
is ans
Ġsuprem acy
real DonaldTrump
Ġstamp s
Ġgood ness
Ġaster oid
ĠN ike
pl aced
ĠC ertainly
Ġtelesc ope
Ġcatast rophe
Ġreal ization
ĠV o
Ġvol tage
ĠB A
Ġsell ers
Ġpro claim
Ġsuper market
ĠC ad
Ġmeaning less
oles ter
Ġmiser able
Ġweaken ed
Ġchance llor
Ġgr in
Ġoper a
Ġfore see
7 50
m ails
Ġalle vi
Ġdivor ced
ĠTw enty
ĠE ye
Ġoper atives
g ie
Ġor ph
Ġmilit ar
ĠScient ology
ĠAl ger
Ġey eb
Ġdistract ed
Th ink
Ġpy ram
Ġeval uating
ĠMid west
Ġstuff ed
ĠCle arly
ĠGO OD
Ġbit coins
Ġdraft ing
ĠU T
od er
Ġun ite
ĠBr istol
ĠM ech
ĠKurd istan
Ġlivest ock
Ġlif elong
Ġ( -
ĠF E
ant a
Ġovert urned
Ġvin yl
ĠCh a
ĠCr ist
Ġspec ially
com plete
ĠRec ently
Ġdiet ary
Ġturn over
Ġutil ized
Ġneed le
the med
Ġprohib its
Ġsal ad
ĠHy per
Ġcease fire
ĠZimmer man
Ġtr ilogy
Ġw ires
Ġshr inking
Ġbom bers
Ġcook ie
c ulture
Ġresemb les
Ġindirect ly
Ġur ine
R ather
Ġv ault
f ocused
Ġdest ined
Ã Ĥ
Ġre dd
Ġbe aches
Ġimp air
Ġy east
Ġdiscont in
Ġfert ility
IC O
Ġout raged
Ġnut rients
am el
ĠGil bert
Ġarch ives
l ate
ĠSh ia
int o
Ġpen cil
ans ing
Ġbelie vers
Ġjump s
Ġhonest y
ay an
it ating
Ġrele vance
ĠCraw ford
You ng
Islam ic
Ġstat istic
ĠDec l
Ġr ack
ĠH ost
bl ue
ĠStart ing
Ġperfect ion
av an
ĠMons anto
sec ure
c ould
our ing
Ġunders c
Ġcouncil s
ĠT E
Ġrecy cling
Ġsuper star
as is
ĠW ake
ill on
Ġhero ic
ĠSh o
ra ve
Ġoff spring
Ġp ulse
Ġre jo
Ġreconc iliation
gg ie
Ġmer ge
Ġdom ination
ĠComp et
ĠW E
Ġash amed
Ste ve
Ġs outheast
Ġmet aph
John son
ĠSt ef
0000 0000
ĠPl aza
Ġun pleasant
ĠAndre a
ĠBrend an
Ġpot ato
Ġretrie ve
ĠD at
Yes terday
AN T
k owski
Ġlog in
Ġsuper natural
Ġheter osexual
Ġhe ights
Ġatt achment
Ġlun ar
Ġtop s
Ġsuscept ible
ĠL ay
Ġcorrespond ence
Rich ard
,' "
O rig
od s
ĠBeng als
Ġsab ot
er k
Ġtrig gers
Ġvalid ity
ĠExpl orer
Ġcont enders
Ġevac uated
ind a
board ing
ight y
ĠWe ap
ĠVal ve
Ġhook ed
Ġreb ound
ĠT S
ĠJul ie
ĠEmir ates
ĠRep orts
ĠTro phy
Ð ¹
abul ary
ĠT rent
G P
ign ment
Ġhint ed
et ed
Ġsle pt
ĠD ash
rib es
Ġdiscipl inary
Î ¹
ĠBlack Berry
Ġir rational
Ġgrab bing
out ube
umb lr
Ġgal axies
c ry
Ġinf ants
Ġcop ied
U TC
Ġcar c
N obody
Ġbull shit
is ure
ĠG ross
b ands
ĠG y
ĠLe o
Ġconver ting
Ġbi ography
Ġe ject
Ġg aze
Ġlike wise
Ġdig its
Ġcreep y
ĠG ul
ĠRe play
ĠC el
Ġcruel ty
Ġdesign ation
Ġintr ins
Ġch ambers
Cl oud
Ġdisg usting
B est
H op
mark ed
ĠBah rain
Ġimm ort
T able
Ġprogress ives
ou ble
az er
ĠCan ucks
D ue
Ġsound ing
Ġost ens
over ty
H el
ruct ed
ĠA zer
Ġconting ent
Ġworth while
ant ry
ĠAr s
S ix
v able
D irect
Ġunanim ously
h ig
Ġauthor ization
M ax
Ġmortg ages
Ġsod a
ĠBeat les
ĠProtest ant
Ġdis charge
Ġinstall ment
ĠAbb as
any on
Ġhypot hes
ob ic
Ġcountry side
ĠR B
Ġimag in
Ġaspir ations
S al
isc her
Ġlaw maker
ĠQu arter
Ġanarch ist
M arc
isb ane
Ġpredict s
Ġadoles c
Ġt apes
Ġfrequ encies
Ġst umbled
ĠBl izzard
ors i
us ra
Ġunp aid
ĠPoint s
Ġro gue
ĠÂ »
Ġst oring
ices ter
ĠCustom s
ĠR us
ĠWH O
ĠH ag
ĠGr ass
Ġplag ued
Ġlaugh s
Ġpo orer
Ġreject ing
Ġcomment ator
Ġfr inge
Ġj ugg
Ġt enth
Ġg y
ĠB urg
Ġbr ass
R ub
ĠSp art
Ġanal ogy
Ġkidn apping
AC T
Ġex ile
Ġ( +
Ġunc ont
ĠWeb b
Ġpolicy makers
Ġs ung
Ġp ier
Ġh ollow
secut ors
ĠL iqu
ĠP O
Ġexp ired
ĠN ode
ĠAd elaide
land er
Ġsp ine
Ġdisagree ment
Ġspec ulate
ĠCamb od
Ġmiss es
Ġst aple
Ġant it
Ġsur geon
Ġsh iny
Ġgl orious
ĠLike wise
ĠAn alysis
ĠG ir
Ġpop e
Ġorganiz er
se at
Ġrad i
ĠMerc ury
ĠThe ater
Ġd ess
av in
Ġund en
e g
Ġres h
Ġded uct
Ġrelie ved
qual ified
Ġhead phones
Ġshoot s
Ġcom r
or ian
Ġtele vised
Ġreconst ruction
Ġclose t
ĠCon c
Ġcirc ulated
ĠNational s
Ġh ats
Ġcur tain
ĠJud a
ĠS aw
Ġinstruct or
Ġpedest rians
ĠLuck ily
ĠAdvent ure
Ġsett ling
ĠHay es
ĠIr ving
in um
ĠThrough out
ĠAd obe
Ġende av
Ġs ang
cho ice
ĠDev ils
Ġbrew eries
Ġ17 0
ĠEcu ador
ĠFl oyd
Ġcock tail
Ġam ass
Ġto dd
Ġdoub ling
an ol
ĠB ened
Ġoccur rence
C BS
H ello
Ġcompat ibility
Ġsl ap
Ġacc ustomed
ĠLear ning
al ong
Ġsh am
g ae
c ue
ĠMon ica
ĠL P
Ġintimid ation
ĠSim ilar
ĠInvest ment
Ġco herent
Ġclean ed
Ð ¿
pl aces
se en
ĠPir ates
ĠEx cept
a ft
Ge orge
Ġe ch
Ġw it
Ġst ing
P age
Ġrep ression
Ġdr astic
p c
J UST
Ġshoot ers
ĠP ep
Ġrehab ilitation
Ġoverl ap
Ġmaj ors
Ġw inger
Ġlung s
Ġmess y
Ġth riving
S u
Ø ±
Ġdisc om
Ġmar vel
ĠH arm
ĠE instein
Ġn as
ĠCh arter
ĠK umar
Ġgar nered
Ġ195 9
Ġric her
Ġdictators hip
ĠOr d
We b
Ġblu eprint
ĠR ank
Ġarchitect ural
Ġdismiss al
And rew
s il
fol k
Ġsouth west
own s
ĠA V
em a
Ġpersu aded
Ġlapt ops
ĠF ernand
ĠL anguage
ul atory
vention al
Ġun authorized
ĠJackson ville
ĠI gn
Ġbur ial
ount ain
Ġho ax
Ġpun ched
Ġbu ys
Ġinquir ies
Ġl ith
ĠM aple
ri v
Ġresist ed
ĠT M
Ġsc outing
ĠT C
d ue
Ġelev ator
Ġextract ion
ĠR ules
ĠO val
Ġf al
Ġopp oses
E xt
Ġb iblical
Ġextract ed
Ġabund ant
Ġacclaim ed
Ġumb rella
d oes
L ocal
or ically
ick y
us ers
He alth
ĠHass an
ĠGit Hub
h l
Ġrum or
ĠInvest igation
ĠSol id
Th ings
Ġl akes
M ass
art en
Ġsol itary
Ġt in
Ġjudge ment
ucc i
Dem ocrats
iv ism
ĠHe ath
Ġdisreg ard
Ġse gregation
Ġstaff er
ĠRh ode
Ġ194 2
Ġaccomplish ments
t arians
Ġcoc onut
C all
ĠT aking
Ù ħ
Ġac oust
p sy
p aper
Ġsc oop
dog s
Ġ19 39
Ġdepend encies
Ġover c
Ġdec ay
ick er
Ġdom est
ĠSchne ider
Ġgl oss
em er
Ġphotograp hed
Ġfair y
c ro
Ġstri ve
ĠSh op
ĠSyri ans
Ġrest ruct
ud s
Ġubiqu itous
Ġcr acks
Ġcommod ities
Ġco erc
ĠFood s
W C
Ġmisdem eanor
ĠL iter
Ġenfor cing
iss an
ĠB ert
Le ague
ĠBr isbane
ĠMount ains
count ry
he avy
Ġ Ã©
ĠGen esis
ĠHon or
Ġwe ights
ra red
ari at
ass is
ĠW u
Ġadvertise ments
Ġadvert isers
st y
Ġpat rons
Ġhel pless
Ġdr ills
ok a
c d
Ġw olves
ĠMon te
Ġsurviv or
Ġâ Ī
ĠN an
ĠWy oming
B P
lant ic
Ġch orus
Ġpro claimed
Ġprint s
Ġpart ition
Ġid ol
Ġmanip ulated
ĠJ et
Ġinteract ing
Ġex h
ĠGr ad
Ġcur se
Ġcertific ates
S cientists
Ġprotest ed
L ear
Ġdis like
Ġcrus hing
me ga
Ġcar ved
Ġrev olt
f uel
ris y
ĠH orse
Ġcan s
Ġparent al
reg or
ĠâĢ ķ
ĠR S
ĠGe off
Ġplum met
Ġdiv isive
Ġsystem atically
Ġimp art
Ġaccus ation
a verage
Ġo live
Pro t
Ġsu ing
Te am
Ġfrag ments
Î ½
in el
Ġwho pping
Ġsupp lier
Ġaffidav it
ed ience
Ġsm ashed
Ġbrow sing
Ġfant as
rel igious
Ġcompos er
f o
Ġsupp ression
W ould
Ġrational e
Ġveget able
Ġnom inations
Ġc ros
Ġgl ow
ĠImp act
ĠK ub
osp ace
ate l
P erson
Ġremark ed
Ġdin osaurs
St r
Ġmark ers
Ġvalid ation
ĠPoke mon
Ġprepar ations
Ġb ounds
ĠC E
A ir
ĠJ azeera
Ġdr ums
Ġcross es
Ġf aint
Ġprop oses
ĠYork er
Ġswift ly
Ġcyn ical
ĠM atch
Ġkid ney
per ing
els en
pl ates
ĠW AR
ĠC ities
Ġstation ed
Ġmad ness
Ġth y
âĢ¦ ]
g age
Ġhon ors
Ġst alled
f ashion
Ġco hes
Ġneglect ed
ĠL ance
Ġd os
ĠTer rit
Ġintermedi ate
c ule
Ġexist ential
Ġpar ole
r anking
Ġl enders
Ġdecor ated
Ġmon arch
re z
Ġne oc
Ġimpe achment
Ġadjust ing
he e
open h
ĠCon cer
ic idal
Ġmin erals
Ġbad ge
B ob
ĠKenn eth
Ġgovernment al
Ġfall out
Ġjurisd ictions
ĠT as
Ġener get
Ġform idable
ĠK ot
Ġplay ground
Ġo mn
Ġj oked
ific ent
gr and
Ġch lor
ĠU P
Ġlear ns
Ġam ple
ĠJ azz
Ġch uck
Ġconcer ts
C oun
ĠM aps
read ing
Ġpl ague
Ġdown side
ĠEl ite
Ġdem ocrat
re ci
or ously
Ġs omeday
ĠPl ant
ĠA part
## ##
st ru
educ ated
Ġâ Ĩ
ave z
J ones
ĠT ah
Ġpr ince
Ġtrans plant
ĠT ournament
Ġpol ite
ĠJohn s
Ġmod ification
Ġver ge
ĠS oph
Ġtele com
Se pt
Ġpecul iar
ush ima
Sh ould
Ġcoll ar
Ġv oy
Ġpo inter
Ġre op
Ġd ock
Ġg room
Ġrad ius
ĠR F
w en
ĠWalk ing
Ġrem ake
Ġback pack
ĠCard inal
icult ural
Ġlog istics
Ġro oft
ĠS ite
ĠZ imbabwe
ĠOrig inal
Ġind icted
b ag
Ġpsy chedel
Ġaccident al
lect ed
ĠDar ren
ĠH uck
ĠCol onel
Ġge ographic
ĠBald win
ĠG addafi
ĠAm sterdam
Ġrem edy
ĠK em
Ġin advert
Ġshort ages
Ġcler k
Ġhom em
Ġcontin uation
Ġsoc ietal
ĠCoun sel
ĠH ond
ul ators
Ġcommun al
Ġret ention
s ch
ĠKore ans
M iss
J une
Ġimp ending
ĠCh in
gin ning
Ġtweet ing
ant ine
N or
200 7
Ġsh attered
Ġz oo
Ġmass ively
ĠL ud
bor o
Ġcl usters
t urn
Ġarchitect s
Ġhit ter
Ġproc ure
en ment
Ġsh arks
Ġdraw ings
Ġbrand ing
Ġgluc ose
Ġt apping
Ġspl ash
Ġb unk
ĠGall up
ĠMin ority
Ġdisrupt ive
Brit ish
Ġinnoc ence
Ġadvert ised
ĠScient ific
Ġchar ming
ĠAd mir
Ġinj unction
h h
Ġblog gers
Ġearn est
s afe
f ounded
Ġle mon
Ġwork load
ĠN est
X T
ĠC OM
ĠC anyon
d et
Ġdownload ing
ĠDis covery
ir y
Ġmyth ology
ĠAmeric as
Ġstim ulation
ĠJ ur
Ġnit rogen
ott est
Ġphil anthrop
Ġalign ment
Ġtor rent
ĠCurt is
Ġpredec essors
qu et
ern ick
Ġinfant ry
Ġver ification
ire ction
14 0
omet ric
ĠLeg acy
EL L
Ġdisag reed
Ġbigot ry
ĠX P
ĠG ur
Ġcomfort ably
ĠD ucks
Ġge op
Ġundergrad uate
ER Y
ĠUs ers
ĠM ead
Ġthank ful
ĠN ortheast
Ġcontinu ity
Ġfil ib
Ġs aga
ĠTH AT
P rior
ĠE ston
Ġab normal
ĠV ision
Ġfasc ist
==== ====
Ġscan ning
Ġref rain
Ġir responsible
Ġtransform ing
Ġforg ive
Un ited
AM E
f aced
h on
product ive
Ġcongest ion
Ġincap able
ĠDav ies
Ġst igma
Ġal umn
ĠTest ament
Ġtub es
ĠConst itutional
f act
ĠMour inho
Ġexc uses
lic t
lin er
Ġreserv ations
ĠM oses
tr ade
K im
R ad
Ġaggrav ated
L ink
Ġsign aling
Ġed itions
ot he
Ġrev ive
f ight
ĠS ales
ven ant
Ġeven ly
ĠA CA
ĠCan on
Ġp ent
it us
Ġspect acle
Ġbe lly
J ew
Ġroll er
st ill
Ġsc out
ĠStand ing
Ġg ospel
Ġcan vas
ĠCre ate
Ġcl o
Ġm aid
ĠJuda ism
f iction
te chn
Ġsurg ical
Ġap ost
Ġincarcer ation
Ġdilem ma
N early
Ġdesc ended
S H
G ov
ĠK oh
Ġinter ception
ush i
Ch ief
Ġsm oked
ĠC ord
ile aks
re ne
Ġphotograp hers
Ġinc arn
Ġgrad ual
ĠDev il
ig ators
Ġoff ender
person al
Ġinter val
ĠBr anch
ĠOs borne
Ġspons orship
Ġne p
Ġemer ges
ĠRes earchers
Ġpoison ing
Ġpir acy
Ġret iring
Ġschedul es
Ġsur real
ee le
Ġ4 50
ĠC ros
Ġp act
Ġmer ged
ĠJack ie
ĠAnn ual
! '
B T
Ġwild erness
oun ge
b ai
Ġunanim ous
ir teen
Ġper imeter
Ġpiv otal
ĠJS ON
Ġcraft ing
Ġw ax
Ġrep s
Ġexpend iture
ĠAli en
ab ee
Ġd ots
Ph ot
ĠB row
ĠMan it
Ġp uls
ĠK iss
Ch ild
Ġexagger ated
ĠB og
Ġgard ens
Ġcl utch
ĠS ans
P H
ĠRhod es
ĠDian e
Ġ18 00
Ġt sun
ac a
Ġstub born
ĠKind le
c od
Ġcrack ing
Ġharm ony
Ġstr ongh
Ġmarch ing
l ich
Ġm int
Ġrent ed
ĠB ee
.âĢĿ )
Ob ject
Ġfr ied
Ġalleg iance
Ġharass ed
Ġmemo ir
ĠProv ince
produ ction
pict ured
Ġf ade
ĠSt ories
Ġm udd
Ġcollect or
Ġhigh s
Ġsk ies
Ġsafe guard
ot le
Ġun identified
c ity
Bl ue
Ġrenew al
G H
ĠR ee
Ġto mb
ĠP it
Ġspec ulated
Ġk in
Ġsp ur
E ver
st ad
Ġd amp
as io
Ġaffili ation
Ġgener als
Ġest e
ĠD ot
Ġaver ages
at ri
Ġapp les
Ġ24 0
Ġworld view
ĠN ice
ac s
Ġlau ndering
coh olic
ĠSt ream
Ġkill ers
Ġexpl ores
Ġrul ers
Ġsuccess ive
Ġprol ific
ĠC er
Ġcounsel ing
Ġatroc ities
Ġwas ting
Ġrest oring
Semit ic
bour g
p ensive
se tt
Ġeleph ants
Ġun in
ĠS onic
be fore
Ġspat ial
Ġsl ate
Ġign ores
Ġcampaign ed
Ġevac uation
ex pl
Ġir regular
Ġfirm ware
um i
Ġdeep est
Ġdo i
ĠAnd ers
ut ory
Ġexcept ionally
Ġplace bo
Ġsent iments
M ex
ĠResp ons
ĠR O
Ġgar lic
Ġbu cks
im an
Ġper former
ĠRC MP
ĠN ate
me aning
ĠRe ich
Ġel bow
ĠD iaz
Ġun official
Ġcommer cially
ring ton
Ġsal mon
Ġp anc
Ġw aking
Ġde gr
Ġprofound ly
Ġprovoc ative
Ġf ier
ĠC oy
ĠP ors
Ġweigh s
ĠSalv ador
Ġfor c
ĠRe b
ĠCont ent
ĠD uty
ĠA FC
w ire
il ib
Ġvill ains
rict ed
Ġdest iny
ĠAv iv
Ġsc ans
w ild
Ġculp rit
Ġloud ly
Ġv ou
ast ics
Ġdisproportion ately
ĠMoh ammad
ĠM ix
Ġon set
Ġcirc ulating
ĠHung arian
ĠAng lo
ĠDem s
b ishop
aw ays
Ġdepart ed
Ġb ark
10 1
Ġexpend itures
ĠP ierce
ĠTechn ologies
ang ular
Ġac ids
ĠA F
ĠPr int
ĠBor is
ĠS ame
Ġrem n
Ġfor ged
Ġund o
m atch
ĠElect oral
Ġunl ocked
Ġrail road
e on
Ġ19 17
et r
Ġl iable
ev ent
am ic
Ġm esh
Ġauthent icity
ĠR oute
Ġdifferent ial
S ocial
av ior
ĠAl ways
ĠOff icials
ĠArmen ian
ess a
Ġsit uated
Ġdepict ing
Ch inese
ĠCris is
Ġcomp ilation
ĠAr row
spe cial
ĠH av
f ill
Ġprolifer ation
Ġ195 6
Ġreprodu ction
ĠM oy
ĠRay mond
d ies
Ġgoal ie
Ġsub missions
ĠH ide
ĠPer u
ĠH ugh
b ons
ĠM int
ĠC lear
ĠProf essional
h ou
Ġd ur
Ġdev ote
Ġm ansion
ĠF ans
ĠS ikh
Ġer r
met ry
ĠAny thing
Ġgest ures
ĠWhe eler
ĠCl aire
ĠVal ue
Pr ime
ĠDownt own
N O
Ġdiscrimin atory
ĠTre vor
Ġsle w
B ox
el o
hen ko
Ġspeed ing
Ġneighbour ing
Ġther m
Ġtruth s
Ġ ï¿½
Ġhal ted
ĠWag ner
Ġco ached
Ġiniti ate
C rit
Ġb ree
ĠBeng al
Ġpo pping
cript ions
Ġb aked
en h
Ġ195 8
ĠW enger
ĠBay ern
ĠLe h
ger ald
Ġam en
l ain
Ġmot ors
Ġf rog
Ġtherape utic
S w
ĠP os
ub arak
ĠC ele
if ax
Ġbod ily
ĠOff icers
t ier
Ġp ac
ĠBas ic
Ġmerch ant
Ġar ises
Ġdict ate
Ġmedic ines
Ġundermin ing
Israel i
int rodu
ĠD LC
ĠIndust ries
Ġsimpl est
Ġexplo its
Ġess ays
Ġsad ness
Ġdefense man
ĠCongress man
ĠS ah
H R
ol ia
Ġcyber security
Ġd itch
Ġbr ace
Ġant agon
ĠMy ers
Ġtend encies
W elcome
Ġinv aded
Ġsur rog
Ġm ans
ĠN iet
Ġtheoret ically
affe ine
ĠM ate
Ġpro w
ĠCom edy
Ġopp ressed
ĠWat ers
IG HT
ĠBudd ha
ĠRef uge
Ġcomment ing
Ġse af
ex isting
Ġmight y
agn etic
Ġbr akes
ĠZ oo
Ġs ized
ĠInd ividual
Ġpart nered
se ys
comm ittee
Ġpup ils
Ġfire works
ĠMarx ist
ĠEuro pa
ĠE manuel
f it
Reg ardless
Ġl id
ÑĤ Ð¾
Ġwhere by
Ġgl uten
L L
eff icient
ba um
Ġsqu at
ĠW er
ĠB TC
is ch
ĠT SA
Ġseiz ures
Ġscore r
com pet
ĠRe venue
ĠAm nesty
Ġyell ed
stand ard
Ġnep hew
Ġbur ger
Ġconce al
un c
ĠLab s
ill as
Ġcoll usion
Ġp oker
Ġgra ffiti
ĠBet a
Ġthank ed
Ġout we
ri o
Ġmem br
Ġeffic acy
O k
r ue
Ġmed als
Ġrespect ful
ĠCong o
Ġp ads
ĠC aucus
ĠVe h
l ia
ĠIntern al
Ġtr aps
um bs
Ġgrat itude
Ġl ure
ĠPir ate
att ack
Ġcompan ions
ĠU nd
Ġhypoc risy
ĠF M
W il
Ġdisc rep
ĠSt age
ĠS hip
c am
ott i
Ġproport ions
ĠI o
p i
um en
ĠN are
Ġins iders
he rence
ĠWATCH ED
ĠMah m
ĠOff icial
ĠP P
ĠG E
Ġpass er
Ġdiscom fort
St op
Ġfam ed
Ġc ough
ĠN olan
Ġmult im
ĠCh i
ĠCu omo
ĠE lder
ic us
Ġlast s
ill ions
Ġal ley
olester ol
p enter
Ġinsurg ents
Ġserv ant
Ġrent s
t ics
Th omas
u ously
Ġtoug hest
ew orthy
ak is
cont ent
Ġinject ed
Ġse ated
Ġx en
Ġpref ers
ass er
p arent
ĠB le
iz a
Ġboard ing
C ount
sc ill
Ġpl ight
Ġcamp ing
Ġvill agers
ĠF argo
Ġscreens hot
ĠSerb ia
) ?
od ore
Ð ±
ĠBar rett
ĠDes ert
d ain
Ġconf essed
T ech
os er
ĠJ ak
ĠAm anda
ĠLen in
Ġhes it
pl er
ĠInspect or
Ġca fe
ĠT at
Ġpseud o
M a
ĠP ars
Ġrob bed
ĠRel igious
Ġpair ing
cent ric
l ide
Ġst all
y et
Ġlong standing
ĠN J
ĠCr us
Ġexecut ing
h ash
rib ing
ran ch
man ned
ody nam
ĠGu inea
Ġsl iding
Ġjihad ists
ĠMy an
Ġgr ains
Ġmillenn ials
st ro
Ġpast e
Ġhar bor
threat ening
Ġplanet ary
In c
ĠSuper ior
ĠLyn n
ĠLeg ion
Ġdisc ern
ĠChurch ill
ern ame
Ġindu ce
id ad
arth a
Ġhe mp
Ġassess ing
AC E
ĠC rypt
pher d
For ce
Ġinex pensive
Ġste er
oc hem
ep ernick
Ġair ing
Ġrestrict ive
ĠCl iff
ĠNep al
ĠBr itt
Ġmand ated
Ġrot ating
ett i
! ),
Ġenvelop e
ĠB il
ĠC osm
in as
ĠF ell
Ġbre asts
kins on
Ġveget arian
ĠBre aking
Ġspecific ations
ĠS hen
ump ing
Ġfreel ance
T est
ĠBra ves
Ġexperiment ing
Ġplay able
Ġperson a
ĠW ald
Ġspecial ty
Ġex pelled
Ġtot als
Ġyear ly
r ine
ĠL enn
Ġanten na
ĠComp anies
Ġall erg
ĠDur ant
Ġtra umatic
ud ing
Ġmis ery
ĠPlan ning
Ġmunicipal ities
Ġdi agram
ĠÐ º
Ġ ion
ĠHam mond
port ing
th y
ol ation
Ġb aff
cent er
Ġincorrect ly
am ples
u ilt
Ġ __
Ġsubsid y
ĠRock y
ĠMyan mar
Ġ194 3
ON E
ĠBur ton
Ġdiet s
ĠLi u
the ir
ĠAn kara
Ġphilos ophers
Ġbr ink
Ġlif es
Ġconflic ting
Ġ195 4
Ġqu ir
ĠD EA
ĠKu wait
ãĢ Ĥ
l ass
Ġreg istry
Ġemploy ing
Ġper il
P ower
es se
Ġremember ing
ub a
L ove
ĠR ol
Ġdr ift
ĠAR M
ĠHel en
Ġpet ty
Ġle v
Ġrum ored
Ġlim bs
ĠRebe cca
Ġunt o
à ¥
Ġc ant
c ano
og ene
ĠCol bert
Ġconc ussion
Ġcler gy
Ġ195 3
Ġflood s
ĠL il
Ġun aff
ĠGu j
Ġgig antic
Ġdial og
ĠCelt ic
W estern
ĠV ern
Ġcondemn ation
Ġs ou
ĠKey stone
ig rant
ort heastern
Ġnew born
Ġfin anced
Ġunivers ally
Ġstri ps
Ġnarc iss
W rit
ĠD HS
amb urg
Ġne oliberal
ĠO g
ĠRe y
Ġmem e
Ġgen res
Ġang el
ãĢ ģ
Ġred ef
t aking
r ance
Ġfort unes
Ġvan illa
es que
ĠLiber tarian
A pril
L ead
ĠS V
Ġboost ing
C amp
ĠTH IS
Ġinv asive
Ġgrab s
r h
ac ial
Ġrac ially
oc ating
Ġf eder
enz ie
Ġdem ons
ĠLe icester
Ġunre asonable
rend ered
Author ities
Ġpil gr
Ġnotor iously
Ġ 000
S I
m or
Ġadmin ister
s kin
gener al
ĠG L
ci um
ĠBuzz Feed
ĠL anka
be y
neg oti
Ġsw ear
amer a
ĠG ri
ĠApp ro
ĠVen us
Ġn ud
Ġbub bles
Ġs or
ĠQu ant
Ġcompet ed
ĠPhil os
Ġpractition ers
Ġmet ropolitan
Ġcontrace ption
de ath
ĠIs is
Ġchall enger
ĠHug o
Ġecosystem s
c irc
Ġr av
**** ****
Ġlaw ful
ĠSt ark
Ġjud iciary
Ġrul er
ĠCor nell
Ġsmugg ling
Ġnow adays
ĠSt ur
Ex per
iv o
Ġsuper f
orn ings
Ġoversee ing
Ġanim ations
import ant
Ġunse tt
g ering
Ġr ude
Ġch unks
lling ton
ĠF resh
Ġmicro bi
Ġsynt hes
sm all
Ġsens ory
Ġdevelopment al
bel ief
Ġpump ing
Ġcoun ters
A v
Ġcris p
Ġref resh
ĠBel fast
Ġpack ing
!! !!
Ġreg ression
Ġcann on
ĠEug ene
Ġtest osterone
Ġfr iction
Ġcommem or
Ġrun time
cre ate
ĠAng ular
Ġt iles
Ġnot ions
Ġal erted
Ġhall uc
Ġ195 7
Ġbra ke
Ġpro se
ĠOr b
pir acy
Ġinstall ations
gress ive
ĠSh oot
Ġcommun ism
Ġfr onts
ord e
ĠAct ive
ĠNe g
C ent
whe el
âĢ ²
Ġch illing
Ġimper fect
ĠFle et
ĠMad uro
Sim ilarly
gg le
Ġinsult ing
Ġins ign
Ġper t
W E
ik ers
. ;
ĠJ ab
Ġdiscour age
f ires
Ġcomp ression
ĠL akes
Ġs ins
Ġrun way
Ġworks hops
Ġk et
Ġouts iders
th ose
ÑĢ Ðµ
Ġcl an
Ġdis able
ĠCharl eston
Ġpen insula
Ġv ow
og ram
ĠRevolution ary
Ġsh ale
st atic
ĠSant os
d uty
Ġinfect ious
Ġa we
sole te
Ġl b
Ġconsult ed
Ġwh ip
Ġregul ating
Ġguess ing
ĠU E
ĠPeters burg
ĠFl ag
Ġbl ues
Ġpuzz les
het ics
Ġst air
ĠD ocker
ich i
ĠAt las
Ġpol ished
Ġfulf illing
Never theless
ĠV ic
al ine
C lick
ĠSh awn
Ġdeploy ing
Ġhist ories
\ \
m is
Ġexplo iting
Ġmanifest o
ĠSor os
ĠGree ks
Ġh ottest
ĠBel le
ĠPan el
TS D
Ġgl am
ĠC V
Ġ\ (
ĠD uc
ev il
ĠH i
Ġheavy weight
ĠSaf e
Ġtransc end
ir ling
ĠPun j
n om
Ġchick ens
com merce
Ġc emetery
ĠV as
ld on
T B
Ġimp uls
Ġsh ining
ĠB orn
Ġmut ations
Ġa ka
ĠPhilipp ine
Ġrain fall
Ġun ins
Ġl ocking
Ġmon key
Ġrem oves
Ġresp ir
ell i
Ġexp ire
ĠF ortune
edd y
P olit
Ġbo il
ĠHe in
at hing
Ġh ug
ĠK re
Ġlect ures
Ġsp rawling
Ġrecons ider
Ġmon uments
ĠLet ter
Ġp ains
Other s
ed a
Ġinstinct s
ĠUlt ra
ĠP ra
Ġreprodu ce
Ġr app
ĠSe vent
ĠIndones ian
ĠBrad ford
st ract
aid a
Ġver te
h awks
au f
ĠN ear
F ederal
Ġpar cel
Ġesp ionage
an amo
im o
ĠV ir
st ant
F TA
are l
ĠNon etheless
Ġrest s
Ġrestrain t
io let
) [
J uly
C onst
AS E
ub s
Ġ194 9
Ġat om
ĠCal vin
Ġblat ant
Ġdrag ging
cap ital
ĠGar rett
Ġtest ament
Ġext inct
ĠH app
Ã ¯
ĠW ITH
ateg ory
Ġprep ares
openh agen
ĠFr ame
idel ity
Ġsand wic
ĠOrig inally
Ġdescend ants
ad ic
ood y
ov y
Ġst ain
M ur
ĠP rest
AS S
Ġ11 5
Ġd ynasty
ĠSim ple
enc ia
Ġeth ic
Ġfront ier
Ġsl ope
Ġexpl ode
ro b
Ġdecre asing
h un
Ġm ocked
Ġann ot
ic ular
. âĢľ
Ġstart ling
Ġconstruct ive
Ġphenomen al
s ince
ĠMe ga
ĠW yn
Ġinflamm ation
Ġpath ways
ur l
Ġpost ure
Ġritual s
R ay
Ġg el
Ġunle ashed
Ġd wind
ĠR ange
Ġpl ac
Ġoil s
ĠP ine
wart z
Ġpreced ing
Ġcl one
ĠNare ndra
ĠBer ry
ĠPod esta
Ġcommercial s
ĠA verage
Ġlabel ing
Ġrecept or
Ġh amm
ĠNew man
ĠBened ict
ĠP am
Ġunexpected ly
m ic
ist ence
ĠBrig ade
represent ed
ĠFred die
ne eded
Ġconf ess
r aining
ĠFuk ushima
ĠHar old
In s
ext reme
ĠF ury
Ġobst ruction
H uman
ĠShort ly
ĠB oss
R om
ĠHe b
wh y
Ġe lic
Qu est
Ġscreens hots
w s
at ical
ĠS end
ĠBill board
Ġcl ay
ric ks
Ġge ography
ĠCh avez
Ġre play
Ġo v
Ġstat ues
Ġdisp atched
Ġche at
ij i
Ġsp ider
ĠD re
ĠAn cient
ĠP ain
is man
ig ated
Ġundermin ed
Ġs unk
ing es
Ġamaz ed
ĠE lementary
pr us
Every body
Ġc ues
go ers
Ġpatri ot
19 90
arr ison
Ġp enny
ĠNe o
Ġt earing
ĠH aven
Ġinsist ence
g io
Ġimp over
leg round
Ġs inking
Ġret ali
Ġsl ash
Ġexcell ence
Ġappl ause
Ã± o
Ġstrengthen ed
Ġhold ings
ĠExper ience
all ow
Ġrock y
Ġf aded
com pl
ĠSing le
Ġopen ness
ĠViol ence
Ġcentral ized
ĠPors che
Ġsid eline
Ġout doors
ver ts
att led
Ġdistribut ing
Ġw anna
ĠFly ers
Ġblock ade
ĠSt am
Ġd urable
ĠVis it
Ġinv oked
Ð ³
le ys
Ġf ixture
Ġcl oses
ĠZ ika
ĠLind sey
ĠT yson
ĠAr ist
Ġmis guided
Ġasse mble
Ġfo am
m oon
Ġund ec
Ġastronom ers
Ġperv asive
Ġa isle
Ġaw ake
ik ed
li able
ĠA bor
Ġabrupt ly
ĠBl ade
Ġbud dy
Ġpestic ides
ĠHans en
os lav
ĠC AN
Ä Ł
Ġur ges
Ġorganiz ational
Ġm as
Ġra ided
Ġequ als
Ġspl itting
Ġm um
Ġout going
ĠV ita
Ġgood bye
l ove
F eb
Ġt ipped
S omething
Ġwas t
P ay
Ġresist ing
Ġgu iding
Ġdistur bed
ĠPay Pal
ĠJoy ce
Ġm und
Ġlab s
AR E
ĠMe et
Ġbull pen
ĠEll en
T M
Ġsal v
ĠP OL
ĠNAS CAR
Ġplant ing
qu in
Ġs ulf
Ne ill
Ġprin cess
Ġsu cks
ĠRoy als
Ġ195 5
Ġsil icon
ĠÃ® n
18 0
ĠStrateg ic
I X
F rench
Ġreal izes
Ġinterpret ations
Ġmar itime
Ġinc ub
ĠV ander
Ġin mate
ĠFl ore
Ġch ased
Ġhands ome
Ġfat ally
Ġethnic ity
ĠBuddh ism
ĠOut side
.âĢĻ âĢĻ
asc ript
ĠGard ner
p rop
Ġschedul ing
ĠRap ids
Ġsat ir
ĠSch war
ĠFitz gerald
Ġtrail ing
Ġescal ation
Ġspecific ation
ĠBeh ind
Ġhe x
M el
conf ig
orm an
uper t
Ġwith stand
Ġframe works
ĠMac ron
Ġw ishing
ĠCoff ee
ĠP u
auc as
ĠShe ikh
200 6
Ġtri angle
Ġarc ade
Ġjihad ist
Ġnic otine
Ġdownt urn
ĠAndrew s
ih il
ĠC ultural
ĠF S
Ġâ ĸ
Ġrestrict ing
ĠZe lda
Ġprev ailing
D F
Ġarbit ration
gl ass
ĠM TV
Ġimpl ication
ĠOs ama
reg ulated
ĠZion ist
Ġhomem ade
Qu ery
establ ished
Ġtum or
Ġvoc abulary
ĠHas kell
Ġyouth s
ĠJo an
ĠM aid
ĠOtt oman
Ġprogress ed
Short ly
H am
Ġtr act
reat ment
ob ject
Ġsupp lements
Ġzomb ies
Ġind ications
te enth
ĠAl ban
ĠA WS
ĠSav age
Ġdecre ases
Ġb ully
Ġpione er
ĠLinked In
ĠSad ly
Ġimp aired
Ġcur s
ĠK ur
Ġf erry
ĠMir ror
Ġh iking
Ġgrand parents
T ION
ĠB ec
Ġtele communications
Ġdiss atisf
Ġjewel ry
Ġf ills
Ġtur f
Ġdec omp
li ent
Ġgrand children
Ġmod ular
Ġt abs
Ġch assis
An n
ĠEth ics
Ġtiss ues
Ġ7 50
ĠLie utenant
z an
ign ant
C BC
pl at
Ġhe fty
ĠW S
10 5
Ġhorm ones
Ġrese ar
Ġfil ings
Ġoverse es
Ġb apt
Ġmic row
Ġvib e
i ya
Ġcart oons
ĠC oul
Ã¡ s
Ġleg ends
ĠFro st
Ġhigh ways
ĠPat terson
ĠL az
Ġdefin ite
en f
od us
Ġgun fire
Ġretain ing
Ġkn ives
Ġrespect able
ĠSpot ify
ĠPer fect
Ġmotiv ations
M embers
Ġsub set
ĠO NE
bo at
Ġk ings
Ġt ac
she et
ĠRe ce
ĠH outh
ĠG olf
Ġostens ibly
ĠE gg
ĠPed ro
Ġrevers al
Ġstat utory
Ġcollect ors
ĠGuant anamo
ĠHig her
ĠL ar
Ġlive lihood
m ia
Ġs lick
Ġcher ry
ĠP E
ĠG em
Ġtr unk
Ġsky rock
Ġceremon ies
T ext
che wan
D an
Ġsp un
Ġcondem ning
Ġmim ic
Ġbroadcast s
rain e
H and
yr us
Bit coin
Ġteam ed
W ow
Ġfl ipped
ĠNe igh
Ġvisual s
Ġev id
priv ate
Ġpromin ence
ĠPatri ot
ĠHe ather
Ġske let
ĠSeb astian
Ġburd ens
Ġh ates
ĠF en
is y
Ġassist ing
Ġsm ash
ĠM ubarak
ĠAv iation
Ġl amp
ĠAzer bai
lu ent
Ġproced ural
Ġexhib ited
Ã± a
ĠE cho
ĠN issan
vis ors
ĠP owers
Go vern
ĠKat ie
iv ities
Ġo ri
Ġe ve
Ġs acked
ĠG rowth
iss ue
ru gged
IS IS
Ġproceed ing
ĠBul gar
ĠIS O
Ġvacc ination
Ġill umin
H y
Ġ[ âĢ¦]
n umber
Ġgl owing
ĠL SU
ĠC ain
any e
Ġsin ister
ĠF act
Ġconfig ured
Res p
Ġad am
Ġovert urn
Ġens l
Ġ( .
Ġconsult ants
b b
ĠÂ Ĺ
Ġtheat rical
og rams
Ġoblig ed
Ġunfair ly
ĠG erald
Ġfemin ine
ĠMotor ola
ĠL ords
Ġecl ipse
w agen
Ġor thodox
Ġgr ammar
ĠFreder ick
Ġtrig gering
H ome
ong o
Ġgrad uating
Ġpe as
Ġinc idence
Pal est
s rc
Ġun for
ĠKir by
k ick
Will iams
ĠFranc o
our cing
Le g
og o
Ġthro tt
Ġspec s
N I
ĠSy nd
Ġrese tt
Y S
man agement
Ġ ..
Ġguitar ist
iol a
V I
Ġmoist ure
n as
Ġse ating
Ġen su
È Ļ
Ġhome work
Ġtransfer ring
Ġread ings
Ġ Ø§ÙĦ
Ġto re
Ġyield ed
Ġinter vals
ĠGu ate
Ġparent ing
bur se
Ġpray ing
ĠLes lie
Ġs ands
Ġtermin ation
Ġclar ified
Ġentit lement
Ġ194 6
ĠB O
Ġlim itation
an an
ĠAl v
ĠCom ing
Ġpump ed
op ia
Ġcontrad iction
ĠEv olution
Ġobject ed
S ad
ĠDecl aration
ĠL ac
ĠChrist ine
Ġcor related
Ġtsun ami
oh yd
us ually
Ġmatern al
Ġfulf illed
A c
AM Y
Ġem ission
Ġa ided
rec ogn
ĠMar athon
ĠPrem ium
ut sche
ĠCh ang
Ġswing ing
Ġslog ans
ur istic
Ġox id
fashion ed
Ġaccum ulation
Ġenerget ic
ĠC openhagen
ĠC ous
Ġpass ages
Ġadm issions
Ġd Ã©
Ġlegal ized
Ġ0 3
Ġutil izing
ĠP ip
Ġbal ances
ĠAdd itional
at ra
ĠSh ore
it ious
ĠJac obs
A G
Ġad here
Ġdemol ition
Ġpossess es
ĠN I
Ġnostal gia
Ġrab bit
w omen
ocaly ptic
ĠDe V
ous se
oc ese
Ġpip elines
Ġmat urity
he ne
j ah
Ġp ess
Ġm og
ĠLe eds
Ġcon ve
ĠC ards
Ġdem ographics
ĠSec urities
r anked
Ġst d
ĠDet ective
oy a
Ġbeh old
ĠP v
Ġg it
L ee
ĠAll ied
Ġce ased
r t
ĠD uck
Ġfun nel
cient ific
OR D
K en
ĠT ucker
Ġpharm ac
ĠCom plex
Ġoptim ized
Ġrecept ors
Å Ĥ
Ġblock buster
ld om
ĠR ash
Ġbureaucrat ic
ĠH os
c ats
ron ics
Ġhes itate
ĠSS D
Ġsim ulations
Ġcancell ation
iff erence
Ġkind ness
ĠIll ust
Ġbl ur
Sen ate
Ġling ering
ĠPerson al
Ġhe ars
Ġstr anded
ĠD y
ĠBay lor
ĠPengu ins
Ġcollabor ate
Ġjoint ly
Ġbe verage
Ġbur nt
ch in
Ġ2 20
ĠD NS
ĠNicol as
Con nor
Ġmarket ed
Ġle isure
ĠO C
Ġexerc ising
Ġsupremac ist
ĠR aspberry
ĠJohn ston
Ġstress ful
Ġimag inary
ĠIb rahim
Ġl ent
ar ations
am my
Ġincons ist
Ġnodd ed
ex per
Ġdeb ating
F il
ĠAfric ans
L ou
C ard
Ġvis ions
Ġcub ic
mans hip
Ġs arc
ĠFinn ish
Ġre election
Ġw aving
Ġright eous
ĠPart icip
Ġborrow ers
ĠMan ufact
Ġer osion
Ġgener ators
Ġaut obi
v on
Ġup ro
ĠG ut
Ġschizophren ia
ym es
Ġl ump
Ġsacrific es
Ġf ox
Ġsho ppers
etermin ed
Ġt ying
ĠAn s
Ġsummon ed
Ġspec ulative
ĠJan et
Ġsc outs
r itional
Ġwheel chair
ĠEp ic
Ġstim ulate
r Ã©
Ġvers a
Ġrehe ars
ĠQual ity
Ġmelt down
t ag
Ġdisc arded
Ġche ering
im ation
un n
Ġdepict s
ing le
ĠL TE
ia o
Cons ider
Ġrum ours
medi ately
Ġpresum ed
ĠCons ult
ast ro
Ġconserv atism
Ġrat ios
D aniel
ĠE L
Ġlaund ry
ĠMed al
ĠG ent
Ġre write
V s
Ġarm ored
Ġnot ify
ĠTr ain
ĠS ina
ĠW orth
m oney
Ġy e
Ġprov oked
Ġthr iller
Ġtempt ed
ment ia
Ġdef ects
ĠJoh ann
all ic
ĠIran ians
Ġpe aked
Ġres urg
Ġstandard ized
ĠMy ster
ĠAur ora
Ġgun shot
re lease
ĠHolland e
d ependent
B er
ĠZucker berg
ĠMel issa
Ġmarginal ized
ĠTr inity
ĠLam ar
ĠS kin
ĠR ising
g ard
Ġhit ters
Ġsubpo ena
j pg
Ġbreak out
Ġadvertise ment
ĠMot ion
un ged
Ġamount ed
Ġ19 33
f est
Ġstr at
Ġclass ics
Ġexc luding
atern al
cept ive
12 3
Ġ195 2
Ġqu art
ĠChap man
B B
rent ice
Ġscrut in
Ġdiscrimin ate
Ġn ap
âĢľ [
Ġsepar ating
Ġfear ful
ar is
Ġmagn ificent
Ġmut ually
ĠAst ros
Ġresent ment
Ġob ese
ĠOk ay
ĠS ark
ĠRoc hester
ag ent
b order
Ġhe ap
Å Ł
Ġelect rons
bro ken
Ġe greg
C re
Ġd aunting
ãģ Ħ
Ġam nesty
ĠP ixel
ĠAud i
Ġsurpass ed
Ġdisrupt ed
Ġensu ing
Ġsc rim
ĠVol ks
Ġbl onde
j ad
Ġcat cher
M O
et ics
ĠKa epernick
ĠCy prus
Ġundert aking
ĠF ah
Ġrel iably
ord ered
Ġinflamm atory
ed in
F ore
Ġbo ast
ari us
Ġrig ged
F orm
Ġch olesterol
Ġres umed
ng th
ĠOpp osition
reg ulation
È Ľ
Ġe up
Ġspont aneous
ĠV oy
iov ascular
Ġtermin ated
Ġc apped
Ġche ek
ĠSp ark
200 5
Ġpe aks
Ġdeal ings
Ġcinem atic
f inals
em y
Ġlobby ist
AT H
O per
Ġn ause
Ġgl ue
Ġass im
un ion
Ġjud gments
IC K
Can adian
Ġoverd ose
ĠInterest ingly
Ġinspect ors
Calif ornia
be ck
dig it
ĠC raft
r ice
ĠMo zilla
Ġdis may
o zy
ĠSh ir
its u
at ts
Ġviol ently
Ġground breaking
Ġsem if
Ġwarm th
k ish
Ġwand ering
Ġf erv
ĠE R
com mon
as per
t ar
Ġautom otive
att a
Ġm ornings
Ġvan ished
ĠP av
Ġab using
Ġcommand ing
Ġpossess ing
Ġenvision ed
^ {
ct ica
Ġm s
Ġundert ake
Ġguess ed
ĠSant orum
Ġext r
Ġgeomet ry
ĠS R
Ġ} ,
Col or
ĠM alt
ĠWhe never
ĠUA E
her ty
Ġconf inement
ĠMon roe
inc re
ĠCh oice
pro ject
vid ia
Ġ iv
Ġsm iles
oss ip
ĠAp ache
ĠB ast
ĠDrag ons
ĠFr aser
Ġant iqu
Ġb ishops
ov sky
q qa
Ġpun ches
ĠLaure n
ang a
T urn
ĠLa unch
Ġfasc ism
Ġdomin ating
h ma
Ġ10 4
Ġrall ied
umb les
ĠKit chen
Ġmon st
Ġcor ro
Ġrepl ies
ĠFull er
Ġinsult s
ĠRel igion
Ġde ception
ĠW id
Ġbl itz
Ġpar ody
Ġlik ing
Ġs rc
ĠAud io
Ġre im
id ate
ab ortion
ĠSc and
Ġearthqu akes
Ġnational ists
ru z
Ġcon quer
Ġshow down
Ġout ward
ut able
indust rial
P o
Ġplug ins
Ġapp end
Ġcirc uits
ĠGOOD MAN
ang ling
U se
atter y
ĠStr ategy
s aving
ic ially
Ġing en
Ġrede velop
Ġconfig ure
Ġnewcom ers
end o
re b
VID IA
Ġd op
Ġcl icks
Ġdiff ers
ĠM ist
uff er
Ġbo oming
ĠA ce
ĠNot es
C y
Ġpar ish
Ġc raz
oc re
ĠCont act
ĠValent ine
get own
Any way
Ġens ured
hib ition
Ġsc aled
ĠK abul
ĠTH C
ĠOper a
en za
Ġdist orted
Ġob solete
Ġweek day
Ġpro let
ĠDo om
Ġre aff
id as
Ġhomeless ness
ap les
ĠEconom y
Ġreserv ation
Ġoverr ide
ut tle
il ot
ĠVP N
Ġprec inct
E nd
W all
v ine
p ared
com b
Ġl ays
ve z
car bon
Ġc av
ack ers
ĠR SS
en ary
Ġ: )
Ġre written
ĠSu ccess
ĠTor res
Ġir res
Ġboost ed
Ġsem ester
ren n
ĠH ers
Ne ither
Prof essor
ĠO L
Ġent renched
ĠID F
Ġpenet ration
ĠInnov ation
Ġlos ers
ĠCom plete
Ġexecut ions
Ġthink ers
Ġset back
c urrent
Ġpol es
ĠRock et
Ġprofess ionally
Start ing
Ġz ip
ĠL uk
Ġincomp at
ĠD ance
t arget
ĠNew ark
Ġthr ill
not hing
ĠL ok
Ġfinal ized
Ġdisgr ace
in j
ad an
Ġprop s
ĠWrit ing
ĠT ag
ĠCEO s
ĠCrit ics
Ġende avor
re aching
Ġch ord
Ġindepend ents
Ġd ental
ĠIslam ists
q l
ĠSol omon
ĠEm my
in av
ĠE asy
it imate
ĠP ale
Ġdecl ares
ĠC ed
ĠWar rior
Ġbar bar
Ġb ids
Ġend urance
Ġdr ank
asket ball
ra its
Ġb iod
Ġouts k
ĠPsych ology
f at
ĠA HL
Ġconf ession
ĠÐ ´
c uts
ĠC ert
Ġexp ands
Ġof t
Ġch anting
ĠPer iod
Ġlinem an
ĠAny way
Ġt ones
Ù Ī
Ġacoust ic
ĠH B
Ġpir ate
Ġcontin ental
Ġc affeine
Ġth ieves
De velop
Ġcryptocur rencies
Ġext ras
ĠManit oba
Ġori ented
ace y
Ġbet s
Ġv ind
Event ually
ĠMem ory
itt e
Ġtherap ist
uc ing
R ock
Ġescal ating
onge vity
Ġturb ines
Ġcan cers
Ġter med
ĠSc alia
C raft
Ġencour agement
th inking
Ġharm less
Ġdiscipl ined
ĠFront ier
Ġintercept ed
ĠSouth ampton
Ġreject s
ĠS ig
Ġcapt ive
hy d
Ġacqu aint
ĠPlat form
Ġc ush
ĠPh ase
Ġesc aping
I ron
Ġel usive
ĠAs ked
AR K
ĠKaz akh
ott a
Ġpr ud
ĠLe ad
ĠPop ular
iche ver
Ġbi om
ĠF X
Ġun healthy
nt on
Ġd ictionary
Ġout lines
ĠF ul
Ġaw ait
ĠUg anda
st re
al most
ĠPret ty
ĠF AA
ĠLiber ation
ett es
Ġoun ce
ĠMig uel
ĠBund es
w on
ĠWi Fi
ĠProdu ction
Ġbacter ial
ĠR id
anger ous
S ar
PD F
Ġlegal ize
Ġrespir atory
Ġcum ulative
Ġoptim ization
Ġall iances
Ġha voc
Ġphysic ist
Ġcelebr ates
ĠOb server
ĠClint ons
Ġstock p
ĠT B
Ġpunch ing
pro bably
Ġhar med
gl obal
ĠB ot
Ġcorrect ness
Ġbureaucrat s
ĠGreen e
osh op
Ġse ism
f ed
prof its
Ġinsurg ency
ig ger
Ġsort ed
W R
if ty
Ġz oning
ĠSt eele
ĠB oot
Con f
ĠB rief
Ġpir ates
cr ime
Ġsupp lying
Ġsculpt ure
Pl an
Ġinadvert ently
Ġ19 14
ĠN igel
Ġrev ol
Ġsp ies
Ġdec ree
ĠS ugar
Ġoutsk irts
Ġsy rup
ĠK ol
Ġmuseum s
Ġn g
ĠN PC
ĠDep ending
am oto
Ġcredit ors
ĠStock holm
Ġambig uous
ĠZ omb
out heastern
ms on
bet ween
ĠWhere as
wal ks
ĠSaskat chewan
Cle arly
Ġdev ised
per fect
ĠStephan ie
c hens
ĠOri oles
B ur
ĠRec ent
Ġmult itude
Ġliberal ism
ĠV C
ĠFe el
Ġsmok ers
Ä «
Ġp ins
bet ter
Ġoper ative
Ġpress ured
Î µ
Ġimpress ions
Ġw izard
dem and
Ġbe gging
Ġgrav itational
ĠSt rat
ĠTunis ia
D en
Ġex ert
Ġd reamed
D O
oper ation
Ġfold ed
ĠY ug
ĠF ighting
Ġautom obile
Ġunint ended
ĠWill ie
ĠS ara
ĠP oor
whe ther
Ġch ore
it iveness
ĠHuck abee
W P
m age
Ġelev ation
C OM
ĠR udd
Ġex ams
ĠR i
b ud
Ġchief s
he a
ic z
Ġwid ow
T Y
Ġeas ing
Ġupgr ading
n ick
Ġco ve
ĠNot ice
is ite
Ġrenew ables
f orth
ien ced
Ġmail ing
Ġlith ium
Ġremind ing
re ally
Ġimp ulse
Ġprop het
ĠAdvis ory
Ġcollect s
Ġoutf its
ĠA AA
ĠRut gers
act ivity
Ġmush rooms
ĠT ap
Ġouts ider
ator ium
il o
ĠB end
ĠW ong
ĠS orry
Ġ10 2
AT A
Ġm ish
ĠG iant
Ġso aring
Ġfil tering
S ha
ĠAthlet ic
K evin
ĠPost ed
Ġtro lls
ov able
10 4
Ġcomp ute
Ġpresent ations
r ag
Ġ à¤
Ġpack aged
st own
iv ist
ĠGro ve
Ġsail ors
Mart in
E lect
Ġwhistlebl ower
Ġcult urally
ĠHann ity
ĠEn joy
enn ial
Ġpled ges
ĠWh ole
Ġbe f
Ġhaun ted
Sen ator
Ġth igh
Ġwor m
D am
Ġmis con
coun ter
Ġsav vy
Ġwire t
4 50
Ġs cept
Ġby te
ĠW ash
an ic
ĠLiber ties
ĠCon nor
ĠS ally
Ġbas eman
och ond
ĠJo in
ĠIP CC
Ġplaint iff
ob il
Ġb ishop
ĠSaud is
t imes
Ġmon keys
ĠSm ash
Ġcoh ort
Ġsuperior ity
ĠG amer
Ġlie utenant
Ġtempor al
Ġb orough
Ġdin osaur
ĠSex ual
Ġst aging
ment ing
sc enes
iv or
hard t
greg ated
ĠMoroc co
Ġinform ing
ĠPh arm
Ġble ak
ĠVict ory
Ġf uzz
L ittle
ĠA id
Ġske leton
m em
ĠStand ards
ĠB om
Ġrev ived
ĠS aid
Ġattract ions
Ġadv ising
Ġmot ions
ĠShi ite
Ġin ception
state ment
J ul
Ġre app
Th ird
Ġpoint less
p ent
alk er
Ġtom atoes
Ġ19 38
Ġday light
y en
Ġsal vation
Ġcultiv ation
ĠH iro
ĠIv anka
T witter
Ġflo ated
ĠM ale
News letter
Ġenl isted
ĠHard y
Ġbus h
ĠDani els
Ġgentle man
cl air
Ġn erves
Ġdiscount s
Ġhand ler
t ails
Ġintimid ating
Ġve in
Ġsubstant ive
Ġgenet ics
ĠRest aur
T s
l oss
Ġl akh
ĠW ool
Ġmetab olic
ĠAst ron
ows hip
Ġvigil ant
Ġcomm ute
Ġcor al
Ġerect ed
Ġp ant
ĠCaval iers
ĠG ru
Ġtext book
ĠMcL aren
Serv ice
g ic
ĠWol ver
ĠBron x
fil m
ĠNic ole
ĠB alk
Ġtwe ak
Ġres idency
Ġdep rived
ĠNob le
Ġf oes
Ġadvance ment
S oon
ac iÃ³n
Ġ19 18
ĠBar on
pat rick
Ġsucc umb
L ine
Ġex cel
Ġover weight
uss y
Ġ* /
Ġrou ter
ian n
O pp
ĠInst itution
ĠRiver a
Ġus able
Ġcon gregation
ĠBook er
ĠH our
Ġo scill
ĠBar cl
ĠCons idering
ĠBar r
ĠWe ber
Ġqu oting
Ġaccompl ishment
ĠB T
ĠA ber
ĠFernand o
Ġexceed s
d oc
Ġhazard ous
C arl
ĠV it
vel ength
feed ing
Ġref lex
ĠNap ole
Ġsw ings
ilib rium
Ġproport ional
Ġsoc ks
Ġpreced ed
ĠC opy
ĠTe en
is ine
ĠPer th
F ull
Ġrot ate
ĠW ave
ĠH ERE
W al
ĠThat cher
Ġto es
inter pret
Ġnot eworthy
o il
Ġa ce
Ġcommand ed
Ġn ude
Ġgl aring
av ier
rac use
Ġabol ition
it ations
cl ose
Ġow es
ĠDw ight
che t
ut z
Ġpar aly
Jew ish
ĠRaf ael
Ġstand alone
Ġhall way
com ings
... ]
e ight
ĠHoff man
OC K
Ġinv ites
and um
s hips
CL OSE
ĠK ris
Ġtrans itions
Ġtast ing
ĠL is
c ool
Ġas ym
ĠF usion
ract ors
Ġrec ess
ĠRom ans
Ġsynt hesis
ĠOrgan isation
Ñ İ
ĠD B
p sych
Ġdump ing
Ġt ighter
us ch
ãĥ ¼
Ġp es
us able
ĠR ena
ĠB ag
Ġassist ants
Ġlandl ord
yr r
Ġoccup ying
Ġsur rendered
Ġmos ques
Ġst ared
ĠAntar ctica
Ġinter change
Ġintens ified
ur ances
Ð½ Ð¸
Ġintellectual s
V ideo
b ee
ĠPer kins
ĠAss ass
Ġfoc al
i ologist
Ġtempt ing
ĠJoe y
Ġabandon ing
B rad
ĠI PA
ĠCom bat
Ġb olt
ĠCom put
ĠJ ail
in ness
Ġliquid ity
S un
ys ics
se ll
bl own
bor g
m ot
Ġa unt
Ġ19 36
Ġtoler ated
ur ations
Ġcur ves
Ġdist rust
Ġhop s
ĠTw ilight
Ġafford ed
ĠGuj arat
Ġcontext s
ĠSh annon
Ġ ë
Ġpromin ently
ĠF ry
ĠElect ions
ee ks
Ġtrib unal
Ġco b
ĠUn cle
Ġadm ired
Ġhur ry
ĠR anch
Ġdraft s
lud es
Ġdemol ished
ĠR unning
ĠRes istance
Ġsecret ive
Ġdrunk en
Ġm our
ser ving
Ġs igh
Ġse ldom
Ġher ald
D D
Ġexperiment ation
Ġaud ition
ĠMarket ing
Ġbrut ally
Ġsubst it
reat ing
Ġsn iff
ĠD ew
uck land
Sec ret
ĠM T
Ġbl o
10 3
Ġsn ipp
ĠJagu ars
Ġill um
J ournal
ixt ures
Ġbrief ed
ordin arily
i ago
Ġgreat ness
Ġflour ish
Ġtar iffs
Ġimp erson
Ġrul ings
Ġconfron ting
ĠB oulder
ib o
Ġun ravel
ĠFr ances
Ġdis l
Ġimperial ism
Ġt read
r ar
Ġcoll ateral
ĠMic key
Ġpess im
ĠMcG regor
Ġt ipping
EC D
Ġloose ly
per cent
Ġjur ors
Ġquarter ly
Ġeduc ators
C opyright
od o
Ġassign ments
Ġfright ened
l ar
Ġgl or
r ish
Ġrestruct uring
ĠD iana
Ġyoung sters
Ġuns ur
ĠInter state
L P
U ser
Ġfilib uster
se mble
Ġparallel s
m g
Ġgate way
su le
ra ud
L og
ĠEC B
h oles
Ġqual ifications
Ġbook ing
ĠSy racuse
Ġr ays
Ġdisproportion ate
Ġ20 50
Ġstand off
oh an
Aug ust
Ġpeace fully
ĠKey nes
ĠWik ileaks
Ġunav ailable
ĠB ass
Ġplan ners
Ġsun ny
Ġemp owered
Ġharm on
re hens
Ġmodel ed
ete enth
ĠP TSD
- $
ĠM ental
Ġbillion aires
Ġdivid ends
t urned
Ġwitness ing
ĠGod s
Ġspe lling
ĠP om
Ġclass mates
ĠUnder ground
ĠD odd
Ġg a
um at
Ġban ana
oft en
ĠAs ide
Ġsanction ed
ger ies
Ï Ħ
Ġe in
Ð¾Ð »
Ġeuro zone
r iminal
Ġship ments
occup ied
though t
m ong
Ġchrom os
NA SA
Ad am
Ġâ Ķ
acc ount
Ġsh aft
Ġenjoy ment
Ġcop ying
Ġimpl icated
ets k
ĠT witch
Ġresil ience
ĠG ust
Ġassault ing
Ġpack et
ĠOrig in
elect ric
n ation
ber ries
Ġthere of
ĠSh arks
Ġbr ighter
ĠN R
Ġpin point
Ġb ounty
ĠCanad iens
Jo in
Ġfoot steps
Ġ} ;
ĠAna heim
Ġpro pe
Ġsh ores
ĠConst ruction
x imately
Ġfasc inated
ĠLatin os
Ġanom al
Get ting
Ġcros sover
Ġportray al
Ġcataly st
ke f
Ġsw ath
ĠI X
Ġd ar
Ġcap sule
z ens
Ġm ates
Ġemb ro
ct ory
ĠMart y
ĠRom a
Ġrain bow
ĠC ec
Ġassert ions
Ġal phabet
ĠN u
Ġrecre ation
un ky
Ġspread s
Ġmonop ol
V is
Ġbl ades
if ts
ĠRou ge
ĠG C
Ġob ey
ĠTown s
m ult
Ġrecogn izable
Ġnote book
Ġir rig
cl amation
Ġinherit ance
Ġwa iver
ĠVenezuel an
ĠA ch
Ġimmense ly
ĠM au
Ġisol ate
ĠMan ila
Ġdatas et
ĠR ise
Ġo min
ĠChand ler
Ð» Ð¸
Ġsqu ir
Ġgall on
ĠF riend
our ced
ĠLu cy
z ero
ĠAbor iginal
Ġplot ting
Ġg amer
Ġlear nt
Ġescal ated
Ġsit com
Ġsod ium
Ġno od
Ġprogram med
ĠSh ap
quest ion
Ġhurd les
ĠB irth
ra e
Ġtun ing
Ġcard iovascular
S l
Ġp ne
Ġbi ases
Ġge ographical
Ġech oes
ĠIn come
Ġher d
t ank
Ġout post
ĠC aucas
Ġass erts
Ġalumn i
â Ļ
Ġexpans ive
ĠEx pect
Ġlo ops
ĠAz ure
aw k
Ġbl ink
Ġmedi ocre
Ġjoint s
am bo
Spe cial
pr act
ĠCo ver
Ġspecial izes
ess ment
Ġt an
ĠT umblr
ĠHor izon
p ine
ab outs
ĠN ets
Ġout p
Ġr anch
P rodu
pay ing
Ðµ ÑĤ
Ġsqu ares
Ġbright ness
ĠTon ight
Ġfet ch
Ġhate ful
Ġstere oty
ĠKn ox
Ġun used
Ġtwe aks
Å «
Ġcampaign ers
Ġdish onest
ĠV ote
ĠMar riage
ent on
Ġprag matic
11 5
Ġsu icidal
Ġ195 1
Ġclass rooms
Ġst aunch
Ġs ocket
ib and
b augh
st en
Ġunreal istic
ĠJ al
[...]
