{"<s>":0,"<pad>":1,"</s>":2,"<unk>":3,"<mask>":4,"!":5,"\"":6,"#":7,"$":8,"%":9,"&":10,"'":11,"(":12,")":13,"*":14,"+":15,",":16,"-":17,".":18,"/":19,"0":20,"1":21,"2":22,"3":23,"4":24,"5":25,"6":26,"7":27,"8":28,"9":29,":":30,";":31,"<":32,"=":33,">":34,"?":35,"@":36,"A":37,"B":38,"C":39,"D":40,"E":41,"F":42,"G":43,"H":44,"I":45,"J":46,"K":47,"L":48,"M":49,"N":50,"O":51,"P":52,"Q":53,"R":54,"S":55,"T":56,"U":57,"V":58,"W":59,"X":60,"Y":61,"Z":62,"[":63,"\\":64,"]":65,"^":66,"_":67,"`":68,"a":69,"b":70,"c":71,"d":72,"e":73,"f":74,"g":75,"h":76,"i":77,"j":78,"k":79,"l":80,"m":81,"n":82,"o":83,"p":84,"q":85,"r":86,"s":87,"t":88,"u":89,"v":90,"w":91,"x":92,"y":93,"z":94,"{":95,"|":96,"}":97,"~":98,"¡":99,"¢":100,"£":101,"¤":102,"¥":103,"¦":104,"§":105,"¨":106,"©":107,"ª":108,"«":109,"¬":110,"®":111,"¯":112,"°":113,"±":114,"²":115,"³":116,"´":117,"µ":118,"¶":119,"·":120,"¸":121,"¹":122,"º":123,"»":124,"¼":125,"½":126,"¾":127,"¿":128,"À":129,"Á":130,"Â":131,"Ã":132,"Ä":133,"Å":134,"Æ":135,"Ç":136,"È":137,"É":138,"Ê":139,"Ë":140,"Ì":141,"Í":142,"Î":143,"Ï":144,"Ð":145,"Ñ":146,"Ò":147,"Ó":148,"Ô":149,"Õ":150,"Ö":151,"×":152,"Ø":153,"Ù":154,"Ú":155,"Û":156,"Ü":157,"Ý":158,"Þ":159,"ß":160,"à":161,"á":162,"â":163,"ã":164,"ä":165,"å":166,"æ":167,"ç":168,"è":169,"é":170,"ê":171,"ë":172,"ì":173,"í":174,"î":175,"ï":176,"ð":177,"ñ":178,"ò":179,"ó":180,"ô":181,"õ":182,"ö":183,"÷":184,"ø":185,"ù":186,"ú":187,"û":188,"ü":189,"ý":190,"þ":191,"ÿ":192,"Ā":193,"ā":194,"Ă":195,"ă":196,"Ą":197,"ą":198,"Ć":199,"ć":200,"Ĉ":201,"ĉ":202,"Ċ":203,"ċ":204,"Č":205,"č":206,"Ď":207,"ď":208,"Đ":209,"đ":210,"Ē":211,"ē":212,"Ĕ":213,"ĕ":214,"Ė":215,"ė":216,"Ę":217,"ę":218,"Ě":219,"ě":220,"Ĝ":221,"ĝ":222,"Ğ":223,"ğ":224,"Ġ":225,"ġ":226,"Ģ":227,"ģ":228,"Ĥ":229,"ĥ":230,"Ħ":231,"ħ":232,"Ĩ":233,"ĩ":234,"Ī":235,"ī":236,"Ĭ":237,"ĭ":238,"Į":239,"į":240,"İ":241,"ı":242,"Ĳ":243,"ĳ":244,"Ĵ":245,"ĵ":246,"Ķ":247,"ķ":248,"ĸ":249,"Ĺ":250,"ĺ":251,"Ļ":252,"ļ":253,"Ľ":254,"ľ":255,"Ŀ":256,"ŀ":257,"Ł":258,"ł":259,"Ń":260,"Ġt":261,"Ġa":262,"he":263,"in":264,"re":265,"Ġthe":266,"on":267,"er":268,"Ġs":269,"Ġw":270,"at":271,"Ġo":272,"en":273,"Ġc":274,"it":275,"is":276,"an":277,"Ġb":278,"or":279,"Ġf":280,"ed":281,"es":282,"ing":283,"Ġp":284,"ou":285,"Ġan":286,"Ġto":287,"al":288,"ar":289,"Ġm":290,"Ġin":291,"Ġof":292,"Ġh":293,"Ġd":294,"Ġand":295,"as":296,"âĢ":297,"Ġth":298,"ic":299,"le":300,"om":301,"ion":302,"ent":303,"ll":304,"Ġn":305,"Ġl":306,"Ġre":307,"st":308,"ve":309,"ly":310,"Ġe":311,"Ġbe":312,"Ġg":313,"ro":314,"id":315,"ut":316,"ac":317,"ot":318,"Ġthat":319,"Ġon":320,"ĠT":321,"ĠI":322,"ay":323,"Ġis":324,"im":325,"se":326,"am":327,"âĢĻ":328,"ad":329,"Ġfor":330,"ow":331,"et":332,"ig":333,"ĠS":334,"ver":335,"ld":336,"ĠA":337,"ur":338,"ct":339,"Ġu":340,"Ġst":341,"Ġit":342,"Ġy":343,"ĠC":344,"Ġhe":345,"Ġwh":346,"ir":347,"ith":348,"ation":349,"ce":350,"Ġwe":351,"ter":352,"ol":353,"Ġwith":354,"ĠM":355,"Ġas":356,"il":357,"ch":358,"ill":359,"ĠB":360,"nd":361,"Ġwas":362,"ers":363,"ke":364,"ĠâĢ":365,"Ġyou":366,"Ġcon":367,"Ġde":368,"Ġr":369,"her":370,"if":371,"ate":372,"ĠP":373,"Ġat":374,"Ġha":375,"Ġse":376,"Ġpro":377,"ag":378,"ore":379,"ul":380,"pp":381,"Ġare":382,"ĠW":383,"Ġcom":384,"Ġfr":385,"ment":386,"ĠH":387,"est":388,"ist":389,"and":390,"us":391,"ain":392,"op":393,"ĠThe":394,"igh":395,"ri":396,"ort":397,"Ġne":398,"ĠD":399,"Ġex":400,"ĠR":401,"od":402,"Ġ1":403,"âĢĿ":404,"um":405,"res":406,"Ġnot":407,"Ġhave":408,"un":409,"ould":410,"ab":411,"Ġ2":412,"ess":413,"Ġor":414,"ity":415,"Ġv":416,"ĠF":417,"em":418,"Ġby":419,"art":420,"ant":421,"ive":422,"Ġfrom":423,"Ġal":424,"Ġ(":425,"os":426,"ĠN":427,"Ġsu":428,"th":429,"oc":430,"'s":431,"Ġsh":432,"ĠG":433,"nt":434,"el":435,"Ġthis":436,"qu":437,"Ġle":438,"ight":439,"ust":440,"pe":441,"ies":442,"end":443,"Ġch":444,"Ġab":445,"ĠL":446,"out":447,"Ġsa":448,"ĠâĢľ":449,"Ġhas":450,"ally":451,"all":452,"red":453,"ack":454,"Ġpl":455,"ie":456,"ĠE":457,"Ġgo":458,"The":459,"Ġhis":460,"ome":461,"iv":462,"gh":463,"ard":464,"ear":465,"Ġtr":466,"ĠJ":467,"ost":468,"Ġj":469,"ast":470,"ap":471,"our":472,"ak":473,"ud":474,"Ġthey":475,"00":476,"Ġbut":477,"Ġdo":478,"Ġwor":479,"ĠO":480,"Ġwhe":481,"rou":482,"Ġwill":483,"Ġcan":484,"ich":485,"Ġsaid":486,"ge":487,"Ġwho":488,"Ġall":489,"Ġk":490,"ĠU":491,"Ġint":492,"ok":493,"Ġtheir":494,"ide":495,"ther":496,"Ġout":497,"ans":498,"Ġ\"":499,"ame":500,"ial":501,"ong":502,"ff":503,"ect":504,"ice":505,"pl":506,"Ġmore":507,"ure":508,"Ġup":509,"one":510,"ike":511,"ions":512,"ous":513,"act":514,"pt":515,"Ġme":516,"Ġad":517,"Ġabout":518,"age":519,"ine":520,"Ġone":521,"Ġwere":522,"Ġso":523,"ated":524,"Ġhad":525,"Ġus":526,"ime":527,"Ġwhich":528,"Ġwould":529,"ber":530,"cc":531,"ep":532,"ra":533,"Ġcl":534,"Ġim":535,"Ġag":536,"og":537,"are":538,"ub":539,"very":540,"Ġte":541,"ake":542,"Ġoff":543,"Ġcont":544,"Ġcomp":545,"ind":546,"iz":547,"Ġbeen":548,"ia":549,"ue":550,"Ġun":551,"ĠK":552,"Ġen":553,"au":554,"Ġyear":555,"so":556,"ign":557,"per":558,"Ġ20":559,"ĠTh":560,"Ġlike":561,"Ġinc":562,"Ġpe":563,"ven":564,"ary":565,"Ġman":566,"ace":567,"ip":568,"ose":569,"ays":570,"ĠSt":571,"Ġper":572,"ew":573,"Ġres":574,"Ġsp":575,"ere":576,"ry":577,"Ġother":578,"ook":579,"mer":580,"able":581,"Ġsome":582,"ite":583,"ord":584,"ople":585,"ass":586,"ire":587,"ile":588,"ence":589,"Ġover":590,"ĠIn":591,"ib":592,"Ġthere":593,"Ġbec":594,"Ġthan":595,"ations":596,"Ġdis":597,"ical":598,"Ġthem":599,"Ġalso":600,"Ġnew":601,"ough":602,"ress":603,"ult":604,"Ġpart":605,"ks":606,"ount":607,"Ġwhen":608,"Ġar":609,"Ġapp":610,"Ġpeople":611,"own":612,"int":613,"ance":614,"fter":615,"port":616,"Ġwhat":617,"Ġsc":618,"Ġits":619,"ree":620,"Ġ201":621,"Ġqu":622,"ru":623,"Ġjust":624,"orm":625,"ond":626,"Ġpr":627,"Ġany":628,"ail":629,"Ġyour":630,"ĠIt":631,"Ġtime":632,"ase":633,"Ġrec":634,"ach":635,"Ġkn":636,"Ġher":637,"av":638,"ĠCh":639,"Ġif":640,"Ġinto":641,"Ġwork":642,"reat":643,"Ġget":644,".âĢĿ":645,"ens":646,"lic":647,"Ġmy":648,"Ġtw":649,"irst":650,"ian":651,"vel":652,"Ġno":653,"ound":654,"du":655,"ĠY":656,"ction":657,"ident":658,"ings":659,"Ġour":660,"ition":661,"ors":662,"Ġpre":663,"Ġplay":664,"ause":665,"Ġco":666,"ick":667,"ĠV":668,"wn":669,"ory":670,"ob":671,"Ġpol":672,"ates":673,"hing":674,"ade":675,"ang":676,"itt":677,"Ġro":678,"ink":679,"Ġafter":680,"Ġshe":681,"Ġ3":682,"Ġcould":683,"Ġfirst":684,"ark":685,"amp":686,"Ġhow":687,",âĢĿ":688,"Ġacc":689,"vers":690,"ove":691,"ĠHe":692,"ious":693,"Ġhim":694,"nder":695,"Ġpo":696,"Ġonly":697,"Ġatt":698,"ild":699,"aw":700,"ne":701,"Ġfe":702,"Ġtwo":703,"ons":704,"hed":705,"Ġcomm":706,"ict":707,"Ġ19":708,"'t":709,"Ġact":710,"Ġser":711,"Ġspe":712,"Ġdec":713,"ish":714,"Ġbet":715,"form":716,"ov":717,"Ġbl":718,"we":719,"Ġmost":720,"Ġback":721,"ning":722,"ft":723,"rough":724,"ces":725,"te":726,"Ġam":727,".\"":728,"Ġagain":729,"âĢľ":730,"round":731,"iff":732,"Ġbecause":733,"ood":734,"Ġdid":735,"Ġunder":736,"oy":737,"ĠâĢĶ":738,"Ġdes":739,"ater":740,"Ġcons":741,"Ġwant":742,"day":743,"ual":744,"Ġ-":745,"Ġyears":746,"ck":747,"lud":748,"sel":749,"ublic":750,"Ġeven":751,"Ġinv":752,"Ġneed":753,"rit":754,"ents":755,"tern":756,"Ġnow":757,"ull":758,"Ġind":759,"ced":760,"Ġsec":761,"Ġknow":762,"man":763,"Ġsee":764,"fore":765,"Ġevery":766,"Ġadd":767,"uch":768,"iss":769,"Ġmake":770,"ĠWe":771,"old":772,"Ġsupp":773,"Ġem":774,"Ġwhere":775,"ĠâĢĵ":776,"ments":777,"pect":778,"Ġthese":779,"Ġ$":780,"vern":781,"ec":782,"urn":783,"ational":784,",\"":785,"ĠUn":786,"ise":787,"ject":788,"Ġway":789,"Ġbu":790,"Ġbeing":791,"Ġev":792,"Ġmany":793,"Ġ4":794,"ĠAnd":795,"Ġpos":796,"Ġlook":797,"ĠBut":798,"ating":799,"ump":800,"Ġdon":801,"Ġrem":802,"Ġinclud":803,"Ġright":804,"Ġmay":805,"Ġthen":806,"ock":807,"Ġrel":808,"Ġdiff":809,"In":810,"Ġdef":811,"lect":812,"Ġcall":813,"ason":814,"meric":815,"aking":816,"ily":817,"Ġreg":818,"Ġthrough":819,"row":820,"xt":821,"Ġimp":822,"ased":823,"Ġlast":824,"Ġthink":825,"Ġpres":826,"Ġthose":827,"ied":828,"uring":829,"ng":830,"Ġfl":831,"ited":832,"ĠTr":833,"oll":834,"Ġvery":835,"Ġsy":836,"Ġsay":837,"Ġshould":838,"Ġstate":839,"Ġmuch":840,"Ġshow":841,"ities":842,"other":843,"Ġbr":844,"Ġcount":845,").":846,"Ġwell":847,"ative":848,"ĠThis":849,"rib":850,"iew":851,"ific":852,"ower":853,"les":854,"ts":855,"Ġ5":856,"Ġown":857,"ath":858,"arly":859,"oth":860,"ting":861,"Ġend":862,"ved":863,"Ġgovern":864,"arg":865,"Th":866,"hen":867,"ĠAmeric":868,"und":869,"ince":870,"Ġph":871,"Ġdown":872,"Ġdoes":873,"Ġuse":874,"Ġbefore":875,"Ġlong":876,"ell":877,"Ġmon":878,"omet":879,"als":880,"ss":881,"ters":882,"ange":883,"Ġbel":884,"Ġteam":885,"ward":886,"ics":887,"ty":888,"Ġstart":889,"ible":890,"gr":891,"Ġke":892,"Ġreport":893,"Ġfin":894,"Ġmade":895,"Ġsuch":896,"Ġ200":897,"ont":898,"ĠWh":899,"ues":900,"Ġworld":901,"Ġass":902,"oun":903,"ually":904,"Ġgoing":905,"Ġhel":906,"olog":907,"ble":908,"Ġstud":909,"ists":910,"ener":911,"ful":912,"Ġac":913,"Ġsm":914,"),":915,"ife":916,"..":917,"Ġwee":918,"ren":919,"up":920,"erson":921,"Ġagainst":922,"ility":923,"tain":924,"ism":925,"Ġsur":926,"ĠNew":927,"Ġgood":928,"Ġeff":929,"Ġsub":930,"li":931,"Ġgame":932,"Ġwhile":933,"Ġent":934,"Ġpoint":935,"illion":936,"Ġlead":937,"gan":938,"Ġset":939,"Ġstill":940,"Ġgu":941,"Ġhelp":942,"its":943,"roup":944,"ving":945,"stem":946,"ween":947,"Ġprodu":948,"ork":949,"ars":950,"Ġmin":951,"Ġob":952,"imes":953,"ys":954,"Ġgr":955,"Ġsim":956,"Ġstr":957,"Ġinst":958,"ms":959,"Ġconf":960,"cy":961,"Ġinter":962,"cess":963,"Ġsays":964,"It":965,"Ġtake":966,"Ġsame":967,"Ġcol":968,"Ġoffic":969,"self":970,"alk":971,"Ġprov":972,"Ġbetween":973,"Ġdisc":974,"Ġgovernment":975,"ax":976,"Ġthough":977,"Ġlaw":978,"âĢĶ":979,"Ġcr":980,"Ġdiffere":981,"ix":982,"000":983,"Ġhigh":984,"ever":985,"ank":986,"Ġop":987,"uss":988,"Ġnum":989,"cent":990,"Ġsign":991,"ures":992,"ution":993,"hip":994,"any":995,"read":996,"Ġter":997,"arch":998,"led":999,"Ġsomet":1000,"ool":1001,"ef":1002,"air":1003,"way":1004,"velop":1005,"Ġref":1006,"io":1007,"gg":1008,"Ġins":1009,"Ġaround":1010,"Ġrun":1011,"land":1012,"Ġthree":1013,"Ġtrans":1014,"ner":1015,"Ġmem":1016,"Ġfound":1017,"Ġmed":1018,"ames":1019,"Ġreal":1020,"ives":1021,"hes":1022,"ather":1023,".[":1024,"Ġgroup":1025,"Ġsystem":1026,"Ġexp":1027,"Ġused":1028,"ouse":1029,"Ġreally":1030,"ves":1031,"Ġpublic":1032,"Ġsupport":1033,"Ġspec":1034,"con":1035,"ee":1036,"cept":1037,"Ġcour":1038,"ah":1039,"ying":1040,"Ġ6":1041,"Ġhand":1042,"cer":1043,"oot":1044,"Ġgreat":1045,"atch":1046,"ollow":1047,"Ġmod":1048,"ci":1049,"Ġret":1050,"ense":1051,"Ġext":1052,"ĠThey":1053,"Ġfam":1054,"Ġcar":1055,"com":1056,"ave":1057,"Ġcur":1058,"ĠTrump":1059,"Ġfact":1060,"Ġboth":1061,"Ġexper":1062,"We":1063,"Ġwom":1064,"Ġrep":1065,"alth":1066,"az":1067,"ĠYou":1068,"ale":1069,"irect":1070,"Ġfind":1071,"Ġday":1072,"Ġhapp":1073,"Ġduring":1074,"ices":1075,"ular":1076,"min":1077,"ĠAr":1078,"Ġcap":1079,"Ġdevelop":1080,"Ġmonth":1081,"Ġsl":1082,"Ġhere":1083,"Ġdet":1084,"Ġbig":1085,"Ġsince":1086,"Ġaut":1087,"ĠFr":1088,"Ġcre":1089,"ins":1090,"ĠAl":1091,"ered":1092,"ĠAs":1093,"ording":1094,"Ġtold":1095,"Ġperson":1096,"Ġweek":1097,"pr":1098,"ically":1099,"ph":1100,"Ġpolit":1101,"ision":1102,"ĠIs":1103,"ines":1104,"Ġiss":1105,"ton":1106,"Ġleg":1107,"Ġfew":1108,"Ġcent":1109,"akes":1110,"get":1111,"ĠRe":1112,"Ġwar":1113,"ared":1114,"Ġread":1115,"the":1116,"Ġopp":1117,"ivers":1118,"Ġlot":1119,"ĠCom":1120,"med":1121,"Ġbelie":1122,"aj":1123,"Ġ10":1124,"oh":1125,"Ġexpl":1126,"orth":1127,"Ġgener":1128,"iet":1129,"Ġfollow":1130,"Ġput":1131,"Ġprot":1132,"Ġfil":1133,"bers":1134,"Ġtoo":1135,"Ġcle":1136,"ention":1137,"Ġrequ":1138,"ĠIf":1139,"ĠCl":1140,"rent":1141,"Ġanother":1142,"ex":1143,"Ġinvest":1144,"Ġsomething":1145,"Ġsoc":1146,"ric":1147,"ized":1148,"Ġdifferent":1149,"Ġcontin":1150,"Ġloc":1151,"chool":1152,"der":1153,"Ġcommun":1154,"Ġpower":1155,"anc":1156,"Ġcamp":1157,"Ġresp":1158,"Ġinf":1159,"Ġcor":1160,"Ġvot":1161,"Ġplan":1162,"Ġpass":1163,"Ġfar":1164,"ness":1165,"ience":1166,"ash":1167,"Ġposs":1168,"ages":1169,"Ġ[":1170,"Ġrele":1171,"Ġ7":1172,"Ġmight":1173,"Ġhead":1174,"ned":1175,"Ġthings":1176,"uc":1177,"ĠLe":1178,"ata":1179,"ute":1180,"Ġbo":1181,"Ġlife":1182,"Ġdep":1183,"ross":1184,"Ġmark":1185,"Ġche":1186,"iness":1187,"Ġbus":1188,"thing":1189,"Ġchild":1190,"Ġadv":1191,"ets":1192,"Ġchar":1193,"Ġallow":1194,"Ġpercent":1195,"Ġmet":1196,"Ġeach":1197,"erest":1198,"Ġdem":1199,"ants":1200,"Ġnever":1201,"ody":1202,"Ġcome":1203,"Ġsecond":1204,"att":1205,"Ġbest":1206,"Ġnext":1207,"Ġask":1208,"Ġart":1209,"ĠSh":1210,"Ġseem":1211,"Ġopen":1212,"ĠThat":1213,"Ġquest":1214,"ient":1215,"ize":1216,"ret":1217,"Ġgot":1218,"ield":1219,"Ġpri":1220,"ital":1221,"ittle":1222,"rat":1223,"ier":1224,"Ġdirect":1225,"Ġfeel":1226,"ĠâĢĺ":1227,"ten":1228,"gram":1229,"Ġincluding":1230,"Ġhome":1231,"Ġincre":1232,"nce":1233,"Ġdist":1234,"Ġmillion":1235,"Ġhard":1236,"view":1237,"Ġcontro":1238,"ĠRep":1239,"ired":1240,"conom":1241,"ĠFor":1242,"Ġcountry":1243,"ĠDe":1244,"Ġcare":1245,"Ġwr":1246,"ately":1247,"Ġ8":1248,"Ġimport":1249,"less":1250,"Ġwithout":1251,"ling":1252,"Ġplace":1253,"Ġresult":1254,"Ġcomple":1255,"ĠUS":1256,"Ġhum":1257,"Ġide":1258,"erv":1259,"chn":1260,"Ġrecent":1261,"This":1262,"ple":1263,"Ġpost":1264,"ik":1265,"Ġproble":1266,"Ġbuild":1267,"Ġnumber":1268,"ably":1269,"Ġfour":1270,"aim":1271,"orn":1272,"osed":1273,"Ġseason":1274,"ĠSe":1275,"Ġinform":1276,"Ġtop":1277,"ama":1278,"Ġstand":1279,"Ġpartic":1280,"Ġav":1281,"gy":1282,"ĠAn":1283,"oney":1284,"Ġbetter":1285,"Ġinterest":1286,"Ġless":1287,"Ġmov":1288,"Ġ9":1289,"Ġgl":1290,"uro":1291,"Ġmil":1292,"son":1293,"Ġappro":1294,"ration":1295,"Ġel":1296,"ways":1297,"Ġcalled":1298,"Ġtri":1299,"Ġbeh":1300,"Ġturn":1301,"Ġlittle":1302,"Ġ'":1303,"ished":1304,"Ġann":1305,"Ġed":1306,"Ġbro":1307,"ised":1308,"ral":1309,"Ġpop":1310,"Ġlet":1311,"Ġcase":1312,"Ġmove":1313,"Ġrest":1314,"ug":1315,"ract":1316,"Ġdr":1317,"ajor":1318,"ency":1319,"Ġkeep":1320,"Ġleft":1321,"ĠThere":1322,"ering":1323,"leg":1324,"Ġserv":1325,"Ġattack":1326,"Ġprogram":1327,"oss":1328,"Ġeconom":1329,"Ġprev":1330,"Ġpay":1331,"Ġdidn":1332,"Wh":1333,"line":1334,"co":1335,"ĠPro":1336,"ted":1337,"ĠAmerican":1338,"Ġfull":1339,"Ġmain":1340,"Ġpolice":1341,"Ġusing":1342,"Ġeffect":1343,"rem":1344,"app":1345,"ready":1346,"ĠInd":1347,"Ġtest":1348,"Ġschool":1349,"Ġpresident":1350,"ina":1351,"ature":1352,"Ġsmall":1353,"But":1354,"Ġwin":1355,"Ġval":1356,"Ġcompany":1357,"iving":1358,"cl":1359,"Ġform":1360,"Ġdata":1361,"be":1362,"Ġfun":1363,"ploy":1364,"Ġwomen":1365,"inal":1366,"ided":1367,"arge":1368,"ĠBl":1369,"Ġprom":1370,"Ġeas":1371,"Ġnews":1372,"Ġprocess":1373,"ains":1374,"Ġlevel":1375,"Ġrece":1376,"ined":1377,"Ġhist":1378,"Ġcurrent":1379,"Ġ.":1380,"Ġrese":1381,"Ġalready":1382,"Ġchange":1383,"ĠSo":1384,"ians":1385,"hor":1386,"to":1387,"Ġdri":1388,"ology":1389,"ĠUnited":1390,"used":1391,"Ġbusiness":1392,"ird":1393,"Ġtechn":1394,"ead":1395,"Ġlist":1396,"Ġofficial":1397,"ĠZ":1398,"Ġorgan":1399,"Ġunt":1400,"Ġmoney":1401,"aign":1402,"Ġexpect":1403,"ger":1404,"Ġsol":1405,"Ġjob":1406,"Ġmajor":1407,"'re":1408,"Ġbre":1409,"Ġclaim":1410,"Ġalways":1411,"Ġable":1412,"Ġlater":1413,"Ġproject":1414,"ĠOb":1415,"ends":1416,"Ġmat":1417,"Ġprof":1418,"uck":1419,"ode":1420,"Ġwhy":1421,"stand":1422,"Ġbook":1423,"Ġpast":1424,"Ġhealth":1425,"Ġdesign":1426,"Ġty":1427,"ertain":1428,"ĠAt":1429,"Ġthing":1430,"ruct":1431,"Ġcity":1432,"iven":1433,"Ġtalk":1434,"ĠChr":1435,"ĠShe":1436,"Ġclass":1437,"iversity":1438,"reen":1439,"Ġoper":1440,"ases":1441,"Ġele":1442,"aff":1443,"Ġimportant":1444,"Ġpur":1445,"Ġaway":1446,"Ġinformation":1447,"ards":1448,"20":1449,"ending":1450,"Ġcampaign":1451,"Ġchang":1452,"Ġvis":1453,"Ġgrow":1454,"Ġest":1455,"Ġleast":1456,"Ġdoesn":1457,"ohn":1458,"ĠHow":1459,"Ġfree":1460,"ural":1461,"Ġcost":1462,"ior":1463,"--":1464,"Ġmust":1465,"urity":1466,"outh":1467,"Ġmaking":1468,"Ġhappen":1469,"ury":1470,"Ġcame":1471,"Ġenough":1472,"Ġold":1473,"ained":1474,"ured":1475,"Ġtax":1476,"acy":1477,"ional":1478,"Ġhop":1479,"Ġconst":1480,"Ġkill":1481,"Ġpolic":1482,"Ġelect":1483,"Ġsk":1484,"Ġlarge":1485,"Ġstre":1486,"resident":1487,"Ġaff":1488,"Ġpat":1489,"Ġdays":1490,"Ġear":1491,"side":1492,"Ġkind":1493,"Ġpolitical":1494,"rap":1495,"ample":1496,"Ġmen":1497,"ission":1498,"Ġmar":1499,"ides":1500,"here":1501,"eral":1502,"Ġtell":1503,"Ġrecord":1504,"ĠRepublic":1505,"Ġvar":1506,"ĠCan":1507,"Ġ--":1508,"ccess":1509,"Ġfamily":1510,"ney":1511,"Ġsit":1512,"ider":1513,"ron":1514,"Ġuntil":1515,"els":1516,"ocrat":1517,"He":1518,"Ġworking":1519,"Ġdeal":1520,"Ġstory":1521,"ising":1522,"Ġfri":1523,"Ġdeb":1524,"Ġformer":1525,"Ġtook":1526,"pped":1527,"Ġintern":1528,"ived":1529,"Ġaccording":1530,"Ġview":1531,"Ġfund":1532,"alf":1533,"Ġbecome":1534,"ption":1535,"Ġfore":1536,"Ġes":1537,"ality":1538,"sc":1539,"Ġoften":1540,"Ġactually":1541,"ern":1542,"ĠQ":1543,"ott":1544,"Ġve":1545,"arent":1546,"Ġline":1547,"ries":1548,"ified":1549,"ĠGo":1550,"As":1551,"Ġair":1552,"iol":1553,"aining":1554,"ush":1555,"year":1556,"augh":1557,"ror":1558,"Ġ0":1559,"aps":1560,"ĠEuro":1561,"ister":1562,"most":1563,"Ġhuman":1564,"ator":1565,"ĠBe":1566,"ued":1567,"Ġgames":1568,"Ġwon":1569,"Ġmean":1570,"Ġgive":1571,"ĠPh":1572,"Ġever":1573,"ĠDem":1574,"ĠRuss":1575,"Ġ18":1576,"ley":1577,"ĠAd":1578,"Ġsever":1579,"ĠComm":1580,"work":1581,"ox":1582,"Ġbas":1583,"Ġmarket":1584,"ware":1585,"aring":1586,"Ġorder":1587,"ĠJohn":1588,"Ġtimes":1589,"If":1590,"ĠMar":1591,"wh":1592,"ĠSp":1593,"ization":1594,"Ġdev":1595,"Ġfac":1596,"ither":1597,"Ġvide":1598,"Ġperform":1599,"Ġwhether":1600,"Ġplayers":1601,"Ġhaving":1602,"Ġsing":1603,"Ġbit":1604,"ched":1605,"Ġra":1606,"oint":1607,"Ġearly":1608,"ony":1609,"Ġdoing":1610,"by":1611,"Ġword":1612,"uture":1613,"Ġcharac":1614,"Ġsocial":1615,"eng":1616,"Ġmilit":1617,"Ġreturn":1618,"Ġseveral":1619,"wit":1620,"Ġmedia":1621,"ane":1622,"Ġappear":1623,"gin":1624,"Ġpar":1625,"Ġcrit":1626,"Ġpot":1627,"Ġlikely":1628,"Ġnight":1629,"ĠPresident":1630,"Ġevent":1631,"Ġseen":1632,"Ġlear":1633,"ember":1634,"Ġyoung":1635,"Ġname":1636,"artment":1637,"Ġfive":1638,"ison":1639,"aken":1640,"Ġchildren":1641,"Ġla":1642,"bs":1643,"Ġmeet":1644,"ially":1645,"Ġtoday":1646,"Ġmembers":1647,"for":1648,"Ġprop":1649,"Ġpress":1650,"iously":1651,"idd":1652,"Ġcertain":1653,"Ġwent":1654,"raft":1655,"idence":1656,"ortun":1657,"Ġeng":1658,"Ġcontrol":1659,"10":1660,"Ġocc":1661,"ĠMc":1662,"Ġalong":1663,"iting":1664,"Ġequ":1665,"ĠSy":1666,"Ġ15":1667,"Ġinvol":1668,"Ġsure":1669,"Ġsuccess":1670,"Ġarg":1671,"ann":1672,"iqu":1673,"Ġben":1674,"ĠEurope":1675,"ands":1676,"There":1677,"rop":1678,"let":1679,"Ġquestion":1680,"ĠStates":1681,"Ġside":1682,"Ġant":1683,"Ġshort":1684,"Ġexample":1685,"Ġmonths":1686,"Ġwater":1687,"empt":1688,"ĠObama":1689,"ĠSc":1690,"Ġamong":1691,"ential":1692,"Ġ199":1693,"oad":1694,"ĠYork":1695,"Ġdone":1696,"Ġ12":1697,"ended":1698,"Ġwithin":1699,"Ġsex":1700,"ague":1701,"Ġhour":1702,"Ġonce":1703,"ories":1704,"Ġcourse":1705,"Ġfight":1706,"Ġconcer":1707,"ball":1708,"ĠOr":1709,"Ġinvestig":1710,"Ġunderstand":1711,"Ġfuture":1712,"Ġpriv":1713,"Ġviol":1714,"iver":1715,"Ġmeans":1716,"ĠAll":1717,"ĠMay":1718,"ots":1719,"ĠMr":1720,"Ġknown":1721,"Ġpossible":1722,"Ġacross":1723,"ium":1724,"mber":1725,"Ġactiv":1726,"imate":1727,"Ġproduct":1728,"Ġdesc":1729,"Ġauthor":1730,"ggest":1731,"ederal":1732,"Ġlocal":1733,"Ġvers":1734,"urs":1735,"lf":1736,"Ġcommunity":1737,"ats":1738,"br":1739,"ĠCon":1740,"gress":1741,"Ġproblem":1742,"Ġcho":1743,"ulation":1744,"ivid":1745,"Ġprotect":1746,"ĠPl":1747,"Ġhold":1748,"Ġthought":1749,"Ġsuggest":1750,"Ġreason":1751,"Ġfail":1752,"Ġnon":1753,"âĢ¦":1754,"itive":1755,"ĠBr":1756,"use":1757,"nect":1758,"Ġmakes":1759,"Ġyet":1760,"ensive":1761,"enn":1762,"ones":1763,"Ġgiven":1764,"sh":1765,"...":1766,"ĠWhen":1767,"Ġannoun":1768,"aged":1769,"Ġreported":1770,"icle":1771,"Ġstrong":1772,"por":1773,"Ġwrit":1774,"ubl":1775,"Ġothers":1776,"ster":1777,"ĠCol":1778,"Ġmus":1779,"Ġbelieve":1780,"Ġprob":1781,"ourn":1782,"Ġgetting":1783,"Ġorig":1784,"iber":1785,"verage":1786,"Ġavail":1787,"itions":1788,"ĠHouse":1789,"uff":1790,"oci":1791,"inc":1792,"Ġcut":1793,"Ġclose":1794,"Ġnational":1795,"ĠDemocrat":1796,"Ġident":1797,"ald":1798,"rew":1799,"ances":1800,"Ġlim":1801,"back":1802,"Ġcreat":1803,"iron":1804,"Ġindust":1805,"not":1806,"iety":1807,"ored":1808,"my":1809,"Ġlight":1810,"Ġsent":1811,"ĠState":1812,"Ġca":1813,"une":1814,"Ġasked":1815,"Ġnet":1816,"ene":1817,"ler":1818,"Ġemploy":1819,"ĠCar":1820,"Ġcond":1821,"Ġsaf":1822,"Ġhig":1823,"Ġland":1824,"Ġstarted":1825,"selves":1826,"ĠUniversity":1827,"ĠOn":1828,"Ġsour":1829,"Ġbased":1830,"Ġparty":1831,"ament":1832,"Ġago":1833,"Ġtrying":1834,"ĠChrist":1835,"Ġalmost":1836,"Ġaccount":1837,"Ġlow":1838,"Ġfoc":1839,"Ġcomes":1840,"Ġseries":1841,"Ġhistory":1842,"urther":1843,"orts":1844,"hers":1845,"Ġtoget":1846,"Ġtogether":1847,"ashing":1848,"resent":1849,"Ġmom":1850,"orld":1851,"though":1852,"Ġdeath":1853,"Ġtrad":1854,"Ġidea":1855,"Ġissue":1856,"ming":1857,"ĠSen":1858,"rest":1859,"Ġaccess":1860,"50":1861,"'ve":1862,"tt":1863,"Ġclear":1864,"ĠAmerica":1865,"ination":1866,"Ġexperience":1867,"Ġpract":1868,"Ġisn":1869,"ilar":1870,"Ġhalf":1871,"Ġlove":1872,"minist":1873,"Ġimpro":1874,"Ġvideo":1875,"ĠNo":1876,"Ġavailable":1877,"ief":1878,"reed":1879,"ability":1880,"Ġ2016":1881,"Ġsix":1882,"ober":1883,"Ġrul":1884,"ĠMin":1885,"ument":1886,"ĠCent":1887,"Ġsaying":1888,"ams":1889,"Ġ11":1890,"Ġlooking":1891,"utes":1892,"ividual":1893,"ged":1894,"Ġbill":1895,"aster":1896,"rict":1897,"Ġi":1898,"itional":1899,"Ġris":1900,"erence":1901,"inton":1902,"Ġarea":1903,"Ġlive":1904,"ĠTe":1905,"Ġanything":1906,"Ġcompet":1907,"Ġmilitary":1908,"Ġ30":1909,"Ġcomplete":1910,"rael":1911,"ustom":1912,"ĠAm":1913,"Ġanal":1914,"ĠCo":1915,"St":1916,"Ġentire":1917,"Ġsecurity":1918,"unch":1919,"uge":1920,"Ġpresent":1921,"Ġfilm":1922,"of":1923,"cially":1924,"Ġbehind":1925,"uly":1926,"Ġvict":1927,".,":1928,"ĠCanad":1929,"ails":1930,"Ġ,":1931,"Ġtaken":1932,"Ġfollowing":1933,"Ġrather":1934,"ators":1935,"nes":1936,"Ġthreat":1937,"ring":1938,"ĠOne":1939,"Ġadded":1940,"pro":1941,"erman":1942,"Ġtry":1943,"Ġmor":1944,"Ġmiss":1945,"Ġpolicy":1946,"Ġnear":1947,"aid":1948,"Ġbad":1949,"Ġindividual":1950,"rug":1951,"Ġdiscuss":1952,"Ġ2015":1953,"rown":1954,"ien":1955,"Ġcolle":1956,"Ġmult":1957,"Ġsingle":1958,"Ġcompan":1959,"Ġproper":1960,"And":1961,"ĠX":1962,"ĠAf":1963,"Ġwanted":1964,"Ġquick":1965,"book":1966,"Ġface":1967,"osp":1968,"Ġfall":1969,"Ġbring":1970,"raw":1971,"Ġstudy":1972,"Ġcourt":1973,"Ġsomeone":1974,"Ġtot":1975,"Ġattempt":1976,"wards":1977,"Ġspecial":1978,"ĠPr":1979,"Ġcult":1980,"Ġpubl":1981,"Ġer":1982,"lling":1983,"ply":1984,"Ġmind":1985,"amed":1986,"Ġtaking":1987,"ĠBrit":1988,"For":1989,"Ġcomb":1990,"Ġfood":1991,"Ġ=":1992,"ograp":1993,"Ġblack":1994,"ĠNorth":1995,"ĠFl":1996,"irc":1997,"af":1998,"ĠEng":1999,"Ġsum":2000,"Ġphot":2001,"aper":2002,"Ġplayer":2003,"Ġredu":2004,"Ġmess":2005,"Ġ2014":2006,"ĠDep":2007,"Ġfoot":2008,"Ġz":2009,"Ġfav":2010,"ert":2011,"Ġprobably":2012,"ai":2013,"ales":2014,"viron":2015,"Ġresearch":2016,"ĠNational":2017,"ĠPol":2018,"Ġpret":2019,"ows":2020,"11":2021,"ĠWar":2022,"Ġcou":2023,"off":2024,"par":2025,"Ġbenef":2026,"atic":2027,"ĠClinton":2028,"ids":2029,"Ġspace":2030,"lier":2031,"ĠSec":2032,"sy":2033,"ote":2034,"icult":2035,"Ġkey":2036,"ĠDon":2037,"ify":2038,"You":2039,"play":2040,"Ġcoming":2041,"Ġdecision":2042,"Ġimm":2043,"cing":2044,"Ġhowever":2045,"Ġcoun":2046,"Ġconnect":2047,"Ġfederal":2048,"Ġnothing":2049,"ĠIsrael":2050,"Ġsimilar":2051,"Ġmass":2052,"When":2053,"rote":2054,"eb":2055,"Ġeither":2056,"Ġsignific":2057,"reme":2058,"Ġconv":2059,"arm":2060,"elt":2061,"Ġbody":2062,"Ġdescrib":2063,"Ġelse":2064,"Ġexist":2065,"asing":2066,"Ġcompanies":2067,"Ġjo":2068,"Ġchall":2069,"ully":2070,"Ġrights":2071,"Ġfront":2072,"ev":2073,"Ġenc":2074,"ĠWhat":2075,"Ġsw":2076,"Ġthird":2077,"ashington":2078,"âĢĵ":2079,"pite":2080,"Ġsus":2081,"ĠCal":2082,"pecially":2083,"Ġservice":2084,"Ġpoints":2085,"Ġcand":2086,"ively":2087,"Ġfeat":2088,"Ġcreate":2089,"'m":2090,"olution":2091,"ches":2092,"Ġfig":2093,"Ġban":2094,"aces":2095,"Ġtarg":2096,"Ġleaders":2097,"Ġcompl":2098,"Ġopt":2099,"Ġrelations":2100,"over":2101,"Ġissues":2102,"Ġpick":2103,"Ġhouse":2104,"Ġfield":2105,"Ġfurther":2106,"Ġofficials":2107,"ĠAust":2108,"Ġdoc":2109,"Ġexec":2110,"Ġseems":2111,"ran":2112,"Ġstates":2113,"Ġsuper":2114,"Ġwrote":2115,"Ġhit":2116,"Ġ16":2117,"Ġstudents":2118,"Ġbegin":2119,"ĠHowever":2120,"ently":2121,"Ġrole":2122,"Ġmeas":2123,"Ġtra":2124,"Ġwhole":2125,"Ġstop":2126,"On":2127,"ĠBar":2128,"Ġbegan":2129,"Ġeverything":2130,"ĠWorld":2131,"Ġdue":2132,"Ġinfl":2133,"arth":2134,"go":2135,"itted":2136,"Ġwa":2137,"Ġlab":2138,"Ġstep":2139,"ĠMan":2140,"Ġreleased":2141,"Ġfire":2142,"Ġcustom":2143,"Ġrepl":2144,"Ġ&":2145,"Ġener":2146,"Ġprovide":2147,"Ġstri":2148,"ivil":2149,"pping":2150,"ĠCity":2151,"Ġposition":2152,"ĠTo":2153,".)":2154,"ĠEx":2155,"Ġroom":2156,"19":2157,"ilt":2158,"ibility":2159,"Ġthemselves":2160,"lement":2161,"ĠHar":2162,"ault":2163,"Ġoutside":2164,"Ġcountries":2165,"Ġtre":2166,"Ġhimself":2167,"Ġbecame":2168,"ĠWashington":2169,"irl":2170,"like":2171,"Ġitself":2172,"Ġamount":2173,"Ġdevelopment":2174,"Ġmatter":2175,"uation":2176,"Ġoffice":2177,"Ġrepresent":2178,"Ġcharacter":2179,"Ġstatement":2180,"vironment":2181,"Ġadminist":2182,"yn":2183,"Ġself":2184,"Ġtreat":2185,"mb":2186,"Ġcontinue":2187,"Ġdou":2188,"Ġinit":2189,"ĠWith":2190,"Ġfinal":2191,"Ġlarg":2192,"Ġsimply":2193,"Ġneg":2194,"Ġey":2195,"Ġsound":2196,"ades":2197,"ape":2198,"ung":2199,"iday":2200,"ĠGr":2201,"Ġgeneral":2202,"ana":2203,"Ġprofess":2204,"itor":2205,"ender":2206,"obal":2207,"now":2208,"sec":2209,"ĠSouth":2210,"Ġgun":2211,"head":2212,"rodu":2213,"Ġhours":2214,"aced":2215,"Ġsignificant":2216,"ried":2217,"Ġspecific":2218,"iod":2219,"Ġaddress":2220,"30":2221,"Ġbreak":2222,"sw":2223,"eal":2224,"arter":2225,"Ġaction":2226,"Ġstat":2227,"abl":2228,"attle":2229,"Ġwatch":2230,"Ġwasn":2231,"Ġrunning":2232,"amer":2233,"aut":2234,"lim":2235,"Ġdifficult":2236,"ĠInst":2237,"Ġgroups":2238,"ĠIntern":2239,"Ġ14":2240,"Ġground":2241,"Ġball":2242,"Ġagree":2243,"Ġevidence":2244,"Ġbuilding":2245,"Ġ2013":2246,"Ġinterview":2247,"dd":2248,"ogn":2249,"oon":2250,"Ġrad":2251,"Ġrespons":2252,"Ġabove":2253,"Ġneeds":2254,"Ġdrug":2255,"Ġdom":2256,"Ġneeded":2257,"Ġindustry":2258,"Ġcandid":2259,"ĠGe":2260,"Ġdam":2261,"Ġbar":2262,"ĠChina":2263,"aul":2264,"Ġshows":2265,"ĠDav":2266,"Ġcommon":2267,"ili":2268,"Ġ2012":2269,"Ġmusic":2270,"iddle":2271,"Ġplayed":2272,"Ġeveryone":2273,"An":2274,"Ġinj":2275,"ĠJan":2276,"That":2277,"iding":2278,"Ġdeep":2279,"Ġ17":2280,"Ġdest":2281,"Ġtrue":2282,"Ġenergy":2283,"Ġtyp":2284,"Ġexc":2285,"lam":2286,"Ġlegal":2287,"ager":2288,"Ã©":2289,"Ġespecially":2290,"Ġwoman":2291,"Ġbillion":2292,"Ġsaw":2293,"ĠGerman":2294,"ĠJust":2295,"ĠSu":2296,"Ġalleg":2297,"Ġplaying":2298,"Ġquite":2299,"Ġsense":2300,"Ġrecently":2301,"Ġlate":2302,"Ġpretty":2303,"Ġrelease":2304,"Ġ198":2305,"ĠHis":2306,"Ġlat":2307,"Ġinclude":2308,"12":2309,"ĠPart":2310,"Ġphys":2311,"ĠGu":2312,"Ġtem":2313,"Ġelection":2314,"Ġinstead":2315,"angu":2316,"Ġmot":2317,"ĠApp":2318,"Ġopportun":2319,"ask":2320,"Ġwhite":2321,"ccording":2322,"ournal":2323,"Ġdi":2324,"Ġ13":2325,"reg":2326,"Ġhom":2327,"Ġgen":2328,"Ġversion":2329,"Ġcharg":2330,"Ġap":2331,"body":2332,"Ġlost":2333,"witter":2334,"Ġweeks":2335,"Ġhost":2336,"Ġfriends":2337,"Ġeconomic":2338,"Ġabs":2339,"ĠÂ":2340,"osing":2341,"ĠAss":2342,"ĠAfter":2343,"where":2344,"Ġmag":2345,"Ġforward":2346,"Ġtrack":2347,"umb":2348,"Ġ#":2349,"'ll":2350,"Ġsuff":2351,"istic":2352,"Ġ100":2353,"Ġvote":2354,"ream":2355,"Ġjud":2356,"Ġdeter":2357,"ift":2358,"Ġperiod":2359,"su":2360,"ĠRepublican":2361,"ograph":2362,"ival":2363,"Ġanim":2364,"Ġconsum":2365,"epend":2366,"ĠCong":2367,"Ġcop":2368,"ĠDepartment":2369,"ps":2370,"Ġaccept":2371,"atur":2372,"Ġvalue":2373,"Ġred":2374,"ancial":2375,"Ġpotential":2376,"Ġled":2377,"Ġfocus":2378,"ularly":2379,"Ġlo":2380,"time":2381,"Ġrelig":2382,"Ġ/":2383,"Ġeduc":2384,"itting":2385,"Ġpain":2386,"ĠWest":2387,"Ġdel":2388,"arc":2389,"Ġlonger":2390,"irm":2391,"Ġmoment":2392,"Ġobject":2393,"Ġshoot":2394,"Ġstru":2395,"Ġhigher":2396,"Ġsite":2397,"Ġsoon":2398,"ĠMus":2399,"ribut":2400,"So":2401,"Ġcirc":2402,"Ġheld":2403,"Ġpie":2404,"medi":2405,"Ġblock":2406,"ĠWhite":2407,"Ġchanges":2408,"yle":2409,"Ġconsider":2410,"isc":2411,"Ġcontract":2412,"Ġdecl":2413,"Ġtit":2414,"Ġhope":2415,"Ġep":2416,"Ġreve":2417,"ogle":2418,"ĠSyri":2419,"Ġgoal":2420,"irt":2421,"ees":2422,"BC":2423,"Ġservices":2424,"Ġonline":2425,"ER":2426,"ners":2427,"ached":2428,"Ġshare":2429,"ĠRes":2430,"ĠMed":2431,"Ġparent":2432,"Ġwrong":2433,"Ġ50":2434,"Ġpred":2435,"ĠThese":2436,"Ġrisk":2437,"omm":2438,"ights":2439,"15":2440,"Ġ2017":2441,"Ġstay":2442,"Ġwalk":2443,"Ġworks":2444,"oph":2445,"Ġrev":2446,"Ġpersonal":2447,"Ġple":2448,"Ġsold":2449,"Ġ25":2450,"duct":2451,"Ġpopular":2452,"Ġwebs":2453,"ery":2454,"Ġearlier":2455,"Ġce":2456,"haps":2457,"Ġtechnology":2458,"Ġaud":2459,"itution":2460,"bor":2461,"oke":2462,"oid":2463,"Ġprim":2464,"lear":2465,"lt":2466,"cil":2467,"Ġannounced":2468,"bo":2469,"ser":2470,"Ġanyone":2471,"Ġcred":2472,"ij":2473,"isl":2474,"Ġenvironment":2475,"asons":2476,"Ġapplic":2477,"ique":2478,"Ġtotal":2479,"onse":2480,"Ġnecess":2481,"ilities":2482,"Ġwords":2483,"Ġscient":2484,"Ġcreated":2485,"Ġcomput":2486,"fect":2487,"urd":2488,"rom":2489,"Ġrespect":2490,"eed":2491,"Ġrate":2492,"Ġreview":2493,"Ġage":2494,"ns":2495,"Ġprivate":2496,"Ġreceived":2497,"Ġanti":2498,"Ġsurpr":2499,"aging":2500,"oe":2501,"ittee":2502,"Ġexpected":2503,"hod":2504,"Ġtarget":2505,"Ġresults":2506,"Ġproblems":2507,"Ġforce":2508,"Ġways":2509,"Ġden":2510,"cial":2511,"Ġincrease":2512,"ĠSept":2513,"ĠCongress":2514,"set":2515,"Ġcheck":2516,"Ġbase":2517,"AT":2518,"Ġwind":2519,"Ġnearly":2520,"Ġminutes":2521,"ients":2522,"Ġimpact":2523,"Ġexecut":2524,"atives":2525,"me":2526,"Ġexpress":2527,"anger":2528,"Ġport":2529,"ĠMarch":2530,"fer":2531,"ĠOct":2532,"Ġsen":2533,"Ġinvolved":2534,"Ġeasy":2535,"Ġhy":2536,"icro":2537,"urch":2538,"apan":2539,"Ġdead":2540,"Ġcivil":2541,"ĠMond":2542,"hel":2543,"ĠWill":2544,"itiz":2545,"Ġansw":2546,"Ġshot":2547,"uel":2548,"key":2549,"ĠAb":2550,"Ġvol":2551,"iter":2552,"aving":2553,"SA":2554,"hern":2555,"Ġinternational":2556,"ateg":2557,"Ġcannot":2558,"ĠMich":2559,"Ġterror":2560,"iple":2561,"Ġcode":2562,"Ġstaff":2563,"Ġmater":2564,"Ġrelationship":2565,"ole":2566,"Ġlangu":2567,"hood":2568,"Ġquestions":2569,"Ġdiv":2570,"What":2571,"Ġnation":2572,"Ġfunction":2573,"ĠMy":2574,"ude":2575,"Ġexact":2576,"ĠNews":2577,"ĠNot":2578,"Ġfans":2579,"Ġpack":2580,"okes":2581,"ĠJune":2582,"uesday":2583,"ĠDr":2584,"ĠIm":2585,"ĠAmericans":2586,"Ġspeak":2587,"Ġcases":2588,"uary":2589,"Ġbroad":2590,"ham":2591,"Ġaverage":2592,"ĠAustral":2593,"Ġdirector":2594,"Ġcoll":2595,"Ġclub":2596,"acebook":2597,"ĠFriday":2598,"Ġworked":2599,"lled":2600,"right":2601,"Ġestabl":2602,"Ġbelow":2603,"Ġfinancial":2604,"Ġliving":2605,"Ġinside":2606,"ript":2607,"action":2608,"ctor":2609,"val":2610,"Ġglobal":2611,"Ġusers":2612,"Ġworkers":2613,"Ġbecom":2614,"Ġoriginal":2615,"Ġmodel":2616,"ises":2617,"Ġur":2618,"ĠPe":2619,"ellig":2620,"alt":2621,"Ġreports":2622,"Ġworth":2623,"ĠMonday":2624,"ĠTuesday":2625,"ĠHill":2626,"ĠSte":2627,"Ġchance":2628,"Ġleave":2629,"Ġability":2630,"Ġ2011":2631,"ples":2632,"ech":2633,"reet":2634,"ĠWhile":2635,"ĠPar":2636,"Ġcontent":2637,"rought":2638,"ires":2639,"ĠAug":2640,"ging":2641,"Ġarrest":2642,"ule":2643,"Ġterms":2644,"ĠEd":2645,"ĠJuly":2646,"Ġsoft":2647,"ĠRussia":2648,"Ġlack":2649,"onst":2650,"Ġdecided":2651,"Ġcollect":2652,"Ġresponse":2653,"Ġkilled":2654,"Ġheart":2655,"Ġfavor":2656,"Ġoil":2657,"Ġmid":2658,"Ġtakes":2659,"Ġtype":2660,"They":2661,"ray":2662,"itten":2663,"Ġupd":2664,"ĠGod":2665,"put":2666,"izing":2667,"Ġwhose":2668,"Ġcapital":2669,"atural":2670,"Ġtou":2671,"Ġforeign":2672,"Ġimmedi":2673,"ĠGoogle":2674,"pril":2675,"Ġemer":2676,"Ġsubject":2677,"ourt":2678,"Ġarticle":2679,"Ġ197":2680,"Ġprice":2681,"Ġadm":2682,"Ġroad":2683,"Ġinflu":2684,"Ġassoci":2685,"Ġdefin":2686,"omb":2687,"na":2688,"ĠJapan":2689,"Ġgave":2690,"based":2691,"Ġcurrently":2692,"Ġsource":2693,"ites":2694,"Ġcal":2695,"Ġweap":2696,"Ġoffer":2697,"At":2698,"ĠWed":2699,"Ġsqu":2700,"Ġrequire":2701,"Ġlives":2702,"16":2703,"Ġphone":2704,"Ġteams":2705,"joy":2706,"Ġ24":2707,"Ġtal":2708,"che":2709,"Ġstore":2710,"ĠPal":2711,"Ġbuy":2712,"cast":2713,"Ġpublished":2714,"ĠSome":2715,"ests":2716,"ĠSm":2717,"Ġfem":2718,"Ġadministration":2719,"Ġplans":2720,"Ġcell":2721,"ological":2722,"uth":2723,"vert":2724,"ops":2725,"eter":2726,"Ġrecogn":2727,"Ġsituation":2728,"Ġrespond":2729,"ĠCalif":2730,"Ġmother":2731,"Ġbank":2732,"Ġmeeting":2733,"rel":2734,"IS":2735,"Ġnetwork":2736,"Ġmaterial":2737,"Ġmember":2738,"14":2739,"ĠIslam":2740,"osition":2741,"Ġintrodu":2742,"ĠCount":2743,"bit":2744,"Ġareas":2745,"Ġhuge":2746,"ky":2747,"lex":2748,"Ch":2749,"Ġfriend":2750,"ought":2751,"Ġcomment":2752,"Ġgirl":2753,"Ġturned":2754,"fully":2755,"icated":2756,"ĠAct":2757,"rain":2758,"nesday":2759,"Ġparticip":2760,"ĠApril":2761,"Ġill":2762,"Ġgoes":2763,"Ġarri":2764,"Ġevents":2765,"Ġregard":2766,"Ġdeli":2767,"Ġapproach":2768,"Ġtele":2769,"Ġcouple":2770,"ĠSund":2771,"ursday":2772,"Ġhappened":2773,"Ġaffect":2774,"Ġ2010":2775,"Al":2776,"Ġquickly":2777,"Ġcareer":2778,"Ġeconomy":2779,"Ġrace":2780,"Ġlegisl":2781,"ĠAfric":2782,"Ġmis":2783,"Ġcy":2784,"Ġperformance":2785,"Ġfelt":2786,"ĠEn":2787,"Ġlog":2788,"Ġbuilt":2789,"ruction":2790,"ĠEuropean":2791,"ĠWednesday":2792,"âĢĿ.":2793,"Ġthous":2794,"aud":2795,"Ġengine":2796,"Ġspent":2797,"ĠGeor":2798,"Ġsimple":2799,"ÂŃ":2800,"ĠNow":2801,"Ġord":2802,"ĠRed":2803,"Ġnorm":2804,"Ġtool":2805,"oved":2806,"Ġimprove":2807,"order":2808,"unt":2809,"ĠThursday":2810,"Ġnumbers":2811,"Ġhon":2812,"Ġproduction":2813,"Ġwide":2814,"ĠSan":2815,"ety":2816,"ctions":2817,"Ġet":2818,"oor":2819,"Ġmethod":2820,"13":2821,"Ġtrade":2822,"Ġpull":2823,"Ġallowed":2824,"ened":2825,"Ġreveal":2826,"ĠBro":2827,"ĠMe":2828,"\".":2829,"mp":2830,"Ġloss":2831,"Ġpict":2832,"Ġsecret":2833,"chie":2834,"Ġpoll":2835,"orters":2836,"Ġrepe":2837,"Ġpers":2838,"Ġtravel":2839,"Ġcapt":2840,"Ġvictim":2841,"ael":2842,"ovember":2843,"istan":2844,"ĠFacebook":2845,"Ġ)":2846,"Ġlower":2847,"Ġboard":2848,"ructure":2849,"IN":2850,"ips":2851,"Ġneigh":2852,"ĠTV":2853,"ese":2854,"One":2855,"Ġfre":2856,"Ġfather":2857,"Ġround":2858,"Ġincluded":2859,"ĠPer":2860,"Ġtown":2861,"Ġemail":2862,"Ġenjoy":2863,"ĠJanuary":2864,"Ġdig":2865,"ĠBritish":2866,"ornia":2867,"While":2868,"Ġmovement":2869,"ino":2870,"Ġ40":2871,"Ġforces":2872,"ills":2873,"Ġwants":2874,"gest":2875,"mon":2876,"ĠTwitter":2877,"ĠDo":2878,"avy":2879,"Ġmatch":2880,"Ġwebsite":2881,"Ġsepar":2882,"Ġheard":2883,"ĠSeptember":2884,"Ġknew":2885,"Ġperfect":2886,"Ġcover":2887,"force":2888,"Ġboy":2889,"Ġattention":2890,"estern":2891,"Ġtried":2892,"Ġparticular":2893,"Ġbud":2894,"clus":2895,"iment":2896,"ĠNe":2897,"atory":2898,"Ġbrought":2899,"oud":2900,"Ġbehav":2901,"How":2902,"Ġste":2903,"arily":2904,"ĠSunday":2905,"ĠCourt":2906,"ĠOff":2907,"aur":2908,"ĠBy":2909,"ĠNovember":2910,"ibly":2911,"Ġtext":2912,"ĠRussian":2913,"Ġreach":2914,"ishing":2915,"Ġ:":2916,"Ġpopulation":2917,"ĠCanada":2918,"To":2919,"Ġgrowth":2920,"ON":2921,"uses":2922,"Ġfear":2923,"Ġvarious":2924,"ĠCor":2925,"ĠAg":2926,"ĠPaul":2927,"][":2928,"Ġgets":2929,"Ġcause":2930,"Ġbi":2931,"ĠAng":2932,"down":2933,"Ġdemand":2934,"ceed":2935,"ences":2936,"ĠDavid":2937,"Ġfell":2938,"Ġcitiz":2939,"ris":2940,"agement":2941,"Ġfair":2942,"lin":2943,"ession":2944,"Ġrac":2945,"idered":2946,"Ġens":2947,"Ġliber":2948,"face":2949,"Ġprevious":2950,"Ġprogress":2951,"After":2952,"Ġmention":2953,"undred":2954,"Ġveh":2955,"ĠSenate":2956,"Ġstrugg":2957,"ĠCalifornia":2958,"17":2959,"ening":2960,"ĠKore":2961,"iction":2962,"idents":2963,"Ġtraining":2964,"Ġleader":2965,"ume":2966,"king":2967,"ĠFeb":2968,"ze":2969,"urning":2970,"Ġsett":2971,"oring":2972,"sequ":2973,"alled":2974,"Ġcoach":2975,"Ġmorning":2976,"Ġhands":2977,"hold":2978,"yond":2979,"18":2980,"Ġvo":2981,"Ġindepend":2982,"Ġess":2983,"Ġsong":2984,"With":2985,"ĠEl":2986,"cies":2987,"Ġpage":2988,"//":2989,"60":2990,"Ġaddition":2991,"Ġrules":2992,"rect":2993,"ĠOctober":2994,"Ġhot":2995,"Ġreb":2996,"ĠUK":2997,"ĠAugust":2998,"ĠGl":2999,"Ġhor":3000,"Ġprep":3001,"Ġmedical":3002,"Ġlooks":3003,"imately":3004,"Ġstar":3005,"elligence":3006,"Ġconsidered":3007,"AR":3008,"cember":3009,"Ġtalking":3010,"\",":3011,"ledge":3012,"Ġcritic":3013,"Ġsearch":3014,"Ġconduct":3015,"Ġcontact":3016,"Ġinvestigation":3017,"raq":3018,"cle":3019,"Ġachie":3020,"uments":3021,"Ġincreasing":3022,"Ġconserv":3023,"ecause":3024,"Ġfast":3025,"aker":3026,"field":3027,"Ġwond":3028,"Ġdoll":3029,"Ġjobs":3030,"apt":3031,"Ġupon":3032,"aily":3033,"ĠSch":3034,"Ġimmig":3035,"ĠIran":3036,"imin":3037,"Ġsexual":3038,"Ġund":3039,"het":3040,"Ġslow":3041,"Ġeffort":3042,"'d":3043,"Ġfeatures":3044,"Ġ{":3045,"Ġsize":3046,"Ġspeed":3047,"Ġlink":3048,"aries":3049,"Ġsort":3050,"AN":3051,"Ġlatest":3052,"Ġdespite":3053,"Ġlevels":3054,"Ġlanguage":3055,"Ġsystems":3056,"Ġspokes":3057,"ĠJew":3058,"ĠParty":3059,"Ġregul":3060,"Ġseven":3061,"raz":3062,"Ġprevent":3063,"Ġmach":3064,"Ġvisit":3065,"Ġplat":3066,"ges":3067,"Ġparents":3068,"Ġexam":3069,"Ġprior":3070,"----":3071,"light":3072,"Ġextreme":3073,"Ġopportunity":3074,"Ġparticularly":3075,"Ġmajority":3076,"25":3077,"ĠMuslim":3078,"Ġpen":3079,"ĠDecember":3080,"Ġinn":3081,"Ġserious":3082,"Ġpaper":3083,"bed":3084,"Ġsafe":3085,"Ġviolence":3086,"Ġsurve":3087,"Ġeight":3088,"entially":3089,"rast":3090,"ification":3091,"Ġbox":3092,"sych":3093,"Ġclimate":3094,"Ġwritten":3095,"Ġdraw":3096,"ĠStreet":3097,"Ġcompletely":3098,"Ġquarter":3099,"ĠIraq":3100,"Ġsens":3101,"Ġdocument":3102,"iant":3103,"Ġobv":3104,"Ġ21":3105,"Ġsn":3106,"come":3107,"Ġbiggest":3108,"Ġdefense":3109,"ĠCounty":3110,"Ġcard":3111,"uf":3112,"Ġsociety":3113,"ĠCenter":3114,"ondon":3115,"aturday":3116,"Ġresour":3117,"ĠTimes":3118,"Ġdoub":3119,"Ġhear":3120,"ĠHer":3121,"Ġclaims":3122,"ication":3123,"Ġconc":3124,"eared":3125,"ĠSw":3126,"ground":3127,"Ġinteresting":3128,"Ġlearn":3129,"inks":3130,"Ġmodern":3131,"Ġextra":3132,"Ġexperien":3133,"ining":3134,"ĠTex":3135,"Ġcarry":3136,"Ġcertainly":3137,"pir":3138,"iam":3139,"Ġjournal":3140,"ĠBlack":3141,"reedom":3142,"Ġson":3143,"Ġrange":3144,"Ġaren":3145,"Ġhundred":3146,"Ġpaid":3147,"Ġleading":3148,"Ġattacks":3149,"Ġhistor":3150,"isions":3151,"icles":3152,"bl":3153,"Ġofficers":3154,"Ġgas":3155,"uclear":3156,"Ġmiddle":3157,"ĠPark":3158,"Ġremain":3159,"ĠDonald":3160,"Ġnatural":3161,"Ġscience":3162,"Ġexactly":3163,"oo":3164,"Ġbott":3165,"Ġpractice":3166,"Ġsummer":3167,"://":3168,"abor":3169,"Ġproducts":3170,"Ġsometimes":3171,"Ġvia":3172,"ĠRepublicans":3173,"Ġguy":3174,"Ġult":3175,"Ġscreen":3176,"ma":3177,"ĠIndia":3178,"Ġcross":3179,"Ġmovie":3180,"Ġdro":3181,"ĠRom":3182,"inese":3183,"ĠKing":3184,"Ġrequired":3185,"ously":3186,"load":3187,"utions":3188,"rench":3189,"Ġgiving":3190,"anks":3191,"aught":3192,"room":3193,"Ġexcept":3194,"Ġterm":3195,"Ġstarting":3196,"Ġmessage":3197,"ĠPat":3198,"asc":3199,"ĠDemocratic":3200,"anced":3201,"Ġvoters":3202,"Ġshowed":3203,"Ġrout":3204,"Ġcosts":3205,"ĠSaturday":3206,"Ġ2008":3207,"lying":3208,"akers":3209,"ope":3210,"Ġgrowing":3211,"itch":3212,"Ġones":3213,"Ġregion":3214,"Ġconvers":3215,"Ġsurv":3216,"Ġprison":3217,"ysis":3218,"Ġbudget":3219,"Ġfinally":3220,"Ġchief":3221,"unk":3222,"Ġlooked":3223,"Ġquality":3224,"iers":3225,"Ġeducation":3226,"ĠEast":3227,"omp":3228,"illed":3229,"aming":3230,"Ġpoor":3231,"ĠIS":3232,"Ġremains":3233,"Ġnamed":3234,"Ġdescribed":3235,"ico":3236,"vent":3237,"idge":3238,"de":3239,"Ġoccur":3240,"Ġdanger":3241,"Ġlay":3242,"Ġanswer":3243,"Ġpan":3244,"ĠSand":3245,"Ġefforts":3246,"vision":3247,"Ġmill":3248,"ĠLondon":3249,"Ġstuff":3250,"Ġassist":3251,"Ġ22":3252,"oses":3253,"Ġcontinued":3254,"Ġstories":3255,"Ġtable":3256,"ension":3257,"Ġimage":3258,"Ġmaintain":3259,"Ġprovided":3260,"Ġmob":3261,"Ġdemonst":3262,"Ġparts":3263,"ille":3264,"Ġwriting":3265,"Ġmultiple":3266,"Ġment":3267,"Ġalthough":3268,"ĠEven":3269,"Ġperhaps":3270,"ww":3271,"uk":3272,"OR":3273,"ospital":3274,"hib":3275,"Ġthinking":3276,"Ġblood":3277,"ĠMcC":3278,"Ġpurch":3279,"erc":3280,"atter":3281,"eth":3282,"Ġhous":3283,"Ġchanged":3284,"Ġwouldn":3285,"overed":3286,"Ġaw":3287,"iminal":3288,"Ġpurp":3289,"ha":3290,"Ġunf":3291,"Ġculture":3292,"Ġplatform":3293,"eff":3294,"Ġresearc":3295,"ruary":3296,"enge":3297,"ĠQu":3298,"Ġlaws":3299,"Ġ2009":3300,"Ġspot":3301,"aves":3302,"Ġusually":3303,"Ġfootball":3304,"arr":3305,"ani":3306,"Ġthroughout":3307,"wo":3308,"Ġreality":3309,"Ġuser":3310,"Ġbeyond":3311,"urt":3312,"Ġtowards":3313,"Ġimplement":3314,"?âĢĿ":3315,"ibr":3316,"Ġcele":3317,"Ġconsist":3318,"inary":3319,"Ġpath":3320,"Ġincludes":3321,"Ġcamer":3322,"lish":3323,"Ġdirectly":3324,"ĠChar":3325,"Ġwrite":3326,"Ġstudent":3327,"Ġchalleng":3328,"Ġagency":3329,"Ġcorpor":3330,"Ġdetails":3331,"ĠChinese":3332,"Ġcalls":3333,"Ġspeech":3334,"Ġstandard":3335,"Ġcenter":3336,"Ġkids":3337,"Ġalone":3338,"using":3339,"Ġdesigned":3340,"ĠLeague":3341,"ĠCoun":3342,"arian":3343,"Ġthousands":3344,"ĠPost":3345,"fort":3346,"ications":3347,"ĠNet":3348,"Ġcomplex":3349,"ĠMark":3350,"inally":3351,"hest":3352,"Ġready":3353,"Ġsubst":3354,"ida":3355,"Ġguys":3356,"Ġil":3357,"Ġcouldn":3358,"Ġrequest":3359,"Ġdied":3360,"OP":3361,"ban":3362,"Ġincreased":3363,"Ġsafety":3364,"ĠSoc":3365,"ĠFebruary":3366,"ext":3367,"coin":3368,"40":3369,"Ġtoward":3370,"Ġrob":3371,"ilies":3372,"anch":3373,"Ġdebate":3374,"itute":3375,"oper":3376,"rowd":3377,"aph":3378,"icks":3379,"ĠKe":3380,"Ġconcept":3381,"Ġimag":3382,"mit":3383,"Ġselect":3384,"pper":3385,"ux":3386,"ĠDemocrats":3387,"ST":3388,"Ġcounter":3389,"Ġrecomm":3390,"tr":3391,"lection":3392,"Ġorganization":3393,"Ġ23":3394,"Ġtro":3395,"Ġten":3396,"Ġchoice":3397,"Ġsoftware":3398,"Ġsell":3399,"Ġ(@":3400,"Ġfigure":3401,"ĠMinister":3402,"Ġpressure":3403,"Ġhelped":3404,"Ġnom":3405,"ny":3406,"ĠGener":3407,"Ġpassed":3408,"ĠEm":3409,"Ġofficer":3410,"Ġimmediately":3411,"Ġadditional":3412,"ett":3413,"Ġmoved":3414,"Ġreceive":3415,"ĠTexas":3416,"Ġpiece":3417,"ek":3418,"Ġwife":3419,"wise":3420,"Ġgone":3421,"Ġrelative":3422,"Ġahead":3423,"Ġscene":3424,"egr":3425,"ĠMor":3426,"Ġepis":3427,"ari":3428,"Ġremember":3429,"Ġalleged":3430,"Ġmeaning":3431,"ĠBill":3432,"Ph":3433,"aches":3434,"FL":3435,"Ġopin":3436,"ago":3437,"Ġleague":3438,"icient":3439,"Ġcris":3440,"atever":3441,"rupt":3442,"add":3443,"Ġprec":3444,"Ġlaunch":3445,"Ġeffects":3446,"Ġcast":3447,"Ġencour":3448,"Ġbrain":3449,"Ġswe":3450,"ĠJames":3451,"Ġletter":3452,"Ġnuclear":3453,"Ġproperty":3454,"Ġfix":3455,"Ġut":3456,"aly":3457,"Ġstage":3458,"Ġver":3459,"ĠTur":3460,"astic":3461,"Ġdamage":3462,"Ġmoving":3463,"BI":3464,"Ġsle":3465,"Ġdisapp":3466,"Ġtour":3467,"Ġdrive":3468,"Ġpark":3469,"Ġappears":3470,"Ġspending":3471,"adem":3472,"Ġcollege":3473,"Ġfailed":3474,"Ġaim":3475,"Ġpresidential":3476,"rated":3477,"ĠIndian":3478,"Ġcomments":3479,"ampions":3480,"Ġtouch":3481,"Ġrock":3482,"Tr":3483,"Ġ}":3484,"Ġclean":3485,"Ġcandidate":3486,"ĠMichael":3487,"airs":3488,"yl":3489,"Ġcitizens":3490,"Ġlargest":3491,"Ġbeginning":3492,"Ġconditions":3493,"Ġign":3494,"Ġsil":3495,"Ġexecutive":3496,"Ġforced":3497,"ĠMore":3498,"Ġsuspect":3499,"Ġcentury":3500,"urg":3501,"Ġfan":3502,"Ġblog":3503,"Ġreasons":3504,"Ġsat":3505,"Ġitem":3506,"Ġmaybe":3507,"Ġconference":3508,"Ġnature":3509,"ĠCons":3510,"Ġpowerful":3511,"Ġcomputer":3512,"__":3513,"oul":3514,"ables":3515,"ĠThen":3516,"Ġdeg":3517,"olute":3518,"Ġcompared":3519,"ression":3520,"zz":3521,"ĠFirst":3522,"Ġmyself":3523,"Ġdark":3524,"ĠâĢ¦":3525,"Ġschools":3526,"erve":3527,"Ġscore":3528,"itation":3529,"Ġ...":3530,"Ġcharacters":3531,"Ġlimited":3532,"Ġestim":3533,"Ġrefer":3534,"ĠApple":3535,"Ġdevice":3536,"Ġeventually":3537,"Ġband":3538,"men":3539,"Ġdifference":3540,"iles":3541,"rief":3542,"Ġtwe":3543,"ston":3544,"Ġfamilies":3545,"irth":3546,"ford":3547,"Ġreligious":3548,"imum":3549,"She":3550,"ĠSyria":3551,"Ġstra":3552,"Ġfile":3553,"itness":3554,"Ġbattle":3555,"Ġpositive":3556,"Ġtitle":3557,"ufact":3558,"Ġilleg":3559,"Ġnecessary":3560,"Ġbooks":3561,"Ġdog":3562,"Ġallows":3563,");":3564,"Ġclos":3565,"Ġmeant":3566,"Ġbal":3567,"Ġfirm":3568,"roy":3569,"aughter":3570,"Ġdraft":3571,"ĠJack":3572,"Ġdecades":3573,"ĠFrench":3574,"Ġhappy":3575,"oto":3576,"ĠSpe":3577,"Ġpus":3578,"Ġhar":3579,"Ġdisp":3580,"just":3581,"enty":3582,"Ġaware":3583,"omen":3584,"Ġfollowed":3585,"Ġsche":3586,"Ġcommand":3587,"Ġwall":3588,"nces":3589,"orney":3590,"ĠDes":3591,"ĠAssoci":3592,"Ġshown":3593,"Ġgrad":3594,"Ġfeature":3595,"Ġeasily":3596,"Ġ<":3597,"Ġcrowd":3598,"Ġthrow":3599,"Ġphysical":3600,"ĠEnglish":3601,"Ġsal":3602,"Ġstreng":3603,"Ġactions":3604,"Ġdate":3605,"Ġsigned":3606,"AC":3607,"Ġautom":3608,"ĠInt":3609,"ĠChe":3610,"ĠÐ":3611,"agon":3612,"Ġsenior":3613,"Ġincome":3614,"ara":3615,"Ġsmart":3616,"Ġconfir":3617,"more":3618,"Ġtrust":3619,"Ġcentral":3620,"Ġpromot":3621,"ĠRich":3622,"venue":3623,"Ġ28":3624,"Ġpolitics":3625,"Ġarch":3626,"iring":3627,"ĠSer":3628,"ĠGreen":3629,"ĠMon":3630,"Ġ27":3631,"Ġanaly":3632,"Ġsusp":3633,"Ġmix":3634,"Ġesc":3635,"uing":3636,"Ġgives":3637,"ĠSuper":3638,"Ġdeveloped":3639,"Ġoverall":3640,"Ġavoid":3641,"According":3642,"ĠBo":3643,"Ġanalysis":3644,"encies":3645,"Ġ+":3646,"Ġeyes":3647,"Ġcustomers":3648,"berg":3649,"Ġbenefits":3650,"Ġideas":3651,"Ġcrisis":3652,"Ġtreatment":3653,"Ġyes":3654,"ivity":3655,"Ġweapons":3656,"Ġcat":3657,"yan":3658,"Ġunique":3659,"Ġsales":3660,"ports":3661,"oti":3662,"ĠMex":3663,"Ġnoted":3664,"ĠServ":3665,"Ġconflic":3666,"ressed":3667,"Ġdetail":3668,"wood":3669,"Ġlif":3670,"Ġcrime":3671,"Ġintelligence":3672,"Ġnote":3673,"amb":3674,"ĠMart":3675,"Ġprojects":3676,"200":3677,"Ġindividuals":3678,"Ġaltern":3679,"aint":3680,"Ġfeed":3681,"Ġpreviously":3682,"Ġfrequ":3683,"Ġreform":3684,"pre":3685,"band":3686,"ĠII":3687,"Ġcool":3688,"Ġrates":3689,"Ġapparent":3690,"Ġpsych":3691,"cient":3692,"Ġuses":3693,"riage":3694,"bum":3695,"Ġchallenge":3696,"ĠSim":3697,"Ġappeared":3698,"Ġgoals":3699,"Ġ60":3700,"Ġsuccessful":3701,"Ġrap":3702,"Ġ26":3703,"urance":3704,"craft":3705,"Ġexpand":3706,"Ġprograms":3707,"Ġmanager":3708,"Ġhighly":3709,"oes":3710,"Ġcriminal":3711,"ĠArab":3712,"Ġdise":3713,"ocked":3714,"Ġfully":3715,"Ġreading":3716,"ĠRober":3717,"itely":3718,"Ġmist":3719,"uty":3720,"Ġang":3721,"Ġcharge":3722,"ĠTor":3723,"Ġadvant":3724,"orks":3725,"Ġbeaut":3726,"chan":3727,"Ġren":3728,"Ġoption":3729,"Ġemb":3730,"ĠEU":3731,"Ġprimary":3732,"ĠInternational":3733,"Ġsto":3734,"Ġdisplay":3735,"Ġclearly":3736,"ĠUnion":3737,"Ġyourself":3738,"Ġpredict":3739,"ĠStar":3740,"Ġpeace":3741,"Ġ@":3742,"Ġattract":3743,"Ġnice":3744,"cul":3745,"Ġlic":3746,"ĠGovern":3747,"Ġtruth":3748,"Ġmeasure":3749,"ken":3750,"Ġminor":3751,"Re":3752,"Ġtraff":3753,"Ġrule":3754,"Ġseemed":3755,"Ġlarger":3756,"Ġstraight":3757,"Ġmanufact":3758,"onents":3759,"Ġresources":3760,"Ġdrop":3761,"Ġfa":3762,"ĠJer":3763,"ĠVal":3764,"ĠAir":3765,"inated":3766,"Now":3767,"secut":3768,"Ġresearchers":3769,"part":3770,"ĠHere":3771,"Ġdoor":3772,"antly":3773,"Ġgreater":3774,"Ġprem":3775,"Ġexch":3776,"Ġlines":3777,"Ġbrother":3778,"ĠWind":3779,"Ġorganiz":3780,"Ġcontribut":3781,"Ġspread":3782,"ĠAustralia":3783,"ĠChristian":3784,"Ġowners":3785,"ĠCouncil":3786,"Ġplaces":3787,"resh":3788,"ĠGermany":3789,"iable":3790,"Ġknowledge":3791,"iny":3792,"Ġrelated":3793,"while":3794,"Ġregular":3795,"ĠBen":3796,"Ġkept":3797,"etro":3798,"Ġ196":3799,"Ġrare":3800,"Ġdetermin":3801,"ĠEarth":3802,"Ġindic":3803,"Ġspend":3804,"Ġclaimed":3805,"ĠInternet":3806,"ĠDay":3807,"term":3808,"Ġlaun":3809,"sp":3810,"ategy":3811,"wide":3812,"iders":3813,"icit":3814,"Ġfighting":3815,"Ġrise":3816,"Ġemot":3817,"board":3818,"Ġcities":3819,"Ġspir":3820,"Ġ|":3821,"IA":3822,"Ġpolicies":3823,"ES":3824,"ero":3825,"Ġwilling":3826,"Ġemployees":3827,"Ġcredit":3828,"ĠCr":3829,"Ġcalling":3830,"âĢĿ,":3831,"rs":3832,"Ġadding":3833,"Ġsources":3834,"ĠGeorge":3835,"Ġtraditional":3836,"Ġended":3837,"iance":3838,"ĠAngel":3839,"ĠPolice":3840,"owers":3841,"Ġcorrect":3842,"Ġprices":3843,"Ġliter":3844,"Ġcaused":3845,"Ġcopy":3846,"Ġincident":3847,"Ġknows":3848,"Ġweb":3849,"Ġshooting":3850,"ĠFlor":3851,"Ġsave":3852,"Ġfeet":3853,"Ġpun":3854,"Ġfunding":3855,"ED":3856,"80":3857,"99":3858,"ĠFranc":3859,"Ġsend":3860,"Ġpros":3861,"AS":3862,"Ġintegr":3863,"Ġreached":3864,"Ġcreating":3865,"Ġreflect":3866,"ĠSchool":3867,"iced":3868,"mar":3869,"Ġsupposed":3870,"fl":3871,"ĠPlay":3872,"Ġhtt":3873,"Ġconcerns":3874,"Ġvirt":3875,"Ġauthorities":3876,"ĠCap":3877,"bon":3878,"Ġfemale":3879,"olic":3880,"Ġstatus":3881,"Ġalbum":3882,"Ġraised":3883,"Ġactivity":3884,"ĠGeneral":3885,"Ġshut":3886,"ifying":3887,"Ġhaven":3888,"ĠCont":3889,"Ġstudies":3890,"Ġcommer":3891,"Ġplant":3892,"Ġarm":3893,"Ġensure":3894,"ounds":3895,"Ġcolor":3896,"Ġseeing":3897,"Ġoptions":3898,"All":3899,"Ġminister":3900,"Ġacqu":3901,"ĠSmith":3902,"Ġfreedom":3903,"orter":3904,"Ġtrou":3905,"Ġneighbor":3906,"inn":3907,"ĠÂ£":3908,"Ġleaving":3909,"uana":3910,"Ġâ":3911,"ĠBer":3912,"Ġnormal":3913,"Ġbasic":3914,"Ġagreement":3915,"Ġvoice":3916,"ean":3917,"iverse":3918,"ki":3919,"Ġgrand":3920,"Ġhappens":3921,"sey":3922,"Ġweekend":3923,"Ġslight":3924,"usion":3925,"Ġasse":3926,"OS":3927,"onent":3928,"Ġabsolute":3929,"Ġcharges":3930,"Ġscen":3931,"que":3932,"vere":3933,"Ġfine":3934,"dom":3935,"Ġmostly":3936,"see":3937,"ĠAccording":3938,"Ġoffered":3939,"Ġnames":3940,"Ġpropos":3941,"Ġrevealed":3942,"ĠEngland":3943,"ĠBrown":3944,"ĠHam":3945,"Ġlik":3946,"oday":3947,"Ġactual":3948,"Ġhospital":3949,"Ġadop":3950,"22":3951,"Ġimpl":3952,"Ġenforce":3953,"Ġeth":3954,"Ġjump":3955,"ares":3956,"Ġmassive":3957,"oles":3958,"Ġbeat":3959,"ĠTom":3960,"Ġpatients":3961,".âĢĻ":3962,"ota":3963,"ĠOf":3964,"Ġpush":3965,"kn":3966,"icago":3967,"ijuana":3968,"Ġir":3969,"Ġgreen":3970,"Ġnegoti":3971,"Ġbelieved":3972,"My":3973,"Ġbehavior":3974,"ĠEvery":3975,"ĠHillary":3976,"Ġstation":3977,"ocks":3978,"Ġparties":3979,"Ġstrategy":3980,"Ġmechan":3981,"Ġenem":3982,"Ġrecords":3983,"Ġbirth":3984,"Ġcars":3985,"Ġdevices":3986,"Ġwhatever":3987,"box":3988,"Ġcommit":3989,"iled":3990,"Ġcry":3991,"ĠFlorida":3992,"ado":3993,"Ġstyle":3994,"Ġadult":3995,"Ġ2007":3996,"Ġmer":3997,"agn":3998,"Ġbrief":3999,"Ġwhom":4000,"Ġbeg":4001,"Ġvac":4002,"Ġeye":4003,"Ġlawy":4004,"Ġqual":4005,"ĠMac":4006,"ville":4007,"ingly":4008,"Ġassault":4009,"Ġlearned":4010,"No":4011,"Ġopposition":4012,"rant":4013,"Sh":4014,"rants":4015,"Ġweight":4016,"ĠAnt":4017,"Ġdire":4018,"Ġresidents":4019,"ribution":4020,"Ġproduced":4021,"Ġprovides":4022,"Ġinfluence":4023,"Ġrank":4024,"Ġdistrict":4025,"Ġtend":4026,"ength":4027,"Ġadvoc":4028,"Ġchoose":4029,"Ġoperations":4030,"liament":4031,"Ġstreet":4032,"EO":4033,"Ġasking":4034,"ĠScott":4035,"Ġdebt":4036,"Ġwonder":4037,"Ġcritical":4038,"ĠDis":4039,"IC":4040,"Ġapplication":4041,"Ġobser":4042,"Some":4043,"Ġborder":4044,"Be":4045,"Ġwat":4046,"Ġwild":4047,"Ġproduce":4048,"IT":4049,"ĠCommittee":4050,"pri":4051,"inger":4052,"Ġwait":4053,"ya":4054,"Ġprint":4055,"ĠGold":4056,"mark":4057,"Ġfeeling":4058,"itude":4059,"ĠBay":4060,"Ġvalues":4061,"ĠMost":4062,"etic":4063,"Ġindependent":4064,"ĠHigh":4065,"ĠDef":4066,"Ġappl":4067,"Ġgold":4068,"istry":4069,"rate":4070,"Ġbrand":4071,"Ġdefend":4072,"Ġbenefit":4073,"uman":4074,"Ġmount":4075,"24":4076,"Ġjudge":4077,"ented":4078,"Ġmission":4079,"ube":4080,"Ġshowing":4081,"Ġruns":4082,"Ġteac":4083,"Ġdollars":4084,"Ġlose":4085,"miss":4086,"Ġconfirmed":4087,"acing":4088,"Ġarrested":4089,"Ġcru":4090,"Ġpicture":4091,"Ġcelebr":4092,"Ġmillions":4093,"Don":4094,"ĠRob":4095,"EN":4096,"Ġenter":4097,"Ġtemper":4098,"uit":4099,"Ġinvestment":4100,"soft":4101,"ĠBush":4102,"ĠFrance":4103,"Ġresponsible":4104,"Ġoffers":4105,"ona":4106,"Ġpolitic":4107,"ĠBre":4108,"ĠCommission":4109,"Ġhighest":4110,"Ġeffective":4111,"Ġ29":4112,"Ġtelevision":4113,"Ġoccas":4114,"Ġopening":4115,"ĠPalest":4116,"osh":4117,"Ġcore":4118,"estic":4119,"ĠChicago":4120,"Ġhundreds":4121,"ĠLa":4122,"Ġchair":4123,"ĠSecret":4124,"Ġrestrict":4125,"Ġinterested":4126,"Ġunc":4127,"Ġdigital":4128,"rol":4129,"Ġcontinues":4130,"Ġreplace":4131,"ĠMo":4132,"gen":4133,"Ġcoal":4134,"Ġproposed":4135,"mine":4136,"Ġagreed":4137,"Ġmarriage":4138,"Ġgenerally":4139,"Ġvill":4140,"Ġlearning":4141,"ocr":4142,"Ġpartners":4143,"igned":4144,"Is":4145,"roid":4146,"Ġlegislation":4147,"point":4148,"aked":4149,"Ġbasis":4150,"Ġsolution":4151,"Ġworse":4152,"ãģ":4153,"However":4154,"ĠKorea":4155,"rian":4156,".'":4157,"Ġchem":4158,"Ġimages":4159,"Ġdrink":4160,"ĠJustice":4161,"lease":4162,"ĠWestern":4163,"Ġfat":4164,"Ġfit":4165,"alse":4166,"ica":4167,"ĠWell":4168,"Ġhero":4169,"Ġsurround":4170,"AM":4171,"Ġtick":4172,"Ġheavy":4173,"Ġmiles":4174,"ĠBel":4175,"ĠComp":4176,"Ġexplained":4177,"Ġbab":4178,"uries":4179,"roll":4180,"Ġpattern":4181,"Ġtrain":4182,"Ġadvantage":4183,"ĠWall":4184,"ugg":4185,"Ġkick":4186,"Ġonto":4187,"Ġreject":4188,"Ġachieve":4189,"Ġunlike":4190,"ĠPeople":4191,"ĠSun":4192,"ties":4193,"Ġcontrovers":4194,"Ġelectric":4195,"Ġprofessional":4196,"Ġunderstanding":4197,"Ġbecoming":4198,"Ġwealth":4199,"Ġopened":4200,"ĠFrom":4201,"ĠBecause":4202,"Ġmur":4203,"Ġtheory":4204,"Ġserved":4205,"Ġscientists":4206,"ĠLaw":4207,"Ġillegal":4208,"Ġopinion":4209,"Ġtrial":4210,"cher":4211,"Ġinstall":4212,"illing":4213,"ĠAlex":4214,"vant":4215,"ĠPhil":4216,"Ġprotest":4217,"Ð¾":4218,"rial":4219,"Ġcommunities":4220,"ĠIslamic":4221,"Ġassum":4222,"ĠOffice":4223,"Ġannounce":4224,"ĠLou":4225,"Ġeasier":4226,"Ġetc":4227,"Ġbur":4228,"ĠLiber":4229,"Ġaccused":4230,"ĠNFL":4231,"cell":4232,"Ġmale":4233,"Ġbecomes":4234,"ĠPort":4235,"500":4236,"Ġserve":4237,"coming":4238,"EC":4239,"Ġaudience":4240,"Ġconservative":4241,"outhern":4242,"Ġmanagement":4243,"Ġwinning":4244,"Ġnine":4245,"Ġdocuments":4246,"iation":4247,"Ġtypes":4248,"ection":4249,"ĠFrancis":4250,"Ġleadership":4251,"orthern":4252,"Ġbelief":4253,"rav":4254,"Ġincred":4255,"Ġdefe":4256,"Ġobtain":4257,"earch":4258,"Ġextremely":4259,"ram":4260,"Ġcondition":4261,"Ġdepartment":4262,"Ġdestroy":4263,"ĠSanders":4264,"Ġposted":4265,"Ġreduce":4266,"Ġmarijuana":4267,"Ġmemory":4268,"23":4269,"ĠCup":4270,"Ġder":4271,"udd":4272,"ĠMany":4273,"Ġputting":4274,"BA":4275,"ortunately":4276,"icip":4277,"ĠHealth":4278,"ĠSecurity":4279,"ĠUk":4280,"Ġassociated":4281,"?\"":4282,"Ġlimit":4283,"Ġsolid":4284,"Ġice":4285,"icial":4286,"Ġcommittee":4287,"ĠRec":4288,"ĠMicro":4289,"ĠTrans":4290,"Ġexisting":4291,"ĠOh":4292,"Ġthus":4293,"Ġborn":4294,"ĠBit":4295,"Ġsection":4296,"Ġshared":4297,"ste":4298,"Ġvictory":4299,"ĠReg":4300,"These":4301,"Ġinitial":4302,"Ġamaz":4303,"Ġcomfort":4304,"Ġlaunched":4305,"Ġspl":4306,"100":4307,"Ġchurch":4308,"Ġnegative":4309,"Ġspecies":4310,"Ġship":4311,"Ġcamera":4312,"ĠLab":4313,"Ġjoin":4314,"ront":4315,"Ġdecade":4316,"Ġamb":4317,"Ġsupporters":4318,"ĠOther":4319,"Ġran":4320,"Ġpurpose":4321,"ĠOur":4322,"ĠMal":4323,"Ġinstance":4324,"Ġdouble":4325,"Ġframe":4326,"Ġdoubt":4327,"Ġmachine":4328,"Ġdaily":4329,"ĠJohnson":4330,"Ġinternet":4331,"Ġreturned":4332,"Ġmobile":4333,"Ġnotice":4334,"atically":4335,"Ġlocation":4336,"Ġvictims":4337,"Ġteach":4338,"ĠLet":4339,"Ġactive":4340,"AP":4341,"Ġresist":4342,"aks":4343,"Ġseparate":4344,"ishment":4345,"Ġfaith":4346,"ghan":4347,"Ġbottom":4348,"ĠAP":4349,"ags":4350,"known":4351,"Ġbomb":4352,"ĠMike":4353,"Ġhearing":4354,"which":4355,"Ġfloor":4356,"Ġdefinitely":4357,"win":4358,"Ġcompetition":4359,"Ġappeal":4360,"OT":4361,"Ġargument":4362,"ĠInstitute":4363,"ĠCanadian":4364,"Ġnorth":4365,"iliar":4366,"no":4367,"Ġsleep":4368,"Ġcommercial":4369,"Ġdangerous":4370,"Ġsuggested":4371,"Ġlabor":4372,"Ġload":4373,"Ġepisode":4374,"Ġbed":4375,"AL":4376,"Ġissued":4377,"ĠSam":4378,"Ġradio":4379,"Ġfresh":4380,"Ġexplain":4381,"Ġrepeated":4382,"ĠWindows":4383,"Ġbusinesses":4384,"ipped":4385,"Ġtrend":4386,"Ġdirection":4387,"ĠStud":4388,"Ġnovel":4389,"Ġrat":4390,"Ġvehicle":4391,"Ġstated":4392,"Ġsmaller":4393,"level":4394,"35":4395,"house":4396,"Ġrestaur":4397,"going":4398,"Ġtraffic":4399,"rad":4400,"Ġded":4401,"Ġx":4402,"ĠFound":4403,"Ġcandidates":4404,"iful":4405,"Ġsites":4406,"ĠBritain":4407,"Ġlargely":4408,"ĠFBI":4409,"Ġentirely":4410,"la":4411,"Ġharm":4412,"Ġtelling":4413,"Ġafford":4414,"Ġallowing":4415,"cience":4416,"eline":4417,"ĠSince":4418,"Ġswit":4419,"ĠMil":4420,"Ġfavorite":4421,"lant":4422,"Ġgay":4423,"Ġdrugs":4424,"Ġdriving":4425,"Ġdiscovered":4426,"acity":4427,"Ġviews":4428,"Ġspoke":4429,"orrow":4430,"irgin":4431,"Un":4432,"ae":4433,"oly":4434,"ipe":4435,"ĠTH":4436,"Ġrefere":4437,"Ġannual":4438,"ctors":4439,"Ġworst":4440,"inct":4441,"Ġcoverage":4442,"works":4443,"Ġconcerned":4444,"bert":4445,"Ġhack":4446,"Ġdoz":4447,"well":4448,"Ġbackground":4449,"Ġplays":4450,"vest":4451,"Ġfinding":4452,"Ġmicro":4453,"Ġtransfer":4454,"Ġcharged":4455,"Ġ80":4456,"Ġnotes":4457,"pen":4458,"Ġtransport":4459,"27":4460,"Ġcards":4461,"ĠBank":4462,"Ġcash":4463,"itable":4464,"ander":4465,"Ġhus":4466,"ĠIsraeli":4467,"gency":4468,"Ġstructure":4469,"Ġfuel":4470,"ription":4471,"lands":4472,"Ġperm":4473,"CC":4474,"odes":4475,"Ġolder":4476,"Ġaspect":4477,"Ġnor":4478,"Ġinsurance":4479,"Ġwatching":4480,"ampionship":4481,"Ġraise":4482,"Ġtools":4483,"Ġdecisions":4484,"Ġtask":4485,"Ġdaughter":4486,"Ġsurface":4487,"Ġmap":4488,"Ġfarm":4489,"Ġstrateg":4490,"vention":4491,"ords":4492,"uild":4493,"ĠDist":4494,"ios":4495,"Ġcontain":4496,"Ġexerc":4497,"ĠGreat":4498,"bing":4499,"Ġbelieves":4500,"ario":4501,"Ġdriver":4502,"**":4503,"Ġdie":4504,"ĠGOP":4505,"Ġgeneration":4506,"Ġsun":4507,"Ġactivities":4508,"Ġ2006":4509,"Ġconsequ":4510,"Ġdisease":4511,"GB":4512,"45":4513,"ulated":4514,"ĠUkrain":4515,"Ġtruly":4516,"Ġconcern":4517,"Ġgrant":4518,"ĠAut":4519,"ulf":4520,"istics":4521,"ĠSup":4522,"Ġclosed":4523,"Ġanimals":4524,"arant":4525,"Ġconstruction":4526,"olf":4527,"Ġrequires":4528,"ĠCommun":4529,"ĠWhy":4530,"Ġstrength":4531,"Ġexperiment":4532,"Ġcaught":4533,"Ġjustice":4534,"Ġreact":4535,"ĠAfrican":4536,"Ġphoto":4537,"ĠInstead":4538,"Ġ90":4539,"NA":4540,"Ġdeliver":4541,"Ġsupported":4542,"New":4543,"Ġrough":4544,"ĠMad":4545,"ĠCarol":4546,"Ġenforcement":4547,"Ġcompar":4548,"spe":4549,"Ġcateg":4550,"Ġproviding":4551,"Ġplanning":4552,"Ġsan":4553,"ĠFox":4554,"equ":4555,"Ġfalse":4556,"Ġholding":4557,"akistan":4558,"ĠChurch":4559,"ĠLos":4560,"ih":4561,"ribute":4562,"Ġtesting":4563,"Ġinterests":4564,"Ġrefuge":4565,"Ġphil":4566,"ĠHall":4567,"ĠDel":4568,"Ġstock":4569,"Ġspokesman":4570,"ĠAfghan":4571,"Ġhasn":4572,"oms":4573,"Ġmurder":4574,"Ġpresence":4575,"ading":4576,"resp":4577,"za":4578,"Ġintroduced":4579,"rim":4580,"Ġoffensive":4581,"tered":4582,"phone":4583,"iling":4584,"overy":4585,"Ġattend":4586,"ID":4587,"Ġiniti":4588,"Ġjoined":4589,"cknow":4590,"ici":4591,"ĠAssociation":4592,"Ġwitness":4593,"Ġcontext":4594,"Ġconflict":4595,"Ġbanks":4596,"Ġaccur":4597,"ĠBig":4598,"Ġmax":4599,"Ġinjury":4600,"Americ":4601,"ĠJewish":4602,"izes":4603,"Ġestablished":4604,"omas":4605,"ference":4606,"FC":4607,"iller":4608,"Ġplaced":4609,"oman":4610,"ossible":4611,"rey":4612,"Ġtells":4613,"oyal":4614,"ipp":4615,"Ġwel":4616,"cont":4617,"Ġhousing":4618,"Mr":4619,"ĠFin":4620,"Ġhomes":4621,"Ġnewsp":4622,"ĠGree":4623,"ĠTer":4624,"Ġfocused":4625,"Ġblue":4626,"Ġmentioned":4627,"gu":4628,"andon":4629,"Ġitems":4630,"Ġfourth":4631,"Ġoccup":4632,"Ġsports":4633,"Ġfant":4634,"ocracy":4635,"Ġveter":4636,"pective":4637,"anging":4638,"Ġsubsc":4639,"ĠQue":4640,"ĠAfrica":4641,"asy":4642,"Ġcatch":4643,"ada":4644,"rig":4645,"Ġscale":4646,"but":4647,"Ġsouth":4648,"ears":4649,"Ġmanaged":4650,"Ġwaiting":4651,"season":4652,"ĠWil":4653,"isation":4654,"Ġcommitted":4655,"ĠAtt":4656,"ĠPalestin":4657,"Ġfunds":4658,"Ġacknow":4659,"icy":4660,"Ġkid":4661,"Ġobvious":4662,"Ġrecommend":4663,"hem":4664,"Ġunit":4665,"serv":4666,"Ġmeasures":4667,"Ġconversation":4668,"ĠMod":4669,"Ġkeeping":4670,"ĠJones":4671,"lege":4672,"26":4673,"Ġsequ":4674,"Ġfigures":4675,"ĠKen":4676,"Ġabuse":4677,"PA":4678,"lig":4679,"Ġstopped":4680,"oted":4681,"Ġrelatively":4682,"ĠCEO":4683,"Ġdiscussion":4684,"Ġadvert":4685,"Ġdefensive":4686,"Ġsetting":4687,"Ġexclus":4688,"ĠMicrosoft":4689,"itutional":4690,"Ġtough":4691,"Ġoperation":4692,"Ġlength":4693,"Ġidentity":4694,"Ġuseful":4695,"Ġexchange":4696,"annel":4697,"nel":4698,"ĠSupreme":4699,"makers":4700,"ĠRobert":4701,"andom":4702,"Ġtim":4703,"Ġfinished":4704,"ancy":4705,"Ġappropri":4706,"osure":4707,"ĠChris":4708,"Ġassess":4709,"Ġsurvey":4710,"ĠÃ":4711,"Ġidentified":4712,"Ġprefer":4713,"how":4714,"Ġguess":4715,"90":4716,"Ġconclud":4717,"By":4718,"Ġbul":4719,"Ġcancer":4720,"Ġgirls":4721,"Ġarrived":4722,"riend":4723,"ĠPress":4724,"Ġstick":4725,"Ġfeels":4726,"BS":4727,"ĠUN":4728,"ady":4729,"wing":4730,"Ġeditor":4731,"Ġotherwise":4732,"ĠPri":4733,"70":4734,"Ġremoved":4735,"Ġ35":4736,"21":4737,"ulate":4738,"Ġorganizations":4739,"ĠJapanese":4740,"Ġtaxes":4741,"night":4742,"uct":4743,"Ġgender":4744,"Ġowner":4745,"ĠMer":4746,"Ġmodels":4747,"Ġmissing":4748,"Ġeat":4749,"Ġpartner":4750,"what":4751,"Ġ70":4752,"Ġtherefore":4753,"bre":4754,"Ġcommission":4755,"prof":4756,"ĠAngeles":4757,"vered":4758,"Ġcook":4759,"Ġcells":4760,"suit":4761,"Ġsust":4762,"Ġseek":4763,"Ġspirit":4764,"icon":4765,"olly":4766,"ĠMag":4767,"ĠJim":4768,"enses":4769,"ĠDirect":4770,"Pro":4771,"Ġsuggests":4772,"Ġaggress":4773,"Ġmere":4774,"Ġ31":4775,"Ġcircum":4776,"apped":4777,"bour":4778,"Ġcorner":4779,"ĠPakistan":4780,"Ġtrip":4781,"Ġskills":4782,"cks":4783,"ĠMexico":4784,"Ġimmigration":4785,"kins":4786,"ga":4787,"Ġslightly":4788,"ET":4789,"ĠVirgin":4790,"Ġprotection":4791,"do":4792,"dden":4793,"Ġhair":4794,"outs":4795,"ography":4796,"Ġstrike":4797,"ception":4798,"ĠFrank":4799,"Ġlibr":4800,"ĠVer":4801,"Ġremind":4802,"ĠOver":4803,"ĠJud":4804,"ĠPC":4805,"Ġhusband":4806,"ĠTre":4807,"Ġsupply":4808,"Ġplanet":4809,"28":4810,"Ġbigger":4811,"real":4812,"Not":4813,"idering":4814,"Ġdetect":4815,"Ġtransform":4816,"Ġkilling":4817,"owl":4818,"Ġtransl":4819,"Ġconnection":4820,"Ġearth":4821,"azon":4822,"Ġweak":4823,"rick":4824,"ĠJeff":4825,"Ġprofessor":4826,"ĠConst":4827,"Ġelements":4828,"Ġenvironmental":4829,"ronic":4830,"Ġfamiliar":4831,"Ðµ":4832,"Ġplanned":4833,"Ġge":4834,"Ġgraph":4835,"ula":4836,"Ġappoint":4837,"agues":4838,"Ġhelping":4839,"Ġsides":4840,"Ġcollection":4841,"ĠEv":4842,"ĠRo":4843,"Ġmig":4844,"Ġfle":4845,"ribe":4846,"ĠSil":4847,"place":4848,"Ġmarkets":4849,"itz":4850,"PS":4851,"ĠAlthough":4852,"Ġspeaking":4853,"ĠArmy":4854,"ius":4855,"Ġmental":4856,"Ġincreasingly":4857,"Ġaward":4858,"azine":4859,"Ġstandards":4860,"Ġfailure":4861,"gers":4862,"Ġfigh":4863,"Ġfiled":4864,"Ġgain":4865,"Ġscientific":4866,"ĠMat":4867,"uate":4868,"isf":4869,"Ġdepend":4870,"ĠMiss":4871,"ĠKh":4872,"rency":4873,"Ġspect":4874,"Ġsteps":4875,"Ġhappening":4876,"Ġsudden":4877,"NN":4878,"Ġcarried":4879,"ancing":4880,"ĠAndroid":4881,"ĠFore":4882,"odies":4883,"Ġguard":4884,"Ġvariety":4885,"Ġacadem":4886,"Ġdecide":4887,"Ġtalks":4888,"hens":4889,"Ġultimately":4890,"Ġtack":4891,"ĠSyrian":4892,"Ġamazing":4893,"onto":4894,"Ġcuts":4895,"Ġdomestic":4896,"ĠSl":4897,"OM":4898,"Ġtweet":4899,"erous":4900,"Ġterrit":4901,"Ġ2005":4902,"Ð°":4903,"iser":4904,"lor":4905,"ĠLouis":4906,"ĠUp":4907,"Ġstanding":4908,"inter":4909,"Ġbeer":4910,"ĠRyan":4911,"ĠLike":4912,"Ġroll":4913,"Le":4914,"Ġunion":4915,"ros":4916,"Ġcrew":4917,"ĠIr":4918,"Ġrevolution":4919,"Ġdevelopers":4920,"anda":4921,"Ġregist":4922,"ĠAc":4923,"Ġoperating":4924,"ĠSecretary":4925,"ĠGovernment":4926,"Ġneighborhood":4927,"Ġdownload":4928,"Ġfellow":4929,"stream":4930,"Ġarmy":4931,"ĠInc":4932,"Ġnone":4933,"verse":4934,"Ġagencies":4935,"Ġupdate":4936,"ĠTheir":4937,"Ġaccounts":4938,"RE":4939,"Ġstarts":4940,"Ġimpossible":4941,"Ġpossibly":4942,"Ġdropped":4943,"rastructure":4944,"igan":4945,"umn":4946,"Ġath":4947,"Ġplease":4948,"Ġcorporate":4949,"icide":4950,"!âĢĿ":4951,"gypt":4952,"Ġmulti":4953,"Ġphilos":4954,"Ġpet":4955,"Ġunivers":4956,"Our":4957,"Ġlosing":4958,"Ġvast":4959,"ucky":4960,"Ġdegree":4961,"Ġvul":4962,"ĠRichard":4963,"Ġinnov":4964,"adium":4965,"Ġsch":4966,"Ġalternative":4967,"Ġdat":4968,"Ġhate":4969,"33":4970,"org":4971,"eless":4972,"Ġpaying":4973,"ait":4974,"onym":4975,"Ġbatter":4976,"ĠGame":4977,"Ġrich":4978,"ups":4979,"Ġapparently":4980,"Ġfundament":4981,"Ġ2000":4982,"Ġpair":4983,"amm":4984,"Ġstruct":4985,"rees":4986,"ĠArt":4987,"Ġbalance":4988,"ĠNor":4989,"DA":4990,"ĠStep":4991,"US":4992,"Ã¡":4993,"Ġexpensive":4994,"29":4995,"Ġinteract":4996,"Ġappre":4997,"kes":4998,"Ġauthority":4999,"Ġlived":5000,"ĠBern":5001,"Ġphotos":5002,"hedul":5003,"Ġdeveloping":5004,"Ġpossibility":5005,"Ġsolar":5006,"kin":5007,"ĠAdd":5008,"ka":5009,"ym":5010,"Ġhonest":5011,"Ġprinc":5012,"Ġchanging":5013,"ĠTim":5014,"run":5015,"Ġseeking":5016,"Ġturns":5017,"Ġyards":5018,"ĠGroup":5019,"Ġexperts":5020,"Ġwish":5021,"Ġworry":5022,"Ġtwice":5023,"Ġhealthy":5024,"Ġreligion":5025,"range":5026,"Ġcloser":5027,"ania":5028,"ĠMartin":5029,"Ġsoldiers":5030,"Ġfiles":5031,"Ġimagine":5032,"Ġdeploy":5033,"Ġthanks":5034,"icted":5035,"ĠSal":5036,"Ġvotes":5037,"Trump":5038,"):":5039,"Ġhumans":5040,"Ġapplications":5041,"Ġuniversity":5042,"Ġabsolutely":5043,"Ġpit":5044,"Ġequip":5045,"Ġapart":5046,"ynam":5047,"Ġelections":5048,"itors":5049,"Ġque":5050,"aded":5051,"ashed":5052,"ĠRock":5053,"Ġsitting":5054,"ĠPrime":5055,"Ġlob":5056,"Ġcold":5057,"....":5058,"Ġschedul":5059,"ĠMont":5060,"Ġapply":5061,"ĠAtlant":5062,"ĠResearch":5063,"Ġscript":5064,"Ġcapacity":5065,"Ġresponsibility":5066,"ĠMary":5067,"Ġconvention":5068,"ĠTy":5069,"ansion":5070,"Ġregarding":5071,"met":5072,"Ġsea":5073,"ĠMos":5074,"Ġbeautiful":5075,"Ġvision":5076,"ĠFoundation":5077,"aren":5078,"ĠJoe":5079,"arsh":5080,"ils":5081,"Ġinstit":5082,"Ġinternal":5083,"ĠLeg":5084,"cript":5085,"Ġguarant":5086,"gar":5087,"Ġtests":5088,"Ġearn":5089,"ologies":5090,"HL":5091,"AA":5092,"mas":5093,"Ġoptim":5094,"Ġfamous":5095,"Ġattorney":5096,"Ġsport":5097,"ĠJose":5098,"cious":5099,"itect":5100,"Ġsounds":5101,"Ġflight":5102,"oston":5103,"Ġpil":5104,"Ġtight":5105,"Ġcovered":5106,"ĠAlso":5107,"Ġintended":5108,"Ġgovernments":5109,"roud":5110,"Ġunits":5111,"Ġpotentially":5112,"Ġsurprise":5113,"ortion":5114,"ĠMP":5115,"Ġunless":5116,"ĠCollege":5117,"Ġconsult":5118,"gn":5119,"with":5120,"Ġadjust":5121,"ĠThomas":5122,"ĠPet":5123,"Ġseasons":5124,"ĠDistrict":5125,"Ġstreets":5126,"coh":5127,"Ġbringing":5128,"Ġarms":5129,"Ġtast":5130,"ĠThose":5131,"Ġteen":5132,"Ġvehicles":5133,"Ġheat":5134,"Ġpresented":5135,"ava":5136,"Ġexpert":5137,"ressive":5138,"Ġestimated":5139,"Ġskin":5140,"ĠCarolina":5141,"Ġfol":5142,"Ġanimal":5143,"Ġhelps":5144,"Des":5145,"Ġ2018":5146,"Ġoccurred":5147,"olit":5148,"isted":5149,"ĠMiddle":5150,"uke":5151,"Ġodd":5152,"Ġdetermine":5153,"enced":5154,"ocal":5155,"Ġinfrastructure":5156,"Ġdomin":5157,"ola":5158,"Ġforms":5159,"Ġspecifically":5160,"Ġsector":5161,"Ġplenty":5162,"vis":5163,"apers":5164,"arks":5165,"Ġtroops":5166,"Even":5167,"orial":5168,"ey":5169,"Ġwindow":5170,"Ġserver":5171,"Ġoffering":5172,"Ġfif":5173,"Ġ*":5174,"ĠEgypt":5175,"Ġrapid":5176,"related":5177,"ĠProf":5178,"ano":5179,"ĠWeb":5180,"Ġseconds":5181,"iams":5182,"Cl":5183,"Ġclim":5184,"Ġclick":5185,"Ġselling":5186,"Ġtrail":5187,"osen":5188,"porary":5189,"Ar":5190,"lets":5191,"pay":5192,"Ġprove":5193,"look":5194,"Ġheav":5195,"uters":5196,"Ġprosecut":5197,"Ġrecru":5198,"Ġrid":5199,"Ġnar":5200,"Ġinsp":5201,"Ġscr":5202,"ĠAre":5203,"terday":5204,"ores":5205,"Ġelected":5206,"ĠPut":5207,"ĠFrancisco":5208,"ĠCentral":5209,"Ġdram":5210,"Ġlocated":5211,"Ġproposal":5212,"Ġfired":5213,"ĠPre":5214,"ĠToronto":5215,"Ġmut":5216,"Ġsymb":5217,"Ġcarbon":5218,"ĠService":5219,"person":5220,"Ġflow":5221,"Ġgar":5222,"stein":5223,"Ġcouncil":5224,"ocol":5225,"rible":5226,"ader":5227,"Ġboost":5228,"ĠCath":5229,"SP":5230,"Ġbroken":5231,"Ġvulner":5232,"uster":5233,"ĠYes":5234,"inent":5235,"endment":5236,"Ġwriter":5237,"hi":5238,"pret":5239,"Ġprime":5240,"Last":5241,"Ġprepared":5242,"Ġera":5243,"Ġcas":5244,"ĠSur":5245,"Ġsecure":5246,"phas":5247,"Ġrefused":5248,"den":5249,"ĠBitcoin":5250,"ĠAri":5251,"Ġequipment":5252,"ĠJes":5253,"Ġretail":5254,"Ġconducted":5255,"Ġruling":5256,"Ġcultural":5257,"ĠMet":5258,"Ġvoted":5259,"Ġchallenges":5260,"Ġpieces":5261,"ĠLast":5262,"ĠInter":5263,"ĠDen":5264,"Ġregime":5265,"Ġpositions":5266,"ĠBur":5267,"ĠOnce":5268,"ĠPeter":5269,"Ġpointed":5270,"state":5271,"hand":5272,"Ġpercentage":5273,"Ġstars":5274,"Ġconclus":5275,"Ġton":5276,"Ġequal":5277,"iot":5278,"Ġfaster":5279,"Ġbroke":5280,"ureau":5281,"oving":5282,"road":5283,"eder":5284,"aine":5285,"Ġcriticism":5286,"Ġstress":5287,"Ġpoliticians":5288,"ĠMedic":5289,"TC":5290,"Ġremained":5291,"Ġfacing":5292,"acks":5293,"IL":5294,"Ġvoting":5295,"ĠAustralian":5296,"Ġargued":5297,"Of":5298,"Ġstret":5299,"Ġyouth":5300,"ĠFederal":5301,"Ġweren":5302,"Ġinvolve":5303,"ĠChief":5304,"aven":5305,"âĢĺ":5306,"Ġclin":5307,"Ġclot":5308,"Ġcombat":5309,"ĠFire":5310,"Ġrevenue":5311,"ĠBoston":5312,"ĠVirginia":5313,"ĠGet":5314,"ĠYour":5315,"Ġjail":5316,"Ġgrew":5317,"ĠSaud":5318,"under":5319,"cean":5320,"rd":5321,"Ġchemical":5322,"Ġgreatest":5323,"RA":5324,"Ġdin":5325,"noon":5326,"Ġconsumers":5327,",[":5328,"ĠNA":5329,"fe":5330,"Ġappearance":5331,"idden":5332,"Im":5333,"Ġexpressed":5334,"ĠTwo":5335,"rist":5336,"--------":5337,"och":5338,"Ġsignificantly":5339,"icate":5340,"Ġobviously":5341,"Ġconsidering":5342,"Ġfactors":5343,"Ġopportunities":5344,"war":5345,"Ġprospect":5346,"ĠAmazon":5347,"Ġsurprising":5348,"Ġmonitor":5349,"Ġfilms":5350,"ĠLat":5351,"Ġshape":5352,"ĠDuring":5353,"Ġtrig":5354,"Ġ2004":5355,"Ġerror":5356,"illa":5357,"Since":5358,"Ġmarg":5359,"ashion":5360,"Ġtourn":5361,"Ġherself":5362,"Ġ45":5363,"Ġrent":5364,"Ġdetermined":5365,"ĠBoth":5366,"ĠParis":5367,"Ġbought":5368,"ĠJon":5369,"Ġhyp":5370,"Ġbreat":5371,"Ġsigns":5372,"useum":5373,"ĠGood":5374,"Ġminimum":5375,"anish":5376,"Ġremaining":5377,"Ġthr":5378,"ĠSub":5379,"Ġexperienced":5380,"Ġremove":5381,"Ġmethods":5382,"atures":5383,"Ġfinish":5384,"Ġtact":5385,"orage":5386,"DP":5387,"olved":5388,"rie":5389,"Ġcontrast":5390,"Ġturning":5391,"Ġ195":5392,"ING":5393,"Ġindeed":5394,"awn":5395,"Ġrecorded":5396,"ĠMass":5397,"Ġaffected":5398,"Ġbaby":5399,"Ġdepart":5400,"Ġshift":5401,"Ġsupporting":5402,"ĠJournal":5403,"uzz":5404,"Ġuns":5405,"Ġaid":5406,"onom":5407,"oty":5408,"Ġidentify":5409,"Ġmaster":5410,"ocking":5411,"Ġspring":5412,"Ġbasically":5413,"Ġwidely":5414,"Ġpurchase":5415,"Ġexcited":5416,"ĠPlan":5417,"Ġaircraft":5418,"Ġvir":5419,"Ġcombined":5420,"Ġrandom":5421,"ĠGal":5422,"Ġ194":5423,"Ġopposed":5424,"ĠGuard":5425,"ĠRiver":5426,"Ġpulled":5427,"Ġmagn":5428,"ĠBob":5429,"Ġappreci":5430,"Ġpassing":5431,"Ġwearing":5432,"ias":5433,"alls":5434,"ipping":5435,"ĠSocial":5436,"Ġliberal":5437,"Ġplus":5438,"Ġ32":5439,"Ġemergency":5440,"Ġhandle":5441,"ownt":5442,"standing":5443,"Ġ1990":5444,"ĠPlease":5445,"ĠPublic":5446,"Ġprivacy":5447,"Ġleads":5448,"Ġwood":5449,"Ġseriously":5450,"Ġweapon":5451,"Ġmotiv":5452,"Ġafternoon":5453,"Ġhopes":5454,"anche":5455,"Con":5456,"Ġhun":5457,"Ġcollabor":5458,"Ġstruggle":5459,"Ġhurt":5460,"Ġtypically":5461,"ĠMur":5462,"Ġreporters":5463,"class":5464,"ĠCru":5465,"ĠCamp":5466,"ĠConserv":5467,"Ġpanel":5468,"lymp":5469,"Ġbound":5470,"Ġtalked":5471,"essions":5472,"Ġdream":5473,"isher":5474,"Ġproced":5475,"36":5476,"Ġagent":5477,"ĠRub":5478,"hered":5479,"Ġattempts":5480,"Ġpowers":5481,"Ġoriginally":5482,"Ġplants":5483,"Ġbelong":5484,"Ġexplos":5485,"Ġapps":5486,"cel":5487,"vey":5488,"ordin":5489,"ĠSant":5490,"Ġaccident":5491,"rog":5492,"Ġfrust":5493,"Ġseat":5494,"Ġevening":5495,"that":5496,"Ġdismiss":5497,"oom":5498,"ruption":5499,"Ġcompleted":5500,"Ġdiscl":5501,"Ġsale":5502,"ivered":5503,"34":5504,"ĠUnder":5505,"Ġsubs":5506,"Ġast":5507,"rier":5508,"Ġlots":5509,"Ġadvance":5510,"Bl":5511,"Ġrenew":5512,"Ġtreated":5513,"gment":5514,"osite":5515,"ĠPac":5516,"oral":5517,"Ġbrow":5518,"plom":5519,"Ð¸":5520,"Ġinstitutions":5521,"lick":5522,"Ġzone":5523,"ĠLee":5524,"ĠIsland":5525,"].":5526,"abilities":5527,"Ġapproved":5528,"Ġswitch":5529,"Ġ>":5530,"Ġtradition":5531,"cohol":5532,"ĠAny":5533,"Ġconcent":5534,"lyn":5535,"75":5536,"Ġvideos":5537,"Ġconstruct":5538,"Ġglass":5539,"32":5540,"sen":5541,"Ġproceed":5542,"Ġentertain":5543,"issions":5544,"Ġmort":5545,"Ġminute":5546,"life":5547,"mosp":5548,"Ġ500":5549,"Ġelimin":5550,"ompl":5551,"ĠForce":5552,"ini":5553,"Ġends":5554,"Ġreduced":5555,"pet":5556,"Ġdisappoint":5557,"Ġdifferences":5558,"Ex":5559,"EL":5560,"ĠWilliams":5561,"uration":5562,"Ġcart":5563,"rawn":5564,"Ġvisual":5565,"38":5566,"Ġbatt":5567,"Ġnumerous":5568,"Ġhol":5569,"Ġpitch":5570,"oviet":5571,"yr":5572,"Ġdebut":5573,"Ġconfidence":5574,"Ġcoast":5575,"Ġmand":5576,"ĠOlymp":5577,"sts":5578,"Ġshall":5579,"Ġmal":5580,"Ġstorm":5581,"Ġtrouble":5582,"Ġemp":5583,"Ġreportedly":5584,"Ġexplo":5585,"ĠUSA":5586,"Ġelement":5587,"Ġtransition":5588,"MA":5589,"Ġcapable":5590,"During":5591,"ĠSpr":5592,"ours":5593,"urb":5594,"ĠMel":5595,"uous":5596,"gl":5597,"Ġbodies":5598,"Ġunable":5599,"Ġmatters":5600,"Ġsac":5601,"care":5602,"Ġfactor":5603,",'":5604,"Ġcreation":5605,"ucks":5606,"Ġhttp":5607,"Ġquarterback":5608,"apping":5609,"Ġconfident":5610,"ĠYet":5611,"ĠUs":5612,"Ġcrimes":5613,"ĠColor":5614,"ĠAfghanistan":5615,"ogue":5616,"ĠDec":5617,"Ġnewspaper":5618,"called":5619,"ributed":5620,"Ġquant":5621,"Ġsuffered":5622,"Ġperspective":5623,"Ġsevere":5624,"Ġviolent":5625,"Ġstands":5626,"Ġquiet":5627,"Every":5628,"Ġsuit":5629,"ller":5630,"Ġdistance":5631,"ĠProt":5632,"Ġupgr":5633,"ĠSteve":5634,"Ġprompt":5635,"Ġpublicly":5636,"Ġburn":5637,"Ġsem":5638,"ĠCharl":5639,"ĠVe":5640,"employ":5641,"Ġlisten":5642,"Ġexperiences":5643,"Ġpackage":5644,"lines":5645,"ĠLabour":5646,"Ġinstruct":5647,"esters":5648,"ĠSol":5649,"Ġtechnical":5650,"Ġcalcul":5651,"Ġongoing":5652,"Ġgrab":5653,"Ġsubstant":5654,"aled":5655,"ĠHaw":5656,"Just":5657,"Ġdenied":5658,"Ġgiant":5659,"ensions":5660,"Ġbroadcast":5661,"sex":5662,"Ġdelivered":5663,"aped":5664,"aints":5665,"Although":5666,"Ġmovies":5667,"Ġemails":5668,"Ġactivists":5669,"Ġdeclared":5670,"oking":5671,"Ġordered":5672,"nell":5673,"Ġcraft":5674,"Ġreaction":5675,"Ġweather":5676,"Ġcoff":5677,"Ġreference":5678,"Ġsatisf":5679,"ĠJo":5680,"ĠOut":5681,"hab":5682,"aling":5683,"idel":5684,"Another":5685,"Ġcloud":5686,"Ġcooper":5687,"Ġcircumst":5688,"Ġshouldn":5689,"unte":5690,"Ġshar":5691,"Ġroute":5692,"Ġsets":5693,"Ġtalent":5694,"eah":5695,"!!":5696,"ket":5697,"ionally":5698,"Ġlegit":5699,"Ġpages":5700,"Ġemphas":5701,"Ġconnected":5702,"Ġexcell":5703,"isters":5704,"Ġexplains":5705,"Ġloved":5706,"Ġaccompl":5707,"Ġargue":5708,"Ġfranch":5709,"Ġvalid":5710,"ÑĤ":5711,"resents":5712,"Ġpicked":5713,"Ġgra":5714,"Ġ;":5715,"Ġadmitted":5716,"ĠJackson":5717,"Ġperman":5718,"Ġguns":5719,"Ġarchitect":5720,"Ġsecretary":5721,"Ġlit":5722,"Ġmode":5723,"Ġterrorist":5724,"Ġforget":5725,"Ġtun":5726,"Ġenemy":5727,"OU":5728,"Ġeffectively":5729,"Ġarmed":5730,"Ġec":5731,"Ġgather":5732,"ĠOhio":5733,"Ġrealize":5734,"ĠiPh":5735,"Ġproud":5736,"Ġfly":5737,"anged":5738,"Ġfaces":5739,"Ġbull":5740,"Ġessentially":5741,"Ġapprox":5742,"Ġourselves":5743,"ĠSing":5744,"Ġthank":5745,"Ġmessages":5746,"Ġprin":5747,"uations":5748,"ĠMuslims":5749,"ĠTurkey":5750,"Ġpractices":5751,"Ġrail":5752,"ĠPenn":5753,"ĠTeam":5754,"Ġwrites":5755,"37":5756,"Ġappropriate":5757,"Ġcann":5758,"ilit":5759,"ĠCur":5760,"reens":5761,"abin":5762,"Ġagents":5763,"Ġresponded":5764,"Ġdelay":5765,"eds":5766,"Ġinitially":5767,"bur":5768,"ĠToday":5769,"Ġmarried":5770,"Ġreaders":5771,"ounded":5772,"Ġedge":5773,"imal":5774,"Ġflag":5775,"Ġbuildings":5776,"Ġwalking":5777,"Ġauth":5778,"Ġfilled":5779,"Ġconfirm":5780,"Ġdrivers":5781,"Ġplayoff":5782,"Ġlawyer":5783,"ĠHol":5784,"Ġgovernor":5785,"astern":5786,"mates":5787,"Ġadvice":5788,"ĠMatt":5789,"oken":5790,"Ġdefault":5791,"Ġstatements":5792,"Ġcentre":5793,"Ġallegations":5794,"enda":5795,"Ġrot":5796,"Ġmoral":5797,"razy":5798,"Ġathlet":5799,"Ġoffense":5800,"Ġeval":5801,"free":5802,"ishes":5803,"Ġsubsequ":5804,",âĢĻ":5805,"Ġphilosoph":5806,"enture":5807,"ĠSoviet":5808,"Ġnecessarily":5809,"Ġdiss":5810,"Ġfaced":5811,"Ġexpansion":5812,"ilty":5813,"ker":5814,"ĠOpen":5815,"Ġdiplom":5816,"ĠTime":5817,"Ġexercise":5818,"ĠSaudi":5819,"pass":5820,"Ġcrack":5821,"Ġinjured":5822,"Ġ1980":5823,"Ġtech":5824,"Ġlabel":5825,"Ġdesire":5826,"zer":5827,"agers":5828,"Ġsession":5829,"reland":5830,"Ġreporting":5831,"Ġ2003":5832,"Ġdial":5833,"ĠScot":5834,"ampion":5835,"respond":5836,"estival":5837,"angers":5838,"Ġpray":5839,"Ġleaves":5840,"odd":5841,"Ġradical":5842,"ĠUkraine":5843,"ĠBraz":5844,"Ġpatient":5845,"rid":5846,"ĠWilliam":5847,"Ġwarned":5848,"Ġnations":5849,"Ġdynam":5850,"top":5851,"long":5852,"hy":5853,"Ġbond":5854,"Ġinjuries":5855,"ĠDirector":5856,"Ġadvanced":5857,"Ġjoint":5858,"erry":5859,"Ġmissed":5860,"ĠHuman":5861,"ĠSpace":5862,"Ġpictures":5863,"Ġmaterials":5864,"ĠBBC":5865,"ternal":5866,"elly":5867,"Ġinvestors":5868,"Ġabandon":5869,"obe":5870,"Ġthinks":5871,"Ġfindings":5872,"Ġ2001":5873,"Ġatmosp":5874,"Ġwear":5875,"ĠBarack":5876,"Many":5877,"illance":5878,"Ġshop":5879,"Ġcauses":5880,"His":5881,"arters":5882,"Ġannouncement":5883,"adow":5884,"Ġsuc":5885,"Ġrepresents":5886,"Ġpool":5887,"ulations":5888,"ĠRomney":5889,"Ġyesterday":5890,"Ġbare":5891,"Ġartist":5892,"Ġdemocracy":5893,"Ġdeclined":5894,"Ġmanufacture":5895,"Ġconsequences":5896,"Ġaccepted":5897,"Ġincor":5898,"Ġsad":5899,"Ġpushed":5900,"orders":5901,"Ġnut":5902,"Ġlinked":5903,"Ġobjects":5904,"whel":5905,"Ġmotor":5906,"Ġthreats":5907,"Ġneither":5908,"ourney":5909,"mond":5910,"Ġnearby":5911,"ĠSeattle":5912,"Ġroughly":5913,"Pe":5914,"ĠMa":5915,"Ġdoctor":5916,"Ġlawsuit":5917,"Ġfish":5918,"Ġrising":5919,"Ġmagazine":5920,"ĠWal":5921,"Here":5922,"ĠRad":5923,"Ġscheduled":5924,"ocratic":5925,"ĠWho":5926,"abled":5927,"Ġeverybody":5928,"tion":5929,"Ġsought":5930,"Ġrein":5931,"Ġremark":5932,"Ġperformed":5933,"Ġfort":5934,"icing":5935,"Ġmyster":5936,"Ġ36":5937,"Ġparliament":5938,"!\"":5939,"Ġreceiving":5940,"39":5941,"ĠRon":5942,"Ġrain":5943,"ita":5944,"Ġforg":5945,"Ġconsumer":5946,"ĠSher":5947,"ĠRoad":5948,"Ġcolleagues":5949,"essor":5950,"Ġske":5951,"Ġunlikely":5952,"Ġinterpret":5953,"uls":5954,"Ġpure":5955,"Ġheavily":5956,"Ġincreases":5957,"Ġsongs":5958,"ooth":5959,"OL":5960,"unction":5961,"Ġnetworks":5962,"Ġpra":5963,"Ġnative":5964,"Ġisland":5965,"Ġing":5966,"Ġcombination":5967,"Ġcreative":5968,"ĠChristmas":5969,"Ġlisted":5970,"ĠML":5971,"ĠMichigan":5972,"Ġrestaurant":5973,"Ġhistorical":5974,"Ġfill":5975,"mail":5976,"CL":5977,"Ġupdates":5978,"ĠAndrew":5979,"iat":5980,"Ġcontains":5981,"Ġwithd":5982,"Ġdatab":5983,"Ġresolution":5984,"Ġimproved":5985,"Ġvs":5986,"cons":5987,"ador":5988,"Ġdiscussed":5989,"Ġsurprised":5990,"Ġspons":5991,"Ġexamples":5992,"From":5993,"Ġstood":5994,"ĠRod":5995,"dule":5996,"Ġhighlight":5997,"erved":5998,"Ġflood":5999,"ĠLin":6000,"fortunately":6001,"iest":6002,"Ġprohib":6003,"Ġid":6004,"can":6005,"Ġexplan":6006,"Ġmoves":6007,"IP":6008,"col":6009,"Ġapplied":6010,"Ġresident":6011,"Ġregulations":6012,"Ġfairly":6013,"Ġbrings":6014,"nergy":6015,"Ġclient":6016,"ansas":6017,"Ġscored":6018,"Ġsav":6019,"Ġentered":6020,"Ġhousehold":6021,"ĠIreland":6022,"Ġguilty":6023,"ĠGrand":6024,"enger":6025,"ĠBet":6026,"Ġwarm":6027,"Ġconsistent":6028,"Ġcurrency":6029,"Ġride":6030,"Ġyounger":6031,"Ġshots":6032,"ĠSqu":6033,"gia":6034,"aza":6035,"Ġcontest":6036,"Ġexistence":6037,"Ġalcohol":6038,"Ġsucceed":6039,"ĠLib":6040,"www":6041,"Ġcampus":6042,"Ġallegedly":6043,"Ġfacts":6044,"Ġphen":6045,"Ġyell":6046,"rich":6047,"Ġvice":6048,"Ġenh":6049,"edy":6050,"otic":6051,"Ġtotally":6052,"Ġsquare":6053,"Ġdistribution":6054,"Ġclassic":6055,"Ġmir":6056,"Ġthoughts":6057,"water":6058,"Ġtree":6059,"Ġalt":6060,"Ġstorage":6061,"ĠProject":6062,"Ġadds":6063,"Ġfacility":6064,"ato":6065,"Ġchart":6066,"ĠStan":6067,"ĠDaily":6068,"ĠNBA":6069,"ouston":6070,"stood":6071,"mbly":6072,"ĠISIS":6073,"irds":6074,"Ġmarketing":6075,"Ġplane":6076,"Ġmanage":6077,"ĠCub":6078,"law":6079,"rum":6080,"Ġfewer":6081,"ĠJews":6082,"Ġprotests":6083,"oves":6084,"ĠMem":6085,"Ġbehavi":6086,"Ġstores":6087,"Ġdoctors":6088,"usal":6089,"Ġbegins":6090,"ĠFe":6091,"Ġfraud":6092,"Ġshif":6093,"ache":6094,"Ġbright":6095,"Ġanywhere":6096,"ĠScience":6097,"Ġboys":6098,"Ġschol":6099,"Ġbuying":6100,"Ġimportance":6101,"ĠFer":6102,"American":6103,"Ġclasses":6104,"arn":6105,"greg":6106,"Ġreplaced":6107,"Ġsam":6108,"ĠColumb":6109,"CH":6110,"ĠBrazil":6111,"Ġflo":6112,"ĠWood":6113,"Ġsomewhat":6114,"Ġdecre":6115,"ĠSwed":6116,"ĠKorean":6117,"Ġbreaking":6118,"Ġindustrial":6119,"ÃŃ":6120,"ĠAsia":6121,"ĠNov":6122,"Ġdeaths":6123,"Ġdiet":6124,"alty":6125,"illy":6126,"ĠShow":6127,"ĠIts":6128,"gent":6129,"More":6130,"ĠKim":6131,"asure":6132,"Ġclosely":6133,"Ġdownt":6134,"Ġsplit":6135,"Ġopposite":6136,"evin":6137,"Ġacknowled":6138,"Ġbike":6139,"Ġmetal":6140,"Go":6141,"Ġaf":6142,"Ġwarning":6143,"aniel":6144,"Ġpromise":6145,"arl":6146,"ĠBook":6147,"Well":6148,"Ġtargets":6149,"Ġlock":6150,"ĠPower":6151,"ĠRem":6152,"ĠMaybe":6153,"Ġessential":6154,"ĠCNN":6155,"Ġharder":6156,"Ġimmigrants":6157,"Ġhoping":6158,"Ġhardware":6159,"Ġwaste":6160,"Ġblow":6161,"],":6162,"ĠAff":6163,"Ġadults":6164,"ĠEach":6165,"Ġmoments":6166,"Ġplot":6167,"Ġdivision":6168,"ĠSee":6169,"Ġresc":6170,"Ġgrown":6171,"irty":6172,"Ġacts":6173,"host":6174,"Ġnav":6175,"ĠAM":6176,"ĠVict":6177,"born":6178,"TV":6179,"Ġvolunte":6180,"ĠiPhone":6181,"Ġalongside":6182,"Ġintention":6183,"Ġboss":6184,"iques":6185,"Ġsymbol":6186,"ĠBoard":6187,"ĠHen":6188,"Ġentry":6189,"hetic":6190,"Ġfeatured":6191,"Ġopponent":6192,"Ġrum":6193,"Ġrally":6194,"upp":6195,"Ġrow":6196,"oma":6197,"ĠGen":6198,"Ġtemperature":6199,"Ġholds":6200,"ĠMs":6201,"Ġearned":6202,"Ġlie":6203,"ĠWhe":6204,"Ġfashion":6205,"nic":6206,"Ġsees":6207,"Ġcustomer":6208,"Ġhell":6209,"Ã¤":6210,"Ġcontroversial":6211,"mitted":6212,"Ġartists":6213,"Ġmotion":6214,"Ġsquad":6215,"Ġpushing":6216,"oked":6217,"amin":6218,"Ġcircumstances":6219,"Ġvari":6220,"esome":6221,"Ġfundamental":6222,"Pl":6223,"Ġlibrary":6224,"ala":6225,"asp":6226,"ĠAriz":6227,"ĠMount":6228,"Ġsuffering":6229,"ĠDou":6230,"Ġcommitment":6231,"Ġvan":6232,"ĠIll":6233,"ican":6234,"Ġcere":6235,"Ġcompetitive":6236,"Ġfavour":6237,"usiness":6238,"Ġemotional":6239,"Ġdefined":6240,"Ġflat":6241,"apter":6242,"Ġregional":6243,"Ġembr":6244,"ĠRel":6245,"Ġdecline":6246,"Ġrepeatedly":6247,"formation":6248,"Despite":6249,"ollywood":6250,"Ġillust":6251,"ĠLake":6252,"ologist":6253,"Ġtow":6254,"Ġimmediate":6255,"Ġexcellent":6256,"Ġsym":6257,"ĠSecond":6258,"Ġrelationships":6259,"Ġchain":6260,"andal":6261,"ĠRev":6262,"Ġzero":6263,"ĠColorado":6264,"Ġped":6265,"Ġrelevant":6266,"Ġversions":6267,"Ġcarrying":6268,"Ġsnow":6269,"Ġextent":6270,"Ġtiny":6271,"Ġisol":6272,"Ġformed":6273,"ĠAnother":6274,"Ġefficient":6275,"west":6276,"ensus":6277,"Over":6278,"Ġkinds":6279,"efully":6280,"anes":6281,"Get":6282,"ĠPalestinian":6283,"Ġunus":6284,"rip":6285,"ĠFree":6286,"Ġ300":6287,"acle":6288,"Ġevolution":6289,"Ġcheap":6290,"ĠTra":6291,"Ġcomfortable":6292,"Most":6293,"Ġcorrespond":6294,"IV":6295,"olve":6296,"acter":6297,"Ġacting":6298,"ĠMedia":6299,"omin":6300,"ĠOnly":6301,"Ġattempted":6302,"ĠPhoto":6303,"abb":6304,"Ġfrequently":6305,"ometimes":6306,"ĠCatholic":6307,"Ġmainstream":6308,"Ġcycle":6309,"hus":6310,"ĠPutin":6311,"net":6312,"agan":6313,"Ġpip":6314,"Am":6315,"Ġurban":6316,"arden":6317,"ellect":6318,"ĠTechn":6319,"Ġchairman":6320,"Ġsubsid":6321,"Ġreferred":6322,"Ġsick":6323,"inem":6324,"Ġoutput":6325,"ĠPrem":6326,"Ind":6327,"Ġfunctions":6328,"Ġhat":6329,"Ġdedicated":6330,"Ġupcoming":6331,"Ġtournament":6332,"Ġempt":6333,"Ġauthors":6334,"ĠCIA":6335,"erves":6336,"Ġowned":6337,"44":6338,"mes":6339,"Ġcongress":6340,"ĠRights":6341,"Ġagenda":6342,"Ġwave":6343,"ĠFar":6344,"vin":6345,"Ġhur":6346,"Ġtrick":6347,"Ġbag":6348,"uable":6349,"chers":6350,"Ġsharing":6351,"Ġdetailed":6352,"Ġsurrounding":6353,"PR":6354,"Ġlies":6355,"Ġheads":6356,"Ġopponents":6357,"ulous":6358,"Ġoverwhel":6359,"certain":6360,"Ġfemin":6361,"Ġarticles":6362,"Ġstruck":6363,"Ġinspired":6364,"Ġinstru":6365,"Ġexpression":6366,"Ġancient":6367,"Tube":6368,"Ġpled":6369,"Ġtargeted":6370,"hips":6371,"Ġreput":6372,"Ġdescribe":6373,"Ġsurveillance":6374,"Ġserving":6375,"Ġmechanism":6376,"ĠHouston":6377,"rations":6378,"Ġhotel":6379,"Ġrealized":6380,"Ġintent":6381,"ĠSystem":6382,"Ġ2002":6383,"ĠAv":6384,"Ġmanner":6385,"ĠHy":6386,"Ġreturns":6387,"Ġstudio":6388,"Ġparticipants":6389,"atell":6390,"pan":6391,"Ġcert":6392,"Let":6393,"Ġconfig":6394,"Ġnarr":6395,"Ġdeeply":6396,"Ġteachers":6397,"PD":6398,"ĠID":6399,"ĠBrook":6400,"Ġstrange":6401,"Ġinput":6402,"Ġassets":6403,"orse":6404,"ht":6405,"ĠSum":6406,"ource":6407,"Ġbutton":6408,"Ġapproval":6409,"Ġlatter":6410,"Ġfollows":6411,"ĠAT":6412,"Ġpregn":6413,"Ġcausing":6414,"ĠSign":6415,"PU":6416,"Ġtermin":6417,"Ġfranchise":6418,"uated":6419,"Ġuniverse":6420,"ĠDevelop":6421,"ĠValley":6422,"lo":6423,"ockey":6424,"Ġdepth":6425,"Ġlaugh":6426,"alian":6427,"Ġwatched":6428,"Ġfasc":6429,"edia":6430,"Ġmine":6431,"Ġsyn":6432,"Ġcrazy":6433,"duc":6434,"Ġknowing":6435,"xual":6436,"Ġwire":6437,"Ġbasket":6438,"55":6439,"Ġvirtual":6440,"Ġlinks":6441,"Ġtransp":6442,"Ñģ":6443,"Ġliterally":6444,"Ġunemploy":6445,"Ġexciting":6446,"Ġliqu":6447,"()":6448,"Ã³":6449,"Ġsending":6450,"Ġbat":6451,"ĠDiv":6452,"Ġmeat":6453,"Ĥ¬":6454,"Ġjourney":6455,"Ġpassion":6456,"Ġprecise":6457,"Ġdealing":6458,"ĠWalk":6459,"Ġimpressive":6460,"Ġaside":6461,"iveness":6462,"Ġusual":6463,"Ġwalked":6464,"foot":6465,"Ġwinter":6466,"Ġwage":6467,"Ġ34":6468,"____":6469,"Ġsigning":6470,"pm":6471,"Ġinvolving":6472,"Ġsuicide":6473,"utch":6474,"Ġexplore":6475,"IM":6476,"ĠRam":6477,"Ġmedic":6478,"oming":6479,"nam":6480,"chen":6481,"Ġdesk":6482,"Ġwins":6483,"31":6484,"Ġtort":6485,"Ġpromised":6486,"Ġschedule":6487,"Ġnomine":6488,"onna":6489,"Ġsustain":6490,"TA":6491,"Ġrefugees":6492,"Ġtom":6493,"Ġnorthern":6494,"ĠSky":6495,"Ġrape":6496,"Ġterritory":6497,"Ð½":6498,"Ġcoffee":6499,"Ġnarrow":6500,"Ġwake":6501,"Ġsentence":6502,"ĠBlue":6503,"ena":6504,"Ġfolks":6505,"Why":6506,"Ġdefeat":6507,"ĠArizona":6508,"ĠOk":6509,"Ġrisks":6510,"Ġmouth":6511,"Ġorders":6512,"ĠJesus":6513,"gas":6514,"Ġgap":6515,"kel":6516,"Ġstring":6517,"Ġbattery":6518,"woman":6519,"Ġnoticed":6520,"Ġhall":6521,"style":6522,"Ġkit":6523,"athan":6524,"Ġsimpl":6525,"cho":6526,"ĠCruz":6527,"icious":6528,"Ġabortion":6529,"Ġcommunication":6530,"etroit":6531,"Ġskill":6532,"Ġpromote":6533,"Ġsister":6534,"ĠDan":6535,"Ġobserv":6536,"Ġremote":6537,"game":6538,"Donald":6539,"luding":6540,"Ġsand":6541,"Ġbon":6542,"def":6543,"47":6544,"orry":6545,"verty":6546,"Ġ1970":6547,"Ġring":6548,"ras":6549,"Ġterrorism":6550,"iger":6551,"Ġforth":6552,"Ġflu":6553,"ĠAN":6554,"Ġcopyright":6555,"new":6556,"Ġattacked":6557,"Ġcolumn":6558,"Ġwest":6559,"comm":6560,"Ġrequirements":6561,"Ġmerely":6562,"ĠDavis":6563,"48":6564,"azi":6565,"Ġprotesters":6566,"Ġchannel":6567,"Ġgang":6568,"Ġguide":6569,"Ġexhib":6570,"ĠEric":6571,"Ġpoverty":6572,"Ġking":6573,"Ġallies":6574,"Ġputs":6575,"weight":6576,"Ġneut":6577,"Ġphenomen":6578,"Ġrecognize":6579,"Ġretire":6580,"ĠWork":6581,"Ġdiscover":6582,"Ġextended":6583,"Ġstream":6584,"Ġchose":6585,"Ġapproximately":6586,"Ġjournalists":6587,"ĠDefense":6588,"ĠElect":6589,"ingu":6590,"rating":6591,"Ġfacilities":6592,"Ġblame":6593,"Ġcritics":6594,"itarian":6595,"ĠJul":6596,"mm":6597,"word":6598,"ordan":6599,"Ġcommunications":6600,"Ġproperties":6601,"Ġeating":6602,"Ġoblig":6603,"esh":6604,"Do":6605,"Ġsuddenly":6606,"=\"":6607,"awa":6608,"Ġemissions":6609,"ographic":6610,"Ġsho":6611,"ceived":6612,"ĠEnergy":6613,"iciency":6614,"ĠClub":6615,"ĠYouTube":6616,"Ġlocations":6617,"Ġmoder":6618,"ĠEll":6619,"âĢĻ.":6620,"twitter":6621,"ĠBoy":6622,"Ġeast":6623,"Ġshel":6624,"gery":6625,"va":6626,"bel":6627,"Ġsomehow":6628,"ĠBat":6629,"Ġtested":6630,"Ġreward":6631,"Ġconver":6632,"Ġegg":6633,"ĠCharles":6634,"gender":6635,"Ġdeals":6636,"ipl":6637,"Ġvolume":6638,"Ġtypical":6639,"Ġdestroyed":6640,"Ġsky":6641,"Ġmistake":6642,"Ġteacher":6643,"iments":6644,"gor":6645,"ĠGM":6646,"Ġlikes":6647,"Rep":6648,"Ġslowly":6649,"ocket":6650,"Ġmatches":6651,"Ġproof":6652,"Ġassume":6653,"ĠDie":6654,"Ġdu":6655,"ÑĢ":6656,"ĠIP":6657,"rison":6658,"po":6659,"Ġalive":6660,"Ġpic":6661,"Ġencourage":6662,"First":6663,"olt":6664,"rimination":6665,"Ġproperly":6666,"abis":6667,"ĠSar":6668,"II":6669,"Ġwal":6670,"Ã¶":6671,"Ġclaiming":6672,"AD":6673,"Ġadapt":6674,"Ġpolls":6675,"Ġanyway":6676,"iami":6677,"ĠWik":6678,"Ġfees":6679,"Ġdisag":6680,"ĠEconom":6681,"Ġworried":6682,"ĠGra":6683,"Ġsole":6684,"ĠLife":6685,"Ġsouthern":6686,"ĠBack":6687,"Ġpal":6688,"Ġdiagn":6689,"cers":6690,"Ġsupports":6691,"Ġtheme":6692,"Ġmeetings":6693,"Ġelectricity":6694,"Ġscheme":6695,"ĠDC":6696,"ĠAgency":6697,"Ġhonor":6698,"Ġharass":6699,"Ġcutting":6700,"ĠMot":6701,"Ġprofit":6702,"Ġcontrolled":6703,"ĠGar":6704,"ko":6705,"apse":6706,"Ġunderstood":6707,"Ġselection":6708,"ĠWild":6709,"Ġlimits":6710,"Ġcomprom":6711,"Ġ33":6712,"Ġexposed":6713,"GBT":6714,"ĠSports":6715,"Ġanonym":6716,"Ġchampion":6717,"Ġsweet":6718,"edd":6719,"ogan":6720,"Ġlicense":6721,"Ġobserved":6722,"Ġstrongly":6723,"Ġbunch":6724,"ĠWars":6725,"ĠWeek":6726,"Ġunknown":6727,"Ġprotected":6728,"Ġheight":6729,"Ġfalling":6730,"Ã¼":6731,"Ġcondem":6732,"phy":6733,"Ġdesper":6734,"People":6735,"ĠTal":6736,"ĠAdminist":6737,"Ġselected":6738,"rence":6739,"oration":6740,"Ġpurs":6741,"Ġtopic":6742,"ĠHollywood":6743,"Ġconstant":6744,"Ġflav":6745,"Ġwelcome":6746,"App":6747,"lies":6748,"Ġbug":6749,"Ġequival":6750,"Ġsomewhere":6751,"Ġpayments":6752,"ensity":6753,"Ġdry":6754,"Ġbid":6755,"Ġflex":6756,"Ġruled":6757,"Ġpersonally":6758,"Ġrequests":6759,"ĠDespite":6760,"ĠTHE":6761,"64":6762,"xy":6763,"ixt":6764,"adel":6765,"Ġdeveloper":6766,"Ġgotten":6767,"cow":6768,"ether":6769,"burg":6770,"ette":6771,"ĠNations":6772,"celer":6773,"Ġdress":6774,"Ġgoods":6775,"Ġvillage":6776,"Ġofficially":6777,"Ġfifth":6778,".\"[":6779,"Ġobtained":6780,"Ġdecent":6781,"Ġemployee":6782,"Ġamounts":6783,"95":6784,"Ġregions":6785,"Ġarguments":6786,"ĠStephen":6787,"Ġstretch":6788,"Ġextensive":6789,"Ġdirected":6790,"Ġthreatened":6791,"Ġdriven":6792,"ĠSpanish":6793,"esc":6794,"Ġgod":6795,"izz":6796,"ĠLu":6797,"ĠLord":6798,"Ġposts":6799,"Ġties":6800,"Ġstronger":6801,"Ġmaximum":6802,"Ġdeleg":6803,"Ġprimarily":6804,"ĠCle":6805,"Ġdeck":6806,"Ġ38":6807,"Ġunw":6808,"Ġtechnologies":6809,"ĠBrad":6810,"Ġhttps":6811,"ulture":6812,"ĠCard":6813,"Ġresistance":6814,"ĠJersey":6815,"alle":6816,"Ġrub":6817,"Ġrival":6818,"ĠAsian":6819,"ĠNHL":6820,"Ġideal":6821,"Ġconfront":6822,"Ġengage":6823,"Ġnarrative":6824,"ĠTay":6825,"ĠDetroit":6826,"Ġcoalition":6827,"dro":6828,"Ġfighters":6829,"Ob":6830,"Ġtruck":6831,"Oh":6832,"rors":6833,"Ġintellect":6834,"ĠYear":6835,"Ġretain":6836,"Ġconstantly":6837,"ãĤ":6838,"ĠYoung":6839,"Ġphase":6840,"mission":6841,"ĠRE":6842,"enders":6843,"Then":6844,"acking":6845,"Ġincl":6846,"ĠAttorney":6847,"Ġbench":6848,"Ġdrawn":6849,"ĠItaly":6850,"Ġescape":6851,"Ġcrash":6852,"ĠHist":6853,"irms":6854,"Ġregularly":6855,"ĠIrish":6856,"Ġpurposes":6857,"asts":6858,"ĠLong":6859,"ĠJr":6860,"Ġreasonable":6861,"allas":6862,"sole":6863,"Ġtrading":6864,"Ġrejected":6865,"Ġbrew":6866,"rary":6867,"Ġperfectly":6868,"ĠDar":6869,"Ġelsewhere":6870,"acc":6871,"Ġprovince":6872,"Ġanx":6873,"asks":6874,"Ġending":6875,"Ġchosen":6876,"Ġcolon":6877,"Ġemployment":6878,"ati":6879,"isan":6880,"ĠGames":6881,"Ġfixed":6882,"ĠKevin":6883,"you":6884,"Ġwinner":6885,"Ġdefinition":6886,"pool":6887,"ĠOld":6888,"boy":6889,"ĠMiller":6890,"Spe":6891,"Yes":6892,"ĠWilson":6893,"Ġcomparison":6894,"Ġconstit":6895,"rive":6896,"uy":6897,"dis":6898,"Ġbaseball":6899,"Ġaspects":6900,"Ġcourts":6901,"sters":6902,"Ġparking":6903,"Ġseats":6904,"Ġevil":6905,"SS":6906,"stone":6907,"lv":6908,"Ġsomebody":6909,"ĠEnter":6910,"Ġsolutions":6911,"Ġcaptured":6912,"Ġfinds":6913,"Ġ48":6914,"Ġworldwide":6915,"Ġrig":6916,"ĠWay":6917,"Ġbear":6918,"Ġchoices":6919,"ĠKn":6920,"Ġdistinct":6921,"Ġcontem":6922,"Ġdrag":6923,"ciples":6924,"ĠSociety":6925,"bar":6926,"ĠAgain":6927,"Ġfounder":6928,"Ġsample":6929,"Ġtrees":6930,"Ġinqu":6931,"Ġ37":6932,"ĠWatch":6933,"axy":6934,"raid":6935,"Ġhouses":6936,"Ġdatabase":6937,"Ġvacc":6938,"Ġbills":6939,"iform":6940,"Ġspin":6941,"ighter":6942,"Ġincredibly":6943,"ĠFord":6944,"ĠLabor":6945,"ĠEr":6946,"Ġresulting":6947,"Ġprote":6948,"Ġstim":6949,"aug":6950,"Ġatmosphere":6951,"Ġestimates":6952,"Ġincredible":6953,"Ġcrucial":6954,"Ġ49":6955,"Ġnewslet":6956,"Ġicon":6957,"Ġsituations":6958,"Ġenthus":6959,"ĠGeorgia":6960,"Ġlawmakers":6961,"Ġpayment":6962,"ĠPy":6963,"NC":6964,"Ġcontinuing":6965,"Ġraising":6966,"Ġkil":6967,"Ġdozen":6968,"Ġclients":6969,"Ġactor":6970,"Ġempty":6971,"pected":6972,"Ġble":6973,"Ġencoun":6974,"Ġwid":6975,"Ġformat":6976,"owa":6977,"owered":6978,"ĠCamer":6979,"ora":6980,"ĠAnn":6981,"Ġstead":6982,"owed":6983,"ums":6984,"Ġconcluded":6985,"Ġapartment":6986,"Ġoutcome":6987,"ĠPan":6988,"Ġdemands":6989,"Ġassistant":6990,"Ġnewly":6991,"iscal":6992,"intend":6993,"Ġtied":6994,"ĠStr":6995,"Ġroster":6996,"ĠWat":6997,"arity":6998,"Ġflying":6999,"Ġproved":7000,"iro":7001,"Ġmayor":7002,"Ġaggressive":7003,"Ab":7004,"ĠMic":7005,"oster":7006,"ĠScotland":7007,"ĠMiami":7008,"Ġfields":7009,"ĠPolit":7010,"ĠVan":7011,"Ġnobody":7012,"ĠHel":7013,"Ġmurd":7014,"Ġwriters":7015,"Ġroutine":7016,"fire":7017,"oric":7018,"nesota":7019,"Ġkeeps":7020,"ĠST":7021,"Ġinformed":7022,"Ġestate":7023,"ĠNASA":7024,"Ġhits":7025,"Ġsight":7026,"ĠCy":7027,"Ġestablish":7028,"ĠDi":7029,"Ġloan":7030,"ĠTurk":7031,"Ġmagic":7032,"Ġexists":7033,"friend":7034,"Ġreturning":7035,"Ġletters":7036,"inson":7037,"ĠCarl":7038,"Ġveteran":7039,"Ġmixed":7040,"ugh":7041,"ĠDisney":7042,"Ġrus":7043,"FA":7044,"Ġdogs":7045,"ĠConstitution":7046,"Ġimper":7047,"ĠThough":7048,"Ġorganized":7049,"wan":7050,"',":7051,"ĠChild":7052,"CA":7053,"Ġaimed":7054,"Ġtank":7055,"Ġregistered":7056,"Two":7057,"Ð¾Ð":7058,"orted":7059,"Ġrepresented":7060,"UT":7061,"Ġchances":7062,"Ġmachines":7063,"Ġconven":7064,"eping":7065,"press":7066,"ĠWomen":7067,"ilarly":7068,"Pol":7069,"lls":7070,"Ġanswers":7071,"ĠTit":7072,"ĠJava":7073,"Ġinnoc":7074,"asters":7075,"Ġgenerate":7076,"Ġdollar":7077,"ĠFam":7078,"Ġupdated":7079,"Ġupper":7080,"Ġcounty":7081,"Ġsoul":7082,"Ġunp":7083,"Ġsignal":7084,"rates":7085,"ĠDev":7086,"Ġaccurate":7087,"Ġcompens":7088,"Ġbitcoin":7089,"elect":7090,"Ġgaming":7091,"49":7092,"Ġexcess":7093,"ĠFour":7094,"aze":7095,"inations":7096,"Ġstuck":7097,"Ġacademic":7098,"ĠJordan":7099,"tle":7100,"ĠThank":7101,"osis":7102,"Ġterrible":7103,"Ġgranted":7104,"Ġcomplicated":7105,"Ġinfect":7106,"Ġanymore":7107,"ĠHome":7108,"Ġconspir":7109,"Ġprogramming":7110,"ua":7111,"Ġextrem":7112,"ĠDNA":7113,"Ġassistance":7114,"Ġanticip":7115,"Ġoperate":7116,"str":7117,"Ġcategory":7118,"anges":7119,"Ġprofile":7120,"Ġsuccessfully":7121,"Ġcontrols":7122,"ĠItalian":7123,"Ġpod":7124,"65":7125,"Ġoverse":7126,"ads":7127,"ĠMen":7128,"Ġcomponents":7129,"Ġmanip":7130,"emen":7131,"rage":7132,"vard":7133,"car":7134,"ĠCast":7135,"ĠServices":7136,"alo":7137,"imp":7138,"Ġengaged":7139,"igation":7140,"Ġweird":7141,"ao":7142,"idency":7143,"Ġpenalty":7144,"ĠRight":7145,"Ġticket":7146,"Ġcomplaint":7147,"Ġpaint":7148,"lder":7149,"ĠSouthern":7150,"Ġchampionship":7151,"Ġwestern":7152,"Ġconclusion":7153,"Ġangry":7154,"aser":7155,"uilding":7156,"Ġcapture":7157,"Ġattended":7158,"ĠMax":7159,"Ġsatell":7160,"ĠSea":7161,"ĠBowl":7162,"Ġads":7163,"Ġelite":7164,"DS":7165,"Ġregardless":7166,"Ġpilot":7167,"Other":7168,"Ġvaluable":7169,"Ġpace":7170,"Ġ75":7171,"Ġtechniques":7172,"Ġvulnerable":7173,"Ġconsumption":7174,"Ġpermanent":7175,"onsin":7176,"Ġconscious":7177,"there":7178,"Ġnegotiations":7179,"Ġmyth":7180,"iner":7181,"Ġprominent":7182,"ĠAcadem":7183,"Ġrecovery":7184,"Ġlawyers":7185,"Ġteaching":7186,"isconsin":7187,"ĠMoore":7188,"Ġ//":7189,"LE":7190,"ĠDun":7191,"Ġgro":7192,"ĠOs":7193,"Ġracial":7194,"ĠSpain":7195,"ĠBell":7196,"regon":7197,"Ġtitles":7198,"essed":7199,"Ġhabit":7200,"Ġboot":7201,"Ġdowntown":7202,"Res":7203,"earing":7204,"Ġadvis":7205,"vy":7206,"Ġscenes":7207,"Ġwarming":7208,"Sp":7209,"acked":7210,"pes":7211,"Ġdrinking":7212,"Man":7213,"Ġreputation":7214,"ĠUt":7215,"Ġaccomp":7216,"Ġawesome":7217,"Ġdict":7218,"Once":7219,"ĠCivil":7220,"Ad":7221,"han":7222,"Ġplastic":7223,"Ġtaught":7224,"onic":7225,"Ġexplanation":7226,"ĠCam":7227,"sea":7228,"Ġfold":7229,"Ġsolve":7230,"Ġtaxpay":7231,"htt":7232,"itals":7233,"uine":7234,"Ġautomatically":7235,"IR":7236,"Ġtherap":7237,"ĠVictor":7238,"Ġenemies":7239,"fast":7240,"ĠChampionship":7241,"Ġcompre":7242,"ĠFil":7243,"Ġphr":7244,"Ġfeedback":7245,"ĠLand":7246,"ĠLew":7247,"Ġtall":7248,"Ġblind":7249,"Ġphones":7250,"Ġprivile":7251,"Ġshares":7252,"ĠParliament":7253,"Ġentit":7254,"Ġemerged":7255,"Ġsurvive":7256,"Ġmarked":7257,"Ġorigin":7258,"Ġresulted":7259,"Ġpasses":7260,"ollowing":7261,"Ġdepending":7262,"otten":7263,"rific":7264,"ĠBru":7265,"Ġcomic":7266,"Ġcompete":7267,"Ġsanctions":7268,"ĠMoscow":7269,"ĠLGBT":7270,"Ġdegrees":7271,"ĠPacific":7272,"ĠSenator":7273,"Ġuncertain":7274,"ĠDaniel":7275,"Today":7276,"ĠMinnesota":7277,"Ġparam":7278,"ĠStand":7279,"rete":7280,"Ġiron":7281,"Ġvisited":7282,"Ġintense":7283,"Ġdisaster":7284,"Ġthread":7285,"Ġbrut":7286,"Ġminority":7287,"ĠOrgan":7288,"Ġcable":7289,"Ġmainly":7290,"Ġreporter":7291,"Ġinspir":7292,"ibilities":7293,"ĠNY":7294,"obile":7295,"Ġportion":7296,"Ġtroub":7297,"ĠForeign":7298,"month":7299,"Ġtrib":7300,"Ġcontracts":7301,"ĠIns":7302,"Ġcollected":7303,"Ġenjoyed":7304,"Ġadopted":7305,"Ġpersonnel":7306,"Ġsurgery":7307,"Ġbom":7308,"ĠRog":7309,"Ġprinciples":7310,"ĠNetwork":7311,"ii":7312,"Ġengineering":7313,"Ġenorm":7314,"Ġfirms":7315,"Ġpossession":7316,"ked":7317,"era":7318,"Ġworker":7319,"Ġcrypt":7320,"kay":7321,"Ġsympt":7322,"Ġfought":7323,"ĠVol":7324,"Ġfinance":7325,"ĠKurd":7326,"Ġinstalled":7327,"ĠCD":7328,"Ġcited":7329,"Ġfuck":7330,"ĠSteven":7331,"aturally":7332,"Ġsufficient":7333,"ĠBrian":7334,"Ġcoordin":7335,"Ġinev":7336,"gorith":7337,"etary":7338,"aire":7339,"Ġequivalent":7340,"quarters":7341,"Ġdiscipl":7342,"Ġunusual":7343,"Ġblocks":7344,"Ġrecording":7345,"Ġhadn":7346,"ĠDallas":7347,"ĠOS":7348,"aed":7349,"rett":7350,"Ġrarely":7351,"apes":7352,"Ġdefence":7353,"Ġfake":7354,"Ġbusy":7355,"De":7356,"mont":7357,"ĠCompany":7358,"ĠArch":7359,"Ġdozens":7360,"zy":7361,"chain":7362,"Ġadvertising":7363,"lers":7364,"Because":7365,"Ġtracks":7366,"Can":7367,"IG":7368,"Ġcorruption":7369,"inity":7370,"ãĥ":7371,"Ġstations":7372,"lock":7373,"Ġexpectations":7374,"icer":7375,"Ġexplicit":7376,"igg":7377,"Ġrating":7378,"CS":7379,"Ġcameras":7380,"Ġthin":7381,"Ġhidden":7382,"profit":7383,"Ġru":7384,"ĠViet":7385,"actions":7386,"ali":7387,"Ġduty":7388,"ems":7389,"ĠRoman":7390,"ĠAuthor":7391,"Ġdescribes":7392,"icken":7393,"ĠZeal":7394,"everal":7395,"âĢĻ,":7396,"Ġbes":7397,"Ġshortly":7398,"ĠBas":7399,"Ġhistoric":7400,"ĠEduc":7401,"hent":7402,"herent":7403,"Ġfounded":7404,"ĠAdam":7405,"adelph":7406,"Ġpin":7407,"unning":7408,"ĠGi":7409,"Ġstrict":7410,"Ġaudio":7411,"Ġpropag":7412,"date":7413,"Ġprocesses":7414,"Ġgenerated":7415,"ĠDam":7416,"Ġextension":7417,"TS":7418,"Ġtaste":7419,"Ġclubs":7420,"star":7421,"ĠEastern":7422,"Ġparticipate":7423,"Ġavo":7424,"Ġestablishment":7425,"usse":7426,"OW":7427,"zen":7428,"%.":7429,"uan":7430,"Ġwing":7431,"iana":7432,"46":7433,"âĢ¢":7434,"Ġspr":7435,"Ġafraid":7436,"Ġpounds":7437,"Ġcomputers":7438,"Ġacceler":7439,"Ġbehalf":7440,"Ġcaption":7441,"ĠJoseph":7442,"Ġcounsel":7443,"making":7444,"Ġfeelings":7445,"Ġscoring":7446,"ura":7447,"Ġmanufacturing":7448,"Ġbasketball":7449,"Ġsup":7450,"orough":7451,"Ġapolog":7452,"Ġaffili":7453,"ĠMS":7454,"ship":7455,"ĠWisconsin":7456,"ĠGall":7457,"adelphia":7458,"Ġeverywhere":7459,"Ġfunny":7460,"Ġextract":7461,"bal":7462,"Ġlosses":7463,"ĠAmendment":7464,"Ġagric":7465,"Ġexposure":7466,"Ġscenario":7467,"Ġstruggling":7468,"Ġgained":7469,"ĠTw":7470,"Ġpriority":7471,"abama":7472,"orne":7473,"Ġcreates":7474,"Ġpatterns":7475,"itar":7476,"Ġnominee":7477,"ĠGreek":7478,"Ġcyber":7479,"Ġobst":7480,"Ġgenuine":7481,"ĠPS":7482,"ĠIowa":7483,"ĠCat":7484,"ĠNorthern":7485,"ĠPR":7486,"Ġformal":7487,"HS":7488,"Ġstadium":7489,"athered":7490,"anchester":7491,"Ġven":7492,"Ġ\\":7493,"ĠKelly":7494,"Ġrely":7495,"anny":7496,"arlier":7497,"pread":7498,"Ġrecip":7499,"Mean":7500,"Ġstrikes":7501,"ĠNight":7502,"osexual":7503,"cr":7504,"she":7505,"mo":7506,"umber":7507,"Ġlaid":7508,"antic":7509,"ĠHun":7510,"list":7511,"Ġvisible":7512,"Ġborrow":7513,"ni":7514,"ĠOregon":7515,"ĠReal":7516,"300":7517,"ĠCoast":7518,"viously":7519,"Ġlandsc":7520,"ĠNBC":7521,"ifer":7522,"ĠâĢĻ":7523,"ifies":7524,"Ġthick":7525,"idelines":7526,"Ġbacked":7527,"athy":7528,"who":7529,"Ġtur":7530,"MS":7531,"Ġfoundation":7532,"istent":7533,"Ġroot":7534,"ĠTurn":7535,"idespread":7536,"cles":7537,"ima":7538,"ĠTony":7539,"Ġprofession":7540,"ria":7541,"ĠNavy":7542,"eland":7543,"ĠStill":7544,"Ġuncom":7545,"Up":7546,"ĠZealand":7547,"Ġprinciple":7548,"Ġtackle":7549,"Ġhired":7550,"Ġairport":7551,"ta":7552,"Ġloud":7553,"Ġphotograph":7554,"Ġdim":7555,"Ġlights":7556,"Ġwonderful":7557,"Ġtoler":7558,"ĠBalt":7559,"Ġrecognized":7560,"ĠClass":7561,"Ġalgorith":7562,"Ġbridge":7563,"Ġho":7564,"Ġroles":7565,"Ġmedium":7566,"ĠAvenue":7567,"Ġ1999":7568,"Ġrelief":7569,"Ġspark":7570,"Ġphilosophy":7571,"rators":7572,"ĠKent":7573,"Ġbeliefs":7574,"fall":7575,"uts":7576,"Ġjournalist":7577,"ifications":7578,"Ġneuro":7579,"ashes":7580,"ĠCome":7581,"rative":7582,"Ġproducer":7583,"Ġheaded":7584,"reams":7585,"Like":7586,"ĠWhere":7587,"sm":7588,"Ġentering":7589,"==":7590,"ĠOper":7591,"ez":7592,"Ġuniform":7593,"ĠLove":7594,"Ġdeliber":7595,"ĠWater":7596,"Ġcannabis":7597,"auc":7598,"Ġdiscrimination":7599,"ogether":7600,"Ġmel":7601,"Ġgall":7602,"ĠLinux":7603,"ĠCare":7604,"Ġpump":7605,"ĠTop":7606,"Ġdrawing":7607,"Ġaver":7608,"ERS":7609,"Ġimplementation":7610,"otal":7611,"Ġmovements":7612,"Ġfee":7613,"Ġridic":7614,"Ġfarmers":7615,"Ġthousand":7616,"Ġ400":7617,"Ġtor":7618,"Ġshock":7619,"igen":7620,"Ġcorporations":7621,"Ġincent":7622,"ĠAh":7623,"gun":7624,"Ġcrop":7625,"Ġelev":7626,"Ġsharp":7627,"ĠAnth":7628,"inder":7629,"Any":7630,"Ġachieved":7631,"Ġexception":7632,"Ġfault":7633,"Ġyield":7634,"Ġflaw":7635,"Ġfootage":7636,"Ġstab":7637,"Ġstable":7638,"ĠBefore":7639,"ĠBull":7640,"Ġchallenging":7641,"writ":7642,"ĠAdministration":7643,"Ġlegend":7644,"Ġwithdraw":7645,"Ġbanned":7646,"ĠMu":7647,"found":7648,"Ġmail":7649,"Ġindex":7650,"ĠBest":7651,"Ġdoors":7652,"Meanwhile":7653,"aron":7654,"ĠÎ":7655,"Ġ1960":7656,"Ġproven":7657,"Ġinterviews":7658,"ĠPolicy":7659,"Ġcontaining":7660,"ĠTaylor":7661,"ĠProgram":7662,"asion":7663,"upid":7664,"Ġveget":7665,"rep":7666,"front":7667,"Ġ150":7668,"Ġbarely":7669,"Ġarrange":7670,"ĠMars":7671,"Ġproducing":7672,"ĠGer":7673,"ĠColl":7674,"ĠRay":7675,"ĠRick":7676,"Ġhole":7677,"ĠView":7678,"ĠPhiladelphia":7679,"Ġplate":7680,"ĠNick":7681,"Ġ($":7682,"Ġeuro":7683,"ĠPremier":7684,"world":7685,"Ġcha":7686,"oured":7687,"ĠSupp":7688,"ounced":7689,"Ġindicate":7690,"mate":7691,"ĠDark":7692,"ulating":7693,"Ġwheel":7694,"Ġdestruction":7695,"Ġdinner":7696,"ĠPerhaps":7697,"prise":7698,"Ġplug":7699,"Ġcomponent":7700,"Ġships":7701,"ĠAli":7702,"ĠIN":7703,"print":7704,"Ġwidespread":7705,"Ġprogressive":7706,"Ġrestrictions":7707,"Ġconvin":7708,"Ġneutral":7709,"mann":7710,"88":7711,"izon":7712,"66":7713,"etime":7714,"Ġwarrant":7715,"ĠImage":7716,"ĠFort":7717,"ĠHenry":7718,"ĠMarc":7719,"ĠJosh":7720,"aska":7721,"bro":7722,"Ġwalls":7723,"ĠMajor":7724,"Ġretired":7725,"Ġriver":7726,"ĠAlabama":7727,"Ġhitting":7728,"ï¿":7729,"Ġrapidly":7730,"Ġnotion":7731,"Ġsuggesting":7732,"Ġcampaigns":7733,"ĠFre":7734,"ilton":7735,"aning":7736,"Police":7737,"Ġocean":7738,"Ġconvicted":7739,"ĠPM":7740,"Sc":7741,"riers":7742,"portion":7743,"Ġunex":7744,"inding":7745,"Ġperpet":7746,"thew":7747,"Ġreduction":7748,"Per":7749,"ilipp":7750,"azz":7751,"lix":7752,"Ġloyal":7753,"ocation":7754,"Ġdelivery":7755,"Ġbath":7756,"lessly":7757,"Ġintellectual":7758,"77":7759,"amber":7760,"ĠInvest":7761,"Ġoverwhelming":7762,"Ġstructures":7763,"Ġliked":7764,"Ġtechnique":7765,"ĠLight":7766,"Ġfiscal":7767,"FP":7768,"Ġbegun":7769,"ĠConf":7770,"uer":7771,"Ġepisodes":7772,"Ġreaching":7773,"ĠOak":7774,"ĠId":7775,"Ġhang":7776,"inking":7777,"Ġillness":7778,"Ġburd":7779,"May":7780,"Ġreducing":7781,"Ġrose":7782,"Ġfinger":7783,"Before":7784,"Ġelectronic":7785,"ĠInf":7786,"Ġ65":7787,"rous":7788,"ĠRoyal":7789,"ologists":7790,"wr":7791,"abinet":7792,"Ġviewers":7793,"Ġutil":7794,"Ġsaved":7795,"Ġupset":7796,"Ġ39":7797,"ĠAL":7798,"sylv":7799,"Ġtox":7800,"Ġinterface":7801,"Ġequally":7802,"Ġconstitutional":7803,"ATO":7804,"Ġinitiative":7805,"Ġedition":7806,"Ġgift":7807,"Ġwelf":7808,"ï¿½":7809,"ĠMoh":7810,"Ġrecognition":7811,"Ġrobot":7812,"Ġlanguages":7813,"ĠChristians":7814,"otes":7815,"mod":7816,"Ġju":7817,"ĠBusiness":7818,"ĠTurkish":7819,"OC":7820,"rell":7821,"active":7822,"ĠSnow":7823,"Ġ42":7824,"Ġindicated":7825,"Ġ55":7826,"Ġwelfare":7827,"Ġcontained":7828,"ĠSaf":7829,"Ġexclusive":7830,"Ġethnic":7831,"Ġtouchdown":7832,"Ġunemployment":7833,"yard":7834,"Ġwebsites":7835,"Ġsettlement":7836,"ĠVR":7837,"Ġdeputy":7838,"usive":7839,"Ġrepresentative":7840,"ĠOl":7841,"post":7842,"Ġterrorists":7843,"Ġcontribute":7844,"ĠDevelopment":7845,"Ġgrass":7846,"ĠHom":7847,"ĠRand":7848,"ĠAcademy":7849,"Ġcollapse":7850,"Ġfeaturing":7851,"ĠCross":7852,"ĠHot":7853,"Ġnormally":7854,"Ġhardly":7855,"ĠSk":7856,"rypt":7857,"ĠThus":7858,"ĠNation":7859,"ĠDown":7860,"ĠGreg":7861,"ĠSpecial":7862,"Ġforever":7863,"Ġvital":7864,"ĠConference":7865,"ĠAsh":7866,"ĠEnd":7867,"ĠArabia":7868,"ĠImages":7869,"ĠAtlanta":7870,"teen":7871,"ĠMayor":7872,"Ġprocessing":7873,"Ġpractical":7874,"Ġtransgender":7875,"Ġtag":7876,"Ġelig":7877,"agram":7878,"ĠFed":7879,"OD":7880,"Ġsensitive":7881,"Ġracist":7882,"Ġinvolvement":7883,"Ġsmooth":7884,"ĠEmp":7885,"umer":7886,"ĠKingdom":7887,"olen":7888,"Ġstrategic":7889,"sylvania":7890,"Ġdevast":7891,"ĠManchester":7892,"Ġbranch":7893,"Ġbrowser":7894,"ĠFred":7895,"Ġwages":7896,"name":7897,"Ġexceed":7898,"opy":7899,"Ġdemocratic":7900,"Ġphysic":7901,"EM":7902,"Ġcarefully":7903,"%)":7904,"Ġfantasy":7905,"ĠGov":7906,"Ġfailing":7907,"Ġunclear":7908,"Ġthrown":7909,"imm":7910,"Ġhandful":7911,"Those":7912,"Ġsettle":7913,"Ġconvinced":7914,"Ġindependence":7915,"then":7916,"Ġscholars":7917,"aus":7918,"Ġrecover":7919,"Ġlistening":7920,"rolled":7921,"arrass":7922,"ĠMcCain":7923,"Ġsynt":7924,"Qu":7925,"Ġserves":7926,"85":7927,"Ġcollective":7928,"Ġlobby":7929,"ĠTem":7930,"arry":7931,"Ġfriendly":7932,"ĠLook":7933,"Ġdeeper":7934,"Ġsoph":7935,"engers":7936,"Ġinvited":7937,"igure":7938,"Ġovert":7939,"ĠJudge":7940,"Ġ64":7941,"Ġbra":7942,"tering":7943,"ĠNSA":7944,"ĠTake":7945,"ĠBernie":7946,"ĠRose":7947,"lete":7948,"Ġinvent":7949,"anted":7950,"Ġreferring":7951,"ĠNob":7952,"osm":7953,"ĠMcG":7954,"sels":7955,"ĠCall":7956,"Ġbail":7957,"umin":7958,"Ġcomplaints":7959,"Ġownership":7960,"ĠIndepend":7961,"eman":7962,"Ġpresum":7963,"Ġhide":7964,"Ġprepare":7965,"Ġjoining":7966,"olis":7967,"uties":7968,"Ġattempting":7969,"ĠGlobal":7970,"udes":7971,"Ġrespectively":7972,"ĠKir":7973,"ystem":7974,"John":7975,"Ġconnections":7976,"ĠLatin":7977,"ba":7978,"Ġcitizen":7979,"Ġwars":7980,"tes":7981,"uset":7982,"ĠEducation":7983,"05":7984,"Ġcomprehens":7985,"Ġfiction":7986,"ĠTest":7987,"Ġframework":7988,"Ġprosec":7989,"Fr":7990,"ĠFoot":7991,"Ġenable":7992,"owing":7993,"Ġgathered":7994,"Ġinvestigate":7995,"abs":7996,"Ġminds":7997,"ĠSeries":7998,"Ġexternal":7999,"usted":8000,"EA":8001,"rical":8002,"Ġincorpor":8003,"Ġtickets":8004,"ĠFood":8005,"Ġrural":8006,"Ġscandal":8007,"aching":8008,"Ġvary":8009,"Ġvisitors":8010,"ĠJac":8011,"Ġfears":8012,"opher":8013,"ĠHarry":8014,"ĠMinistry":8015,"Ġtrained":8016,"Ġplatforms":8017,"Ġroads":8018,"Ġfrag":8019,"Ġalien":8020,"Ġtail":8021,"Ġtrem":8022,"ogen":8023,"ĠDead":8024,"Ġdiscussions":8025,"osa":8026,"Ġflash":8027,"ML":8028,"Ġreviews":8029,"Ġcivilians":8030,"heast":8031,"Ġlicens":8032,"Ġanybody":8033,"ĠDiego":8034,"lad":8035,"ĠTele":8036,"Ġtemporary":8037,"Ġpermission":8038,"ĠPay":8039,"ĠLo":8040,"ĠCentre":8041,"usetts":8042,"ĠOnt":8043,"Ġexpanded":8044,"achusetts":8045,"Ġreven":8046,"Ġseemingly":8047,"Ġcontroversy":8048,"Ġeastern":8049,"Ġanger":8050,"Ġjury":8051,"Ġhook":8052,"Ġaccus":8053,"lan":8054,"Ġattacking":8055,"Ġ1998":8056,"aun":8057,"Ġsteal":8058,"Ġrook":8059,"RS":8060,"ĠFund":8061,"Ġ44":8062,"\".[":8063,"ihad":8064,"Dr":8065,"Ġenormous":8066,"Ġassociation":8067,"lights":8068,"President":8069,"Ġdiscovery":8070,"ĠPennsylvania":8071,"Ġneighbour":8072,"allel":8073,"Ġgrounds":8074,"Ġlegitimate":8075,"rient":8076,"Ġtestim":8077,"ĠIT":8078,"Ġimplemented":8079,"Ġcasual":8080,"Ġproviders":8081,"Ġawareness":8082,"hour":8083,"imore":8084,"Ġspaces":8085,"Ġadvocates":8086,"bec":8087,"amsung":8088,"Ġcoaches":8089,"Ġregulation":8090,"Ġlists":8091,"Ġpeak":8092,"Ġentertainment":8093,"ĠWin":8094,"this":8095,"Ġactors":8096,"Ġgonna":8097,"uce":8098,"Ġheading":8099,"Ġsuffer":8100,"iti":8101,"Ġnoting":8102,"Ġ]":8103,"Se":8104,"Ġdisagree":8105,"enth":8106,"Ġbehaviour":8107,"Ġextend":8108,"Ġcaptain":8109,"ĠEp":8110,"ĠMid":8111,"ye":8112,"owned":8113,"ĠHas":8114,"phones":8115,"Ġultimate":8116,"Ġsmoke":8117,"burgh":8118,"away":8119,"ĠBry":8120,"Ġremem":8121,"itionally":8122,"ĠPhot":8123,"Ġactivist":8124,"Ġfab":8125,"power":8126,"Ġaffairs":8127,"Ġstake":8128,"dem":8129,"ĠDivision":8130,"ouver":8131,"Ġouts":8132,"Ġranked":8133,"Ġbrill":8134,"Ġloans":8135,"Ġinvestigators":8136,"Ġdynamic":8137,"Ġpublication":8138,"Ġdramatic":8139,"Ġpurchased":8140,"ĠHay":8141,"Ġsuspected":8142,"bell":8143,"ommod":8144,"Ġinvolves":8145,"ĠHit":8146,"ĠIranian":8147,"Or":8148,"gener":8149,"Ġholiday":8150,"Ġreferend":8151,"iversary":8152,"including":8153,"nedy":8154,"oen":8155,"da":8156,"ĠKansas":8157,"Ġnoise":8158,"Image":8159,"ĠFair":8160,"ĠJason":8161,"Ġconsistently":8162,"Ġstatistics":8163,"Ġsubstantial":8164,"Ġfoss":8165,"Ġremarks":8166,"ĠThanks":8167,"Ġinject":8168,"%,":8169,"Ġoffices":8170,"42":8171,"Ġintervention":8172,"ikes":8173,"Ġtone":8174,"Ġimprovements":8175,"ĠPent":8176,"Ġtransportation":8177,"ĠFurther":8178,"Ġbureau":8179,"ĠThree":8180,"Ġignore":8181,"ĠSn":8182,"Ġdispl":8183,"Ġscores":8184,"unior":8185,"67":8186,"Ġasks":8187,"Ġsalary":8188,"TH":8189,"Ġingred":8190,"Ġlegs":8191,"icking":8192,"Ġadmit":8193,"fare":8194,"Ġhumanity":8195,"Ġraces":8196,"Ġgear":8197,"Ġfallen":8198,"Ġlogic":8199,"Ġestimate":8200,"MP":8201,"Ġamid":8202,"400":8203,"rator":8204,"Ġbrothers":8205,"Ġconversations":8206,"Ġdefine":8207,"Ġliquid":8208,"ĠTenn":8209,"Ġtheat":8210,"ami":8211,"ules":8212,"ĠAR":8213,"Ġceleb":8214,"Ġviewed":8215,"Ġmo":8216,"ĠCameron":8217,"bn":8218,"Ġjur":8219,"repre":8220,"Ġfulf":8221,"Ġthrowing":8222,"ĠPen":8223,"Sec":8224,"Ġfactory":8225,"Ġvirtually":8226,"ĠUFC":8227,"Ġdisrupt":8228,"ancouver":8229,"ĠPhilipp":8230,"Ġdescription":8231,"Ġrecommended":8232,"Ġattached":8233,"Ġregister":8234,"erences":8235,"ĠMassachusetts":8236,"Ġrational":8237,"uma":8238,"Ġimprovement":8239,"Ġembarrass":8240,"Ġdiversity":8241,"Ġtasks":8242,"Ġinflation":8243,"Ġsubjects":8244,"Ġrecall":8245,"Ġlayer":8246,"Ġprofits":8247,"Ġgenetic":8248,"68":8249,"Ġconspiracy":8250,"Ġvoter":8251,"ĠGreece":8252,"worth":8253,"reprene":8254,"Ġsuspended":8255,"Ġstayed":8256,"ĠLind":8257,"ictions":8258,"Ġrhet":8259,"ifest":8260,"Ġreprodu":8261,"Ġarray":8262,"Ġresource":8263,"ĠABC":8264,"log":8265,"Ġabsence":8266,"arms":8267,"een":8268,"ĠCirc":8269,"Ġmedicine":8270,"Ġgam":8271,"Ġsymptoms":8272,"Ġaccommod":8273,"Ġmissile":8274,"iences":8275,"umes":8276,"Ġhanded":8277,"Ġopinions":8278,"leveland":8279,"Ġballot":8280,"obs":8281,"stead":8282,"ĠXbox":8283,"ĠNC":8284,"Ġpreced":8285,"Ne":8286,"Ġinvestigating":8287,"Ġresign":8288,"mad":8289,"ester":8290,"ĠSir":8291,"Ġastron":8292,"ĠConservative":8293,"isp":8294,"enny":8295,"Ġovers":8296,"Ġsin":8297,"Ġguarantee":8298,"Ġpremium":8299,"Ġshr":8300,"Ġcontributions":8301,"ĠField":8302,"ĠTO":8303,"ĠAlbert":8304,"ĠColumbia":8305,"ĠGaza":8306,"Ġaddressed":8307,"ĠLuc":8308,"ĠLy":8309,"Ġportray":8310,"Ġneck":8311,"omething":8312,"Ġmining":8313,"inois":8314,"Ġpapers":8315,"ĠSuch":8316,"Ġscreens":8317,"Cont":8318,"Ġwrest":8319,"Ġinsist":8320,"Ġauthent":8321,"Ġencouraged":8322,"ION":8323,"Ġranks":8324,"Ġlowest":8325,"amac":8326,"Ġporn":8327,"ĠNote":8328,"Ġhorror":8329,"icket":8330,"Ġpersonality":8331,"Ġfantastic":8332,"01":8333,"iler":8334,"Ġbars":8335,"Ġversus":8336,"ĠMir":8337,"xit":8338,"ĠAnton":8339,"ĠBrother":8340,"Ġraw":8341,"Ġstupid":8342,"Ġsurf":8343,"Ġham":8344,"Ġluck":8345,"ĠUnfortunately":8346,"Ġinquir":8347,"mal":8348,"Ġconce":8349,"Ġtweeted":8350,"Ġhorse":8351,"Ġgains":8352,"ĠESP":8353,"Int":8354,"ĠMedical":8355,"Ġcovering":8356,"Ġwine":8357,"Ġswing":8358,"Ġcareful":8359,"Ġprincip":8360,"PG":8361,"Ġattitude":8362,"ĠVegas":8363,"CE":8364,"Ġinnovation":8365,"maker":8366,"BO":8367,"Ġpromises":8368,"ĠEs":8369,"Also":8370,"ĠGuardian":8371,"ĠHor":8372,"Ġje":8373,"ĠWalker":8374,"Ġdrew":8375,"ĠRead":8376,"Ġshit":8377,"ĠLive":8378,"Ġprotecting":8379,"ĠSquare":8380,"Ġpetition":8381,"Ġimproving":8382,"Ġforest":8383,"ĠHT":8384,"Ġnomination":8385,"angel":8386,"0000":8387,"Ġjudges":8388,"Ġmountain":8389,"Ġpoly":8390,"Ġboat":8391,"Ġchapter":8392,"oval":8393,"Ġcontributed":8394,"Ġincidents":8395,"ivals":8396,"Ġcomedy":8397,"ĠIraqi":8398,"ĠRadio":8399,"ultural":8400,"Ġshoulder":8401,"iel":8402,"ammed":8403,"ho":8404,"Ġacknowledged":8405,"Ġrevel":8406,"ja":8407,"page":8408,"ĠKey":8409,"Ġcovers":8410,"Ġclosing":8411,"Ġmusical":8412,"ĠNic":8413,"Ġdepends":8414,"Ġtemperatures":8415,"Ġappreciate":8416,"unicip":8417,"Ġphotograp":8418,"Ġsubsequent":8419,"Ġlands":8420,"uted":8421,"Ġabst":8422,"Ġmenu":8423,"Ġhypot":8424,"Ġsamples":8425,"Ġmarks":8426,"ropri":8427,"Ġhint":8428,"dri":8429,"ĠBeach":8430,"ĠMah":8431,"Ġthrew":8432,"Ġreferendum":8433,"Ġ47":8434,"Ġdrama":8435,"Ġspoken":8436,"Ġclothes":8437,"ĠJay":8438,"ĠChair":8439,"Ġconservatives":8440,"Ġinner":8441,"Ġefficiency":8442,"scale":8443,"amacare":8444,"ĠAllen":8445,"Ġ1996":8446,"Ġsteel":8447,"Ġdiverse":8448,"urrent":8449,"intendo":8450,"cling":8451,"Ġfruit":8452,"ĠReuters":8453,"ĠAnthony":8454,"Ġspiritual":8455,"ĠSanta":8456,"Ġdistributed":8457,"jo":8458,"ped":8459,"core":8460,"ĠNATO":8461,"Ġsugar":8462,"Ġreplacement":8463,"ĠProfessor":8464,"Ġmidfield":8465,"ĠKennedy":8466,"ĠSC":8467,"Ġtries":8468,"case":8469,"SL":8470,"iability":8471,"ĠPatrick":8472,"Ġcompe":8473,"Ġreader":8474,"Ġpref":8475,"Ġspokesperson":8476,"Ġpartnership":8477,"aret":8478,"osit":8479,"Ġgrav":8480,"Ġbarrel":8481,"Ġhomeless":8482,"ĠAustin":8483,"Ġdeficit":8484,"Ġuniversities":8485,"Ġcriticized":8486,"Ġfunded":8487,"Ġcolors":8488,"ĠIndeed":8489,"raph":8490,"ĠMexican":8491,"Ġunions":8492,"ĠFreedom":8493,"cific":8494,"ĠMean":8495,"Ġhandling":8496,"Under":8497,"iverpool":8498,"Ġlucky":8499,"pled":8500,"ĠâĤ¬":8501,"ĠMuseum":8502,"ported":8503,"ml":8504,"Ġgal":8505,"Ġbacter":8506,"itage":8507,"Ġdepression":8508,"ijing":8509,"iy":8510,"Ġlocked":8511,"Ġabandoned":8512,"Ġtomorrow":8513,"ĠOtt":8514,"Ġcongressional":8515,"from":8516,"Ġdance":8517,"Ġcommonly":8518,"Ġrom":8519,"Ġsoil":8520,"ĠGolden":8521,"ĠVancouver":8522,"Ġreceiver":8523,"ĠQueen":8524,"zed":8525,"ĠIce":8526,"Ġtea":8527,"Ġmilk":8528,"ĠRoy":8529,"Ġreads":8530,"Ġmistakes":8531,"Ġrepresenting":8532,"Ġstriking":8533,"ĠRevolution":8534,"ĠIntelligence":8535,"Ġkm":8536,"Add":8537,"ĠMatthew":8538,"Ġprotocol":8539,"Ġordinary":8540,"Ġcogn":8541,"Ġdivided":8542,"oding":8543,"Ġacquired":8544,"Ġsettings":8545,"Ġheadquarters":8546,"ĠCleveland":8547,"ĠPatri":8548,"ĠUlt":8549,"Ġcapabilities":8550,"ĠStone":8551,"ĠFC":8552,"keep":8553,"ective":8554,"Ġ41":8555,"claim":8556,"Ġinstrument":8557,"lah":8558,"Ġpresidency":8559,"Ġnaturally":8560,"ĠCBS":8561,"fund":8562,"Ġproposals":8563,"ĠSat":8564,"ieties":8565,"ĠOK":8566,"43":8567,"Ġfestival":8568,"rac":8569,"ĠAD":8570,"aeda":8571,"ĠSony":8572,"ourse":8573,"ĠiP":8574,"Ġ1997":8575,"Ġchecks":8576,"ĠArm":8577,"Ġconsole":8578,"geon":8579,"Ġconventional":8580,"Ġpassengers":8581,"redit":8582,"Ġtransactions":8583,"ĠiOS":8584,"Ġequality":8585,"Ġignored":8586,"assador":8587,"Ġgrid":8588,"Ġspeaks":8589,"Ġstudied":8590,"41":8591,"ĠLittle":8592,"ĠBudd":8593,"Ġskept":8594,"ĠIllinois":8595,"Star":8596,"Ġdemonstrated":8597,"Ġinequ":8598,"pie":8599,"Ġlegacy":8600,"Ġracism":8601,"icity":8602,"Ġdump":8603,"Ġstone":8604,"ĠLas":8605,"ĠAle":8606,"Ġveterans":8607,"ĠCommunity":8608,"erted":8609,"Ġsymp":8610,"Ġhoped":8611,"ĠEnvironment":8612,"Ġstolen":8613,"86":8614,"ecut":8615,"Ġcopies":8616,"agg":8617,"Ġinsisted":8618,"ĠWW":8619,"ĠSpring":8620,"rimin":8621,"aping":8622,"Ġappointed":8623,"LC":8624,"Ġdistract":8625,"Ġsenator":8626,"Ġbreaks":8627,"pload":8628,"ĠBaltimore":8629,"Ġmonitoring":8630,"cover":8631,"eding":8632,"Mc":8633,"flix":8634,"Ġ2020":8635,"Ġcenters":8636,"senal":8637,"Ġpolitically":8638,"Ġlying":8639,"Ġabroad":8640,"Ġliterature":8641,"Ġletting":8642,"ĠAPI":8643,"ĠHospital":8644,"ĠHard":8645,"ĠAction":8646,"des":8647,"Ġsilver":8648,"Ġwaters":8649,"ĠNever":8650,"change":8651,"Ġsupplies":8652,"ĠSamsung":8653,"Ġlandscape":8654,"ĠStadium":8655,"annels":8656,"Ġlets":8657,"Ġscope":8658,"ĠWithout":8659,"Ġ(âĢľ":8660,"Ġcro":8661,"aval":8662,"inction":8663,"'.":8664,"Ġassert":8665,"Ġtracking":8666,"ĠAnderson":8667,"Ġconcrete":8668,"Ġclassified":8669,"Ġbub":8670,"otype":8671,"text":8672,"Ġ43":8673,"ppers":8674,"ĠSometimes":8675,"Ġcust":8676,"Ġprogramme":8677,"Ġmathem":8678,"Ġentitled":8679,"Ġcounts":8680,"ĠKat":8681,"Ġfalls":8682,"ĠHoward":8683,"Ġshopping":8684,"wered":8685,"Ġstages":8686,"Ġreliable":8687,"Ġtransit":8688,"Ġdub":8689,"Ġcoc":8690,"Ġramp":8691,"Ġperforming":8692,"Ġchat":8693,"anna":8694,"Ġwider":8695,"ials":8696,"ouch":8697,"Ġguest":8698,"Ġjoy":8699,"Ġsty":8700,"ĠTown":8701,"ĠDig":8702,"Ġartific":8703,"vi":8704,"Ġrif":8705,"Ġtape":8706,"rets":8707,"Ġvirus":8708,"Ġdismissed":8709,"Ġjoke":8710,"ĠRen":8711,"backs":8712,"Ġpursue":8713,"cription":8714,"Ġblast":8715,"Ġbrown":8716,"sing":8717,"Russ":8718,"Ġarrive":8719,"Ġles":8720,"Ġtargeting":8721,"Ġspokeswoman":8722,"ĠBroad":8723,"ĠPack":8724,"ĠPitt":8725,"Ġrepresentatives":8726,"Ġtie":8727,"Ġvisiting":8728,"Ġparallel":8729,"ĠBattle":8730,"ĠBureau":8731,"ĠNev":8732,"Ġpopularity":8733,"Ġrear":8734,"aka":8735,"esty":8736,"Ġmoon":8737,"ĠBang":8738,"Ġsumm":8739,"Ġsubscrib":8740,"ione":8741,"ĠHarris":8742,"98":8743,"Ġshout":8744,"Photo":8745,"Ġhelpful":8746,"Ġmarch":8747,"Ġhockey":8748,"NE":8749,"acon":8750,"Ġupgrade":8751,"78":8752,"Ġassessment":8753,"Ġproducers":8754,"Ġmuseum":8755,"pat":8756,"Ġdrove":8757,"ĠMusic":8758,"Ġappearances":8759,"oded":8760,"Sen":8761,"ĠESPN":8762,"Ġintroduction":8763,"aware":8764,"Ġcup":8765,"Ġrestaurants":8766,"ĠMarket":8767,"argo":8768,"theless":8769,"ĠTro":8770,"ordon":8771,"Ġbeauty":8772,"ĠAtlantic":8773,"Ġabsor":8774,"Ġfocusing":8775,"ĠKong":8776,"Ġwarn":8777,"Ġtrave":8778,"Ġves":8779,"Ġobs":8780,"ĠLewis":8781,"Ġcance":8782,"inch":8783,"Ġwealthy":8784,"Ġlegislative":8785,"Ġunpre":8786,"appy":8787,"Ġforcing":8788,"Ġmembership":8789,"Ġmaps":8790,"Ġscan":8791,"ĠHind":8792,"ctic":8793,"Ġguitar":8794,"ĠWhich":8795,"Ġtip":8796,"Though":8797,"Ġentreprene":8798,"ĠPoint":8799,"Ġdad":8800,"ĠRoss":8801,"Ġ46":8802,"Ġarguing":8803,"Ġmeasured":8804,"Ġpipeline":8805,"ĠIndiana":8806,"ĠVis":8807,"ultane":8808,"Ġtestimony":8809,"Ġexit":8810,"ĠMarvel":8811,"Ġresponses":8812,"Ġwhenever":8813,"Ġsoccer":8814,"Ġsorry":8815,"Ġmad":8816,"Ġbanking":8817,"Ġdemanding":8818,"plus":8819,"ĠAsse":8820,"Off":8821,"Ġblocked":8822,"Ġurged":8823,"ĠCO":8824,"bors":8825,"Ġrequested":8826,"Ġtactics":8827,"Both":8828,"Ġviolation":8829,"Ġoverseas":8830,"Ġdocumentary":8831,"ĠAbb":8832,"Mar":8833,"door":8834,"ordinary":8835,"Ġclock":8836,"orable":8837,"Ġplain":8838,"Ġgenerations":8839,"hop":8840,"Ġargues":8841,"Ġretirement":8842,"Ġtens":8843,"Ġbrilliant":8844,"made":8845,"Ġpredicted":8846,"Ġbroader":8847,"uction":8848,"inating":8849,"Ġtitled":8850,"comes":8851,"PC":8852,"Ġhung":8853,"ĠCook":8854,"ĠHD":8855,"helsea":8856,"high":8857,"Ġactively":8858,"Ġemployed":8859,"Ġyellow":8860,"Ġapproached":8861,"Ġhosp":8862,"rec":8863,"irts":8864,"unes":8865,"ideo":8866,"Ġtwenty":8867,"Ġfiring":8868,"Ġcul":8869,"ĠCore":8870,"Ġdust":8871,"ĠObamacare":8872,"enez":8873,"ĠKar":8874,"Ġhealthcare":8875,"ila":8876,"Ġpopulations":8877,"Ġscientist":8878,"abeth":8879,"Ġintroduce":8880,"Ġsmartphone":8881,"ĠIII":8882,"ĠRa":8883,"zing":8884,"Ġprisoners":8885,"Ġtrigger":8886,"ĠReport":8887,"usalem":8888,"Ġmonthly":8889,"Ġthorough":8890,"Ġprosecutors":8891,"Ġrescue":8892,"ĠPlus":8893,"emed":8894,"ĠOntario":8895,"Ġfro":8896,"jud":8897,"ĠBa":8898,"Ġaffordable":8899,"heim":8900,"Ġunexpected":8901,"encing":8902,"Ġcontrad":8903,"shire":8904,"Ġpreparing":8905,"Yet":8906,"minute":8907,"Ġfighter":8908,"Ġstruggled":8909,"orous":8910,"Ġinvestigations":8911,"Ġsatellite":8912,"Ġsettled":8913,"Ġsurvival":8914,"mony":8915,"thon":8916,"ĠBeijing":8917,"ĠLyn":8918,"Ġrocket":8919,"omes":8920,"Ġrookie":8921,"FF":8922,"Ġphrase":8923,"ĠNintendo":8924,"ĠReview":8925,"Ġreforms":8926,"Ġdesigns":8927,"ĠRet":8928,"Ġforecast":8929,"Ġgraduate":8930,"Ġmortg":8931,"ĠEmpire":8932,"ĠOlympic":8933,"Ġsurely":8934,"ĠBab":8935,"Ġ1995":8936,"Ġsavings":8937,"ĠHo":8938,"Ed":8939,"Ġusage":8940,"Ġassign":8941,"Ġprovision":8942,"Ġphenomenon":8943,"Ġanniversary":8944,"dog":8945,"Ġrender":8946,"En":8947,"Ġratio":8948,"Ġcig":8949,"ĠFull":8950,"ĠUtah":8951,"rooms":8952,"ĠDid":8953,"ounce":8954,"Ġhyper":8955,"Ġclar":8956,"ĠTri":8957,"ĠDenver":8958,"eals":8959,"only":8960,"rapped":8961,"Ġbread":8962,"Ġswim":8963,"Ġstability":8964,"Ġauto":8965,"Ġimportantly":8966,"ĠPrince":8967,"eries":8968,"Ġsorts":8969,"Te":8970,"ĠBron":8971,"Ġentr":8972,"ounding":8973,"Ġharassment":8974,"Ġmole":8975,"bi":8976,"archy":8977,"Ġinnocent":8978,"Ġcivilian":8979,"Ġchannels":8980,"Ġservers":8981,"Ġobjective":8982,"Ġthreatening":8983,"ref":8984,"Ġchildhood":8985,"cut":8986,"Ġmaintained":8987,"Ġcelebrate":8988,"ĠBall":8989,"Ġdisorder":8990,"Ġtrillion":8991,"ĠHarvard":8992,"Ġuniversal":8993,"ĠAI":8994,"ĠInformation":8995,"Ġoutrage":8996,"ĠEag":8997,"Ġspots":8998,"Ġloose":8999,"Ġdeny":9000,"Ġrooms":9001,"held":9002,"lahoma":9003,"Ġexecutives":9004,"yer":9005,"Ġkilomet":9006,"Ġpersu":9007,"Ġdomain":9008,"Ġcomprehensive":9009,"Äĥ":9010,"59":9011,"alia":9012,"ederation":9013,"ĠSweden":9014,"Ġpromising":9015,"Ġprotein":9016,"Ġwedd":9017,"ĠFootball":9018,"Ġprepar":9019,"ĠAp":9020,"Ġtremend":9021,"RC":9022,"\")":9023,"ĠGulf":9024,"Ġborders":9025,"organ":9026,"Ġencounter":9027,"ĠDutch":9028,"Ġmos":9029,"Ġplayoffs":9030,"fol":9031,"Ġshadow":9032,"!)":9033,"isons":9034,"Ġcompare":9035,"Ġanxiety":9036,"Ġbuff":9037,"RL":9038,"ĠAmong":9039,"ĠGalaxy":9040,"ĠBuff":9041,"omed":9042,"Ġweigh":9043,"Ġdates":9044,"they":9045,"Ġprecisely":9046,"Ġintim":9047,"ĠLiberal":9048,"ĠPortland":9049,"Ġquestioned":9050,"Ġdifferently":9051,"Ġhydro":9052,"Ġshame":9053,"Ġexha":9054,"cedented":9055,"ĠStat":9056,"plate":9057,"Ġanalyst":9058,"Co":9059,"acket":9060,"Ġ1994":9061,"hesis":9062,"Ġdeadly":9063,"Ġsecondary":9064,"har":9065,"ntil":9066,"Ġsaving":9067,"ĠMarsh":9068,"ĠAS":9069,"ĠGovernor":9070,"Ġdelic":9071,"ĠMaryland":9072,"lined":9073,"ĠLiverpool":9074,"mind":9075,"acco":9076,"Ġawarded":9077,"Ġpropaganda":9078,"Ġpig":9079,"Ġflags":9080,"ĠTed":9081,"Ġautonom":9082,"supp":9083,"Ġquoted":9084,"Ġpersons":9085,"ĠJerusalem":9086,"ĠMeanwhile":9087,"Ġdemonstrate":9088,"Ġpointing":9089,"Ġstreaming":9090,"Ġexperiments":9091,"holders":9092,"ĠFamily":9093,"weet":9094,"Ġrounds":9095,"quest":9096,"Ġvoices":9097,"LA":9098,"Ġtorture":9099,"Ġfate":9100,"Ġmeaningful":9101,"Ġlunch":9102,"Ġodds":9103,"low":9104,"Ġreveals":9105,"Ġax":9106,"ĠBible":9107,"Ġwanting":9108,"Ġsequence":9109,"Ġemerging":9110,"Ġsubmitted":9111,"Ġrush":9112,"Ġcooperation":9113,"Ġaer":9114,"Ġabilities":9115,"Ġconsensus":9116,"ĠPalestinians":9117,"Ġstepped":9118,"orious":9119,"Ġconsent":9120,"asury":9121,"Ġpossess":9122,"ĠCheck":9123,"through":9124,"Ġphysically":9125,"Ġbreath":9126,"GO":9127,"Ġconsideration":9128,"Ġlanding":9129,"Ġroof":9130,"olves":9131,"Ġremarkable":9132,"yo":9133,"Ġhosted":9134,"ctr":9135,"mat":9136,"ĠAdv":9137,"ĠâĢĿ":9138,"Ġstored":9139,"Ġcounterpart":9140,"Ġstem":9141,"Ġadventure":9142,"Ġsear":9143,"oret":9144,"ĠConnect":9145,"Ġaccessible":9146,"olph":9147,"Ġpromoting":9148,"Ġdialogue":9149,"PP":9150,"iley":9151,"Ġmini":9152,"Ġweekly":9153,"ĠVietnam":9154,"ĠCooper":9155,"ĠDave":9156,"Ġsimultane":9157,"Ġcompeting":9158,"Ġrelax":9159,"ahu":9160,"Ġreverse":9161,"bridge":9162,"Ġmanaging":9163,"Ġopenly":9164,"ĠScient":9165,"Ġstaying":9166,"Ġsevent":9167,"iano":9168,"Ġreleases":9169,"irlf":9170,"Ġfossil":9171,"Ġratings":9172,"ĠRef":9173,"Ġ52":9174,"ĠScottish":9175,"ĠHa":9176,"Ġcrimin":9177,"Ġassumed":9178,"ĠAward":9179,"erts":9180,"Ġgreatly":9181,"Ġfool":9182,"Ġathletes":9183,"Ġcircle":9184,"ĠControl":9185,"ĠHop":9186,"Ġassass":9187,"Ġinvestments":9188,"ecutive":9189,"dney":9190,"Ġdeserve":9191,"Ð»":9192,"ĠPot":9193,"Ġfur":9194,"Ġcoinc":9195,"Ġsemi":9196,"Ġlegally":9197,"57":9198,"Ġages":9199,"Ġsmoking":9200,"pton":9201,"ca":9202,"Ġceremony":9203,"Ġarchitecture":9204,"Dav":9205,"ĠEngine":9206,"Ġenthusi":9207,"ĠYemen":9208,"Ġhal":9209,"ĠSwit":9210,"Ġbutt":9211,"Ġpuzz":9212,"ĠData":9213,"Ġfing":9214,"Ġcenturies":9215,"Ġdrives":9216,"mans":9217,"Ġdrone":9218,"Ġjudgment":9219,"Ġpatch":9220,"Ġwaves":9221,"Ġimplications":9222,"Ġendorse":9223,"Ġdistingu":9224,"olds":9225,"Ġparticipation":9226,"ĠCorpor":9227,"ĠTour":9228,"Ġinterf":9229,"ouri":9230,"Ġmit":9231,"sa":9232,"Ġgross":9233,"ĠNext":9234,"Ġknee":9235,"Ġbias":9236,"Ġdonations":9237,"Ġpicks":9238,"bered":9239,"Ġpron":9240,"ĠHead":9241,"Ġbirds":9242,"ĠMill":9243,"ois":9244,"Ġdefending":9245,"96":9246,"iffs":9247,"Ġeligible":9248,"ĠEdward":9249,"Ġdispute":9250,"Ġstrategies":9251,"ĠAcc":9252,"Ġlux":9253,"atar":9254,"Ġwindows":9255,"Ġ%":9256,"ĠWarren":9257,"ĠBrew":9258,"Ġexpanding":9259,"itol":9260,"ĠAst":9261,"ĠNetflix":9262,"Ġchest":9263,"Ġburning":9264,"Ġsmell":9265,"hatt":9266,"Ġsilence":9267,"icism":9268,"Ġdying":9269,"portation":9270,"ĠBelg":9271,"Ġease":9272,"ded":9273,"asty":9274,"Ġindustries":9275,"ĠAbout":9276,"izabeth":9277,"Look":9278,"enter":9279,"Ġeducational":9280,"ĠLibya":9281,"Ġmanagers":9282,"eters":9283,"800":9284,"ĠTechnology":9285,"ela":9286,"Ġexecution":9287,"tenance":9288,"ira":9289,"Ġgent":9290,"Ġdifficulty":9291,"ĠFront":9292,".-":9293,"Ġfacilit":9294,"interest":9295,"ierce":9296,"abet":9297,"aved":9298,"ĠAlexander":9299,"Ġarbit":9300,"Ġcontribution":9301,"Ġrevers":9302,"Ġstudying":9303,"Ġclothing":9304,"Ġcalm":9305,"Ġfundra":9306,"Ġsuperior":9307,"Ġwhereas":9308,"ĠLeader":9309,"Ġspectrum":9310,"Ġalter":9311,"Ġacid":9312,"97":9313,"Ġrhetoric":9314,"ĠOklahoma":9315,"Ġdating":9316,"Ġassigned":9317,"Ġracing":9318,"Ġformation":9319,"party":9320,"ĠBad":9321,"Ġdiscussing":9322,"Ġgif":9323,"ceptions":9324,"ses":9325,"Ġriding":9326,"Ġcategories":9327,"igate":9328,"56":9329,"Ġhip":9330,"Ġmemo":9331,"Ġscrut":9332,"ĠBrexit":9333,"Ġperceived":9334,"Ġdefeated":9335,"ĠVice":9336,"inals":9337,"ĠJam":9338,"Ġcoaching":9339,"Ġbacking":9340,"Ġcharity":9341,"bits":9342,"Ġhopefully":9343,"Me":9344,"Ġkeys":9345,"Ġpassage":9346,"ĠPentagon":9347,"ĠCro":9348,"Ġprocedure":9349,"asant":9350,"hot":9351,"ĠBra":9352,"Ġdominant":9353,"alling":9354,"ais":9355,"Ġinspect":9356,"Ġministry":9357,"elson":9358,"ĠMoon":9359,"ĠJustin":9360,"iev":9361,"ĠAssad":9362,"agh":9363,"ĠRoberts":9364,"ennis":9365,"ĠHistory":9366,"ĠHell":9367,"break":9368,"walk":9369,"Ġtonight":9370,"Reuters":9371,"08":9372,"Ġguidelines":9373,"ĠTes":9374,"ĠHur":9375,"igenous":9376,"igious":9377,"Ġinstitution":9378,"Ġunfair":9379,"author":9380,"Ġburden":9381,"ĠBoe":9382,"ĠBerlin":9383,"Ġmemories":9384,"vernment":9385,"Ġpicking":9386,"Ġnic":9387,"Ġ1950":9388,"Ġgathering":9389,"Ġsubstance":9390,"Ġwounded":9391,"Ġcow":9392,"ĠSus":9393,"Ġadviser":9394,"Ġmac":9395,"ĠAffairs":9396,"Ġoutlets":9397,"Ġcapitalism":9398,"Ġmargin":9399,"riends":9400,"Ġlapt":9401,"Ġrepeat":9402,"Rec":9403,"Ġinstructions":9404,"ĠBeck":9405,"ĪĴ":9406,"BM":9407,"Ġeager":9408,"ĠUber":9409,"ĠHong":9410,"rection":9411,"Ġindicates":9412,"Ġbillions":9413,"ĠMake":9414,"ompson":9415,"Ġbattles":9416,"erg":9417,"Ġstere":9418,"Ġdivor":9419,"race":9420,"odox":9421,"Ġrecre":9422,"after":9423,"even":9424,"ĠAssembly":9425,"Ġciting":9426,"Ġregulatory":9427,"essee":9428,"Still":9429,"osystem":9430,"Ġerrors":9431,"bow":9432,"aga":9433,"Ġunderlying":9434,"Ġexplaining":9435,"Ġrebels":9436,"Ġhospitals":9437,"afe":9438,"Ġtons":9439,"ĠGraham":9440,"RI":9441,"Ġ51":9442,"Ġfet":9443,"ishop":9444,"Ġdish":9445,"type":9446,"Script":9447,"Ġrecruit":9448,"ĠRos":9449,"Ġcontacted":9450,"ĠComey":9451,"aver":9452,"Ġuncon":9453,"ĠBon":9454,"orship":9455,"Ġtap":9456,"ĠBridge":9457,"ĠPo":9458,"sect":9459,"Ġpharm":9460,"Ġmanifest":9461,"Ġsovere":9462,"Note":9463,"Ġengineers":9464,"Ġarrival":9465,"Ġunprecedented":9466,"Ġgenre":9467,"Ġobsc":9468,"Ġdamaged":9469,"ĠCarter":9470,"aration":9471,"Ġhire":9472,"ateral":9473,"Ġblockchain":9474,"Ġsuspects":9475,"Ġtransaction":9476,"bian":9477,"Ġshield":9478,"Ġpresentation":9479,"was":9480,"Ġimpression":9481,"Ġpocket":9482,"ji":9483,"Ġenhance":9484,"rome":9485,"Ġ1992":9486,"Ġrequiring":9487,"gered":9488,"Ġquote":9489,"orge":9490,"Ġblank":9491,"cest":9492,"Ġacknowledge":9493,"Ġtired":9494,"ĠGun":9495,"Ġtheories":9496,"Ġstance":9497,"ylum":9498,"ington":9499,"Ġmood":9500,"agic":9501,"rif":9502,"Ġaddresses":9503,"Ġmissions":9504,"ĠTai":9505,"ĠBatman":9506,"don":9507,"Ġsixth":9508,"ĠUr":9509,"ĠChelsea":9510,"Ġtherapy":9511,"ĠBud":9512,"ĠNorm":9513,"ributes":9514,"ussell":9515,"Ġpulling":9516,"))":9517,"ORE":9518,"Ġnin":9519,"itudes":9520,"Ġkitchen":9521,"arted":9522,"58":9523,"Ġconvince":9524,"ĠRather":9525,"itary":9526,"ĠVill":9527,"Ġvig":9528,"ĠAk":9529,"Her":9530,"ĠBloom":9531,"ika":9532,"ĠHamilton":9533,"Ġhelic":9534,"Ġtalented":9535,"Ġrequirement":9536,"Ġchicken":9537,"Ġfled":9538,"Ġbonus":9539,"ested":9540,"Col":9541,"ĠCow":9542,"Ġprocedures":9543,"Ġeveryday":9544,"ĠAC":9545,"Ġdiseases":9546,"Ġfollowers":9547,"ĠCrime":9548,"ĠArk":9549,"ĠMarx":9550,"Ġpermit":9551,"Ġorganic":9552,"Ġpartly":9553,"Ġna":9554,"Ġescal":9555,"Ġmuscle":9556,"Ġpreferred":9557,"Ġcommander":9558,"step":9559,"Ġstops":9560,"Ġlineup":9561,"Ġclinical":9562,"unicipal":9563,"Ġopens":9564,"oenix":9565,"600":9566,"ĠMLS":9567,"imb":9568,"Ġcustody":9569,"Ġsalt":9570,"Ġfrequency":9571,"Earlier":9572,"News":9573,"annon":9574,"Ġinsult":9575,"Ġfoods":9576,"enezuel":9577,"ĠPop":9578,"Ġokay":9579,"Ġchip":9580,"Ġmigrants":9581,"Ġpollution":9582,"Ġovercome":9583,"Ġbot":9584,"Ġbeating":9585,"Ġpunishment":9586,"Ġaged":9587,"ĠRepresent":9588,"Ġbeings":9589,"Ġbowl":9590,"Ġsurviv":9591,"PM":9592,"ĠLA":9593,"Ġroy":9594,"Ġanalysts":9595,"Ġtrials":9596,"apolis":9597,"Ġhomosexual":9598,"Ġamendment":9599,"ĠCommon":9600,"Ġdramatically":9601,"Ġcream":9602,"ĠSydney":9603,"inf":9604,"Ġextraordinary":9605,"Ġsignature":9606,"ĠMaster":9607,"alties":9608,"Ġcrus":9609,"assy":9610,"Ġtrends":9611,"ĠSarah":9612,"Ġshipping":9613,"dit":9614,"ĠBruce":9615,"market":9616,"Ġeliminate":9617,"Ġundert":9618,"Ġspeaker":9619,"Ġcreatures":9620,"onder":9621,"Ġinches":9622,"Ġencouraging":9623,"ĠSS":9624,"Ġemployers":9625,"Ġattractive":9626,"Ġbadly":9627,"Ġpoison":9628,"Ġgig":9629,"pa":9630,"Ġsed":9631,"Ġtiss":9632,"Ġhelicop":9633,"atively":9634,"iture":9635,"Ġbin":9636,"Ġsearching":9637,"Ġpsychological":9638,"Ġcler":9639,"Ġbeach":9640,"Ġperiods":9641,"ĠWhether":9642,"Ġmerch":9643,"Ġtiming":9644,"Ġmanufacturers":9645,"ĠCapital":9646,"trans":9647,"76":9648,"Ġeconomics":9649,"Ġdiscount":9650,"Ġconstitu":9651,"ught":9652,"Ġnerv":9653,"child":9654,"ĠSom":9655,"ĠProp":9656,"52":9657,"Ġprincipal":9658,"ĠAud":9659,"week":9660,"ĠOakland":9661,"Ġseed":9662,"Ġunve":9663,"Ġsignals":9664,"lla":9665,"ĠMcK":9666,"omy":9667,"ĠWolf":9668,"itual":9669,"\":":9670,"ĠLeon":9671,"Ġassociate":9672,"Ġtopics":9673,"Ġfrequent":9674,"ĠAge":9675,"Ġpublishing":9676,"ailed":9677,"akh":9678,"Ġarts":9679,"ĠRuby":9680,"Ġcompensation":9681,"Ġcontemporary":9682,"ĠIndust":9683,"ĠFal":9684,"Ġcollaboration":9685,"Ġans":9686,"uten":9687,"adi":9688,"Ġgrade":9689,"ching":9690,"ĠBase":9691,"----------------":9692,"ĠSix":9693,"Ġprospects":9694,"ĠMrs":9695,"Ġcouples":9696,"ĠHawai":9697,"arency":9698,"Ġsentenced":9699,"Ġbottle":9700,"Sm":9701,"Ġreplied":9702,"Ġtowns":9703,"Ġdeadline":9704,"Ġbow":9705,"Ġaims":9706,"Ġgraphics":9707,"itter":9708,"Ġgate":9709,"Ġdiplomatic":9710,"Ġinvasion":9711,"ĠDoes":9712,"Ġpill":9713,"Ġcarries":9714,"olving":9715,"ĠMagic":9716,"izer":9717,"Ġelder":9718,"Ġnotable":9719,"Ġengineer":9720,"Ġremoval":9721,"ĠMorgan":9722,"Ġrecipe":9723,"Ġ95":9724,"Ġ2019":9725,"ĠCost":9726,"ĠVik":9727,"Ġcheaper":9728,"Ġarr":9729,"Ġprompted":9730,"Ġcomics":9731,"arre":9732,"Ġlect":9733,"ĠSab":9734,"Ġrend":9735,"eria":9736,"ĠSure":9737,"ĠMetro":9738,"Ġrolling":9739,"Ġweakness":9740,"plete":9741,"roph":9742,"Ġinequality":9743,"liest":9744,"Ġcorrupt":9745,"Ġdeployed":9746,"Ġ1993":9747,"Ġsmile":9748,"Ġcollaps":9749,"Ġroots":9750,"ĠSean":9751,"ĠLow":9752,"Pr":9753,"bury":9754,"ĠGDP":9755,"Ġsits":9756,"Ġmath":9757,"Ġoccurs":9758,"ĠSilver":9759,"ĠAz":9760,"Ġconstitution":9761,"ito":9762,"ĠThrough":9763,"ogy":9764,"Ġcommunicate":9765,"ĠMach":9766,"ĠTennessee":9767,"09":9768,"Ġviolations":9769,"ĠTrade":9770,"Ġinstances":9771,"ocolate":9772,"Ġirre":9773,"Ġlabour":9774,"ĠProv":9775,"Ġneighbors":9776,"riors":9777,"Ġconcepts":9778,"necess":9779,"Ġinsight":9780,"ĠTok":9781,"Ġvend":9782,"Ġutility":9783,"Ġfabric":9784,"Ġapproaches":9785,"Ġshoes":9786,"Ġcamps":9787,"irlfriend":9788,"esy":9789,"Ġstatist":9790,"Ġposting":9791,"Ġoccasionally":9792,"Ġperformances":9793,"hard":9794,"Ġmoderate":9795,"ĠYan":9796,"Ġcompat":9797,"ources":9798,"ĠJere":9799,"Ġecosystem":9800,"Ġsections":9801,"ĠTen":9802,"Ass":9803,"Ġoppose":9804,"Cons":9805,"Ġsegment":9806,"Ã¢":9807,"ĠWales":9808,"ĠForm":9809,"Ġperception":9810,"Ġarc":9811,"emic":9812,"ĠElizabeth":9813,"ĠDV":9814,"berry":9815,"51":9816,"ĠGary":9817,"ĠExt":9818,"ĠAssociated":9819,"Ġdemanded":9820,"Ġprofessionals":9821,"Ġlanded":9822,"Ġtempor":9823,"ĠPres":9824,"Ġloves":9825,"Ġartificial":9826,"isa":9827,"ĠFall":9828,"Ġinstant":9829,"iban":9830,"Ġridiculous":9831,"Ġmaintaining":9832,"ĠMurray":9833,"Ġinquiry":9834,"Ġdefender":9835,"Ġbold":9836,"Ġinterviewed":9837,"Ġmaintenance":9838,"Ġlad":9839,"Ġinteraction":9840,"Ġaccompan":9841,"Ġtoxic":9842,"ĠGirl":9843,"Ġseized":9844,"Ms":9845,"Ġimposed":9846,"Ġcock":9847,"Ġ(\"":9848,"Ġdisappointed":9849,"ĠShar":9850,"ĠSel":9851,"ĠKentucky":9852,"ĠLeft":9853,"ĠReagan":9854,"ĠGT":9855,"Ġmilitants":9856,"open":9857,"Ġrecon":9858,"ĠDeath":9859,"ĠDet":9860,"ĠHold":9861,"Ġrecommendations":9862,"achel":9863,"agger":9864,"Ġtraged":9865,"04":9866,"ĠManagement":9867,"Ġtweets":9868,"Ġowns":9869,"ocument":9870,"ĠLam":9871,"Ġgenes":9872,"oln":9873,"Ġadopt":9874,"Ġshell":9875,"Ġtraveling":9876,"Ġguests":9877,"Ġtut":9878,"ĠEth":9879,"ĠJonathan":9880,"ĠSeason":9881,"Ġsubur":9882,"oz":9883,"lando":9884,"ĠHarper":9885,"Ġintr":9886,"Ġdistur":9887,"raig":9888,"arts":9889,"Ġopposing":9890,"eness":9891,"Ġexport":9892,"Ġdies":9893,"Ġsli":9894,"Ġresolve":9895,"Ġdiam":9896,"Ġbullet":9897,"Ġvolunteers":9898,"estyle":9899,"Ġlift":9900,"54":9901,"Ġaccomplish":9902,"ĠTech":9903,"Ġjihad":9904,"Ġfatal":9905,"ĠKick":9906,"Ġdesigner":9907,"Ġadequ":9908,"Ġrepair":9909,"pha":9910,"ova":9911,"Ġcens":9912,"Ġparad":9913,"Ġanonymous":9914,"Ġsessions":9915,"Ġvocal":9916,"53":9917,"ĠLine":9918,"ĠHon":9919,"ĠAuthority":9920,"Will":9921,"brid":9922,"income":9923,"Ġasset":9924,"Ġoccasional":9925,"Ġcoup":9926,"Ġintellig":9927,"base":9928,"ixture":9929,"Ġelectoral":9930,"Ġbands":9931,"Ġsheet":9932,"Ġcolour":9933,"Ġadvocate":9934,"Ġfights":9935,"angle":9936,"87":9937,"yes":9938,"Ġpunch":9939,"07":9940,"Ġrepresentation":9941,"Ġorganisation":9942,"fr":9943,"Ġwww":9944,"Ġbuck":9945,"oca":9946,"Ġmystery":9947,"ĠExecutive":9948,"dy":9949,"ethe":9950,"Ã±":9951,"ĠAndre":9952,"kee":9953,"ĠChildren":9954,"Ġlifetime":9955,"iate":9956,"Ġdescribing":9957,"Ġbiological":9958,"ĠHoll":9959,"El":9960,"ighth":9961,"Ġsustainable":9962,"Ġdisplayed":9963,"uh":9964,"Ġnurs":9965,"Ġgest":9966,"Ġupload":9967,"ĠDer":9968,"Ġprize":9969,"ĠGiven":9970,"ĠTherefore":9971,"gus":9972,"Ġunderground":9973,"Ġbrutal":9974,"Ġtips":9975,"ĠClark":9976,"Ġpleased":9977,"ĠThompson":9978,"UST":9979,"Ġdreams":9980,"Ġpregnant":9981,"ĠGil":9982,"Ġlessons":9983,"Ġfo":9984,"Ġspan":9985,"isk":9986,"Ġingredients":9987,"aders":9988,"Ġsummit":9989,"Ġguid":9990,"Ġexisted":9991,"Ġsurrounded":9992,"06":9993,"Ġdesperate":9994,"Ġspell":9995,"</":9996,"Ġsetup":9997,"Ġknock":9998,"Ġjumped":9999,"Ġstruggles":10000,"appropri":10001,"Ġmomentum":10002,"Ġmask":10003,"stal":10004,"Ġhanging":10005,"Ġterr":10006,"Ġinherent":10007,"Ġanswered":10008,"Ġemotions":10009,"Ġchoosing":10010,"ulty":10011,"math":10012,"election":10013,"ĠOrig":10014,"Ġexclud":10015,"Ġ250":10016,"lee":10017,"acher":10018,"Ste":10019,"Ġnose":10020,"Ġbankrupt":10021,"Ġpursu":10022,"Ġdominated":10023,"Ġideology":10024,"ĠVenezuel":10025,"Ġembrace":10026,"will":10027,"Ġpeaceful":10028,"ribed":10029,"Ġeggs":10030,"Ġheroes":10031,"Ġlobb":10032,"ĠCharlie":10033,"unity":10034,"hattan":10035,"acre":10036,"Ġexpense":10037,"ĠSP":10038,"ĠGordon":10039,"check":10040,"mers":10041,"Ġstating":10042,"rows":10043,"Ġinterior":10044,"89":10045,"Ġteammates":10046,"player":10047,"ĠJean":10048,"Ġdonors":10049,"Ġgene":10050,"aki":10051,"ĠSa":10052,"Ġ->":10053,"Ġintegrity":10054,"http":10055,"Ġengaging":10056,"Ġvariable":10057,"Ġisolated":10058,"Ġsuspic":10059,"Ġminimal":10060,"Ġ53":10061,"ĠStation":10062,"ĠLt":10063,"Ġ120":10064,"Ġdrunk":10065,"instein":10066,"ÂĴ":10067,"ĠCode":10068,"Ġdistricts":10069,"Ġfunctional":10070,"ĠMichel":10071,"ĠStore":10072,"Ġcompr":10073,"Ġjustify":10074,"iens":10075,"section":10076,"Ġcompromise":10077,"Ġaccum":10078,"Ġstamp":10079,"Ġtremendous":10080,"Ġsophistic":10081,"Ġrefers":10082,"ĠNOT":10083,"Ġclosest":10084,"apore":10085,"Ġboxes":10086,"ĠCapitol":10087,"ĠOcean":10088,"Ġ1991":10089,"Ġexplosion":10090,"EP":10091,"ĠCS":10092,"02":10093,"isdom":10094,"Ġbirthday":10095,"rowing":10096,"Instead":10097,"Ġmile":10098,"Ġprofound":10099,"ĠEconomic":10100,"Ġinspiration":10101,"Finally":10102,"erent":10103,"Ġwedding":10104,"NS":10105,"Ġutter":10106,"Ġexclusively":10107,"acts":10108,"ĠReserve":10109,"Ġconsciousness":10110,"Ġpromotion":10111,"ĠPass":10112,"ĠBrooklyn":10113,"Ġrelation":10114,"ATE":10115,"Ġglad":10116,"Ġecho":10117,"Ġacquis":10118,"ĠBol":10119,"orneys":10120,"iac":10121,"Ġrepeal":10122,"Speaking":10123,"ĠAnna":10124,"Ġrefuse":10125,"Ġsubsequently":10126,"ĠMontreal":10127,"ĠFinally":10128,"Ġministers":10129,"Ġcorrectly":10130,"Ġacceptable":10131,"ĠPitts":10132,"owski":10133,"ĠHart":10134,"Ġsne":10135,"ĠLeban":10136,"Ġrefugee":10137,"ĠEPA":10138,"ĠProtection":10139,"ĠPerson":10140,"Ġremoving":10141,"Ġevident":10142,"ĠDO":10143,"ĠOx":10144,"Ġloop":10145,"ĠIntel":10146,"Ġconsiderable":10147,"ibrary":10148,"ĠKhan":10149,"Ġconcerning":10150,"ĠMarine":10151,"ĠLi":10152,"izza":10153,"Ġwondering":10154,"Ġfleet":10155,"Ġholes":10156,"Ġlesson":10157,"Ġburied":10158,"Ġspeculation":10159,"Ġshocked":10160,"Ġabstract":10161,"Ġsubscribe":10162,"Ġbriefly":10163,"Ġharsh":10164,"ixon":10165,"Ġkicked":10166,"Ġbrands":10167,"rior":10168,"Ġguards":10169,"Ġdeemed":10170,"ĠRussell":10171,"ĠBow":10172,"conf":10173,"lly":10174,"Ġhiring":10175,"ĠSon":10176,"Ġsoldier":10177,"Ġsexually":10178,"Ġsteady":10179,"Ġmodule":10180,"Ġexpenses":10181,"Ġasylum":10182,"ricane":10183,"has":10184,"Ġelectron":10185,"Ġrecalled":10186,"ĠCre":10187,"Ġathe":10188,"Ġstro":10189,"Ġannoy":10190,"ĠConvention":10191,"Ġshirt":10192,"Ġregistration":10193,"screen":10194,"ĠTreasury":10195,"Ġbacks":10196,"Ġdesktop":10197,"human":10198,"Ġbombs":10199,"Ġpa":10200,"ĠZe":10201,"Ġattending":10202,"Ġpride":10203,"Ġcontrary":10204,"acles":10205,"Ġancest":10206,"ĠNevada":10207,"Whe":10208,"Ġintegration":10209,"Ġflee":10210,"Ġscar":10211,"Hz":10212,"Ġcognitive":10213,"Ġendors":10214,"ĠIron":10215,"oub":10216,"hero":10217,"Ġchallenged":10218,"Ġjer":10219,"ĠEqu":10220,"ĠArgent":10221,"Dem":10222,"Ġ99":10223,"Ġmodified":10224,"Ġenact":10225,"Ġstrengthen":10226,"ĠPhoenix":10227,"Ġcriminals":10228,"ĠUsing":10229,"Ø§":10230,"Ġcabinet":10231,"ental":10232,"isd":10233,"Ġprost":10234,"Ġdelight":10235,"ĠKeep":10236,"oting":10237,"ĠDelhi":10238,"istol":10239,"ptions":10240,"Ġleaked":10241,"Ġnewsletter":10242,"Ġengines":10243,"ĠCoal":10244,"Ġscream":10245,"umph":10246,"Ġprobe":10247,"ĠMissouri":10248,"ĠPhill":10249,"ĠMain":10250,"UR":10251,"Ġtaxpayers":10252,"amous":10253,"ĠUkrainian":10254,"rock":10255,"ĠWas":10256,"ĠManhattan":10257,"ĠList":10258,"Ġlogo":10259,"early":10260,"uz":10261,"ĠHitler":10262,"Ġrobust":10263,"father":10264,"wed":10265,"Sim":10266,"oli":10267,"Ġspeakers":10268,"Ġhouseholds":10269,"Ġfel":10270,"imize":10271,"Ġdual":10272,"ĠDick":10273,"Ġresearcher":10274,"Ġstimul":10275,"Ġbutter":10276,"ĠHamp":10277,"Ġ56":10278,"Ġsubmit":10279,"awks":10280,"Ġgri":10281,"Ġvert":10282,"Ġmice":10283,"Ġforum":10284,"ĠCaptain":10285,"Ġmeal":10286,"ocated":10287,"incoln":10288,"ĠTaliban":10289,"CO":10290,"ĠBal":10291,"Ġroutes":10292,"ĠInstagram":10293,"Ġthro":10294,"ĠRun":10295,"Ġorient":10296,"Ġcinem":10297,"Ġconcert":10298,"ĠFestival":10299,"Ġrevolutionary":10300,"Ġattracted":10301,"Ġsilent":10302,"ĠIndones":10303,"Ġexecuted":10304,"inge":10305,"oga":10306,"ĠStew":10307,"ibl":10308,"ĠSav":10309,"ĠTrib":10310,"Ġguaranteed":10311,"Ġdropping":10312,"ikh":10313,"van":10314,"some":10315,"books":10316,"ĠAntonio":10317,"Ġconvert":10318,"lihood":10319,"ĠExpl":10320,"left":10321,"cor":10322,"Ġsenators":10323,"Ġnervous":10324,"thood":10325,"leans":10326,"Ġinterpretation":10327,"::":10328,"Ġdisappear":10329,"Ġchaos":10330,"ĠSimon":10331,"Ġconfusion":10332,"Ġ54":10333,"ĠNazi":10334,"Ġagreements":10335,"stop":10336,"Ġindu":10337,"ĠMess":10338,"Ġcharging":10339,"ĠTesla":10340,").[":10341,"ĠOcc":10342,"pin":10343,"Ġpacked":10344,"ophob":10345,"Ġphysics":10346,"ĠRoll":10347,"Ġquit":10348,"ocial":10349,"Ġsurvived":10350,"istle":10351,"Ġoutcomes":10352,"umble":10353,"Ġnowhere":10354,"ĠRome":10355,"Ġfigured":10356,"Ġjunior":10357,"Ġblocking":10358,"Ġteeth":10359,"Ġconfused":10360,"Ġsimultaneously":10361,"ĠMit":10362,"ĠHal":10363,"Ġalgorithm":10364,"Ġpassenger":10365,"iki":10366,"igration":10367,"onz":10368,"ĠMedicaid":10369,"Ġbarg":10370,"ĠCole":10371,"ĠHaving":10372,"ĠPrice":10373,"Ġsurprisingly":10374,"??":10375,"ĠJenn":10376,"Ġproductive":10377,"Ġengagement":10378,"Ġcurious":10379,"ĠPortug":10380,"Ġnationwide":10381,"ĠPers":10382,"Ġreferences":10383,"Ġpir":10384,"Ġfert":10385,"Ġgameplay":10386,"ĠHu":10387,"ĠRussians":10388,"Ġjournalism":10389,"Ġpodcast":10390,"starter":10391,"Ġdefended":10392,"Ġprinted":10393,"Ġpatri":10394,"Ġloaded":10395,"attered":10396,"Ġwitnesses":10397,"Ġimpacts":10398,"Ġventure":10399,"Ġhosts":10400,"Ġintegrated":10401,"Ġhighlights":10402,"Back":10403,"ĠSheriff":10404,"Ġepic":10405,"hist":10406,"Ġknife":10407,"Ġsuspension":10408,"Ġ600":10409,"Ġboom":10410,"Ġproduces":10411,"Ġassembly":10412,"Ġintimid":10413,"llor":10414,"ĠPD":10415,"grad":10416,"Ġcredits":10417,"thodox":10418,"Ġassemb":10419,"Com":10420,"ds":10421,"Ã§":10422,"endar":10423,"Ġbird":10424,"Ġmathemat":10425,"security":10426,"Ġcertific":10427,"ĠOrleans":10428,"Ġcheese":10429,"ĠOrlando":10430,"istant":10431,"eling":10432,"TP":10433,"ĠIndependent":10434,"ĠPriv":10435,"ĠDur":10436,"ĠWH":10437,"Ġchronic":10438,"Ġorganis":10439,"Ġblamed":10440,"ĠEV":10441,"Ġconsecut":10442,"Ġpresents":10443,"Ġmonster":10444,"Ġalliance":10445,"Ġmotivated":10446,"Christ":10447,"ĠEst":10448,"ĠVlad":10449,"citation":10450,"Ġoxy":10451,"Ġexpects":10452,"Ġreleasing":10453,"mir":10454,"Ġbacteria":10455,"Ġclip":10456,"Ġpublish":10457,"ĠLater":10458,"Israel":10459,"tra":10460,"mble":10461,"Ġflights":10462,"ĠMPs":10463,"uits":10464,"etheless":10465,"Ġric":10466,"Ġoccupied":10467,"Ġbombing":10468,"Ġreass":10469,"Ġhunting":10470,"Ġflavor":10471,"lynn":10472,"Ġbreast":10473,"ls":10474,"Ġtear":10475,"ĠAlan":10476,"Ġpromoted":10477,"ishers":10478,"Ġexplicitly":10479,"agen":10480,"ĠEver":10481,"Ġtables":10482,"Ġpatent":10483,"terror":10484,"Ġdeparture":10485,"Ġinevitable":10486,"Ġunnecess":10487,"Ġinaug":10488,"Ġkeyboard":10489,"Ġstack":10490,"Ġpolitician":10491,"Ġinfluenced":10492,"ĠCanadians":10493,"ĠBi":10494,"Ġqualified":10495,"gal":10496,"Ġmeth":10497,"ĠAlliance":10498,"Ġinfluential":10499,"Ġ57":10500,"ĠUse":10501,"ĠDoctor":10502,"Â°":10503,"Ġinvested":10504,"Ġcycl":10505,"ĠEvent":10506,"Ġcharacteristics":10507,"izarre":10508,"Ġcreature":10509,"Ġconflicts":10510,"Ġdevelopments":10511,"Ġraises":10512,"Ġ).":10513,"ĠOF":10514,"ĠEveryone":10515,"Ġmodest":10516,"Ġmirror":10517,"ĠGro":10518,"NBC":10519,"rix":10520,"Ġreluct":10521,"Ġcontinu":10522,"à¤":10523,"Ġevolved":10524,"ĠArsenal":10525,"ateful":10526,"Station":10527,"Ġslot":10528,"ENT":10529,"ĠSingapore":10530,"ĠMedicare":10531,"Ġshops":10532,"Ġrecovered":10533,"ĠChairman":10534,"03":10535,"ĠDuke":10536,"lay":10537,"Ġally":10538,"Ġtransparency":10539,"Ġuncertainty":10540,"Ġcolleg":10541,"Ġ1989":10542,"Ġfails":10543,"Ġprovider":10544,"Ġrestore":10545,"ĠBM":10546,"merce":10547,"Ġoccasion":10548,"Ġexpecting":10549,"Ġchecking":10550,"Ðº":10551,"Ke":10552,"Ġradiation":10553,"anim":10554,"Ġsolo":10555,"may":10556,"Ġwet":10557,"Ġconfiguration":10558,"Ġdependent":10559,"GA":10560,"Ġgut":10561,"uition":10562,"Ġembed":10563,"Ġreserv":10564,"Ġevac":10565,"Ñĥ":10566,"Ġcourage":10567,"sub":10568,"Ġinher":10569,"Ġtab":10570,"Ġexamine":10571,"vation":10572,"oice":10573,"orate":10574,"bound":10575,"Ġhub":10576,"Mus":10577,"Ġforgotten":10578,"imir":10579,"bourne":10580,"Ġtransferred":10581,"Ġproportion":10582,"apper":10583,"Ġoutf":10584,"Ġsolely":10585,"ĠGiants":10586,"Who":10587,"ĠPsych":10588,"white":10589,"Ġdistribut":10590,"Ġburned":10591,"Ġbol":10592,"69":10593,"ĠBurn":10594,"Ġuncomfort":10595,"Ġtelephone":10596,"ĠChannel":10597,"Ġlaunching":10598,"Ġlane":10599,"Ġstrip":10600,"breaking":10601,"Ġvolunt":10602,"oned":10603,"Ġdimin":10604,"ĠPittsburgh":10605,"ĠHan":10606,"Ġneighborhoods":10607,"uating":10608,"Ġaccord":10609,"Ġprosecutor":10610,"ĠTax":10611,"Ġprivilege":10612,"Ġcompelling":10613,"reck":10614,"ĠMun":10615,"ĠPant":10616,"Ġoperated":10617,"ĠBarb":10618,"Ġrenewable":10619,"Ġfingers":10620,"scar":10621,"leading":10622,"Ġspo":10623,"Ġmandate":10624,"good":10625,"gate":10626,"Ġregarded":10627,"ellow":10628,"Ġignor":10629,"Ġbulk":10630,"ĠBul":10631,"Ġinex":10632,"Ġbelt":10633,"Ġrecession":10634,"Ġcosm":10635,"ĠEve":10636,"elle":10637,"ĠEb":10638,"Ġsimilarly":10639,"Ġpackages":10640,"Ġlongtime":10641,"Ġalert":10642,"Ġbabies":10643,"hire":10644,"bes":10645,"lu":10646,"ĠTrust":10647,"Ġidentical":10648,"mented":10649,"Ġlifestyle":10650,"Ġaccepting":10651,"immer":10652,"arson":10653,"ĠUnlike":10654,"Ġtanks":10655,"Ġluxury":10656,"olid":10657,"ĠOlympics":10658,"62":10659,"ĠEgyptian":10660,"graph":10661,"Ġconsecutive":10662,"Ġprosecution":10663,"Ġfunctionality":10664,"Ġflour":10665,"ĠPerry":10666,"oft":10667,"Ġdesp":10668,"Ġpreserve":10669,"gged":10670,"Ġbases":10671,"bitious":10672,"Ġabsurd":10673,"ĠPoland":10674,"ĠStart":10675,"ĠFive":10676,"looking":10677,"Ġhandled":10678,"Ġdiver":10679,"Ġcomplained":10680,"Ġdecrease":10681,"elve":10682,"Ġpleasure":10683,"Ġpolling":10684,"Ġkiller":10685,"Ġmeters":10686,"Ġheadlines":10687,"Ġguidance":10688,"Ġsinger":10689,"such":10690,"ĠNether":10691,"tarian":10692,"Ġprovisions":10693,"ĠLincoln":10694,"ĠFinal":10695,"uter":10696,"UN":10697,"ĠImm":10698,"Ġbits":10699,"ĠArea":10700,"ĠNiger":10701,"Ġballs":10702,"Ġsupposedly":10703,"Ġinnovative":10704,"David":10705,"reshold":10706,"Ġangle":10707,"Ġought":10708,"ĠHung":10709,"Ġreck":10710,"Ġjet":10711,"ĠAccess":10712,"ĠFant":10713,"ĠGill":10714,"ĠAND":10715,"sl":10716,"oker":10717,"ĠAdams":10718,"ĠHIV":10719,"ĠMississ":10720,"Ġ58":10721,"Ġenfor":10722,"Ġtheater":10723,"Ġkeen":10724,"Ġresidential":10725,"79":10726,"Ġdetention":10727,"Ġaccuracy":10728,"ĠWarner":10729,"Fi":10730,"ĠPope":10731,"limited":10732,"being":10733,"Ġbene":10734,"laim":10735,"Ġtheft":10736,"ĠDak":10737,"ĠPict":10738,"Ġearthqu":10739,"wa":10740,"ĠTel":10741,"Ġorbit":10742,"Ġpainting":10743,"ĠAndy":10744,"Ġapplies":10745,"Ġdestination":10746,"Ġgirlfriend":10747,"Ġvent":10748,"UL":10749,"million":10750,"ĠOttawa":10751,"forward":10752,"Ġoccasions":10753,"strong":10754,"Ġinvestigated":10755,"onduct":10756,"Ġparticipating":10757,"Ġaccusations":10758,"rics":10759,"ĠChrome":10760,"asse":10761,"ĠWright":10762,"Ġenabled":10763,"friendly":10764,"Ġjurisd":10765,"agine":10766,"Ġimpressed":10767,"HA":10768,"ĠOrder":10769,"iar":10770,"Ġlens":10771,"urches":10772,"Ã³n":10773,"VP":10774,"Ġunre":10775,"Ġimprison":10776,"ĠMountain":10777,"Ġgym":10778,"Ġchecked":10779,"Ġmissiles":10780,"Ġsustained":10781,"Ġcorrel":10782,"wind":10783,"ĠLink":10784,"Ġpoet":10785,"pack":10786,"Ġprojected":10787,"ĠSound":10788,"Ġemphasis":10789,"Ġpreventing":10790,"ĠExper":10791,"ĠSteel":10792,"Ġtraded":10793,"ĠSnowden":10794,"Ġboards":10795,"See":10796,"aments":10797,"Ġtent":10798,"Ġconviction":10799,"ĠFI":10800,"omic":10801,"chest":10802,"ĠDesign":10803,"Ġdestro":10804,"nan":10805,"Ġresemb":10806,"Ġiconic":10807,"Ġsake":10808,"Ġreflects":10809,"odge":10810,"vironments":10811,"Ġrolled":10812,"chell":10813,"Ġranking":10814,"Ġsurge":10815,"Ġintrig":10816,"ĠGh":10817,"ressing":10818,"Ġcriteria":10819,"armed":10820,"Ġtower":10821,"Following":10822,"otte":10823,"cap":10824,"itement":10825,"ĠAlaska":10826,"icating":10827,"Ġadvent":10828,"Ġsecular":10829,"ĠAaron":10830,"ĠMoreover":10831,"Ġscared":10832,"Ġfinishing":10833,"ĠKings":10834,"Ġbeneath":10835,"ĠOfficer":10836,"Ġtragedy":10837,"ĠStudies":10838,"Ġglobe":10839,"Ġrealistic":10840,"Ġlean":10841,"Ġoutstanding":10842,"ĠRaj":10843,"ĠDigital":10844,"Ġmart":10845,"Ġ800":10846,"Ġaccompanied":10847,"assion":10848,"grade":10849,"ĠHampshire":10850,"century":10851,"Ġvit":10852,"Ġlos":10853,"Ġrevenues":10854,"Ġvisits":10855,"rifice":10856,"ĠJeremy":10857,"WS":10858,"250":10859,"Where":10860,"ĠCPU":10861,"Ġformula":10862,"olitan":10863,"Ġkidn":10864,"ĠKurdish":10865,"ĠBor":10866,"uably":10867,"hr":10868,"ĠIM":10869,"incial":10870,"Ã¨":10871,"rend":10872,"ĠHave":10873,"Ġtension":10874,"Ġbump":10875,"ĠLes":10876,"icked":10877,"Ġfits":10878,"Ġsubtle":10879,"Ġnu":10880,"rition":10881,"Ġ85":10882,"Ġearning":10883,"ĠGriff":10884,"keley":10885,"Ġpredec":10886,"Ġfut":10887,"Ġbip":10888,"ĠHoly":10889,"Ġconstructed":10890,"Ġoccupation":10891,"dep":10892,"adesh":10893,"ilst":10894,"cal":10895,"ĠCould":10896,"ollar":10897,"ippi":10898,"Ġseeks":10899,"Ġranging":10900,"Ġstopping":10901,"Ġtrains":10902,"Ġinhab":10903,"Ġassists":10904,"Ġadap":10905,"ernand":10906,"ĠCraig":10907,"Ġphotographs":10908,"ĠJerry":10909,"Ġspeeds":10910,"Ġexcuse":10911,"ben":10912,"tainment":10913,"ĠCreat":10914,"overs":10915,"ĠWord":10916,"Ġgarden":10917,"iden":10918,"Ġconsists":10919,"Ġpossibilities":10920,"aro":10921,"Ġdisabled":10922,"tery":10923,"js":10924,"Ġpose":10925,"Ġmortgage":10926,"Ġentrance":10927,"ĠQueens":10928,"63":10929,"iah":10930,"zone":10931,"oning":10932,"ouses":10933,"ĠDragon":10934,"rons":10935,"ĠPhilippines":10936,"ĠLouisiana":10937,"ĠOrganization":10938,"ĠRobinson":10939,"Ġimmune":10940,"iox":10941,"ĠEmail":10942,"ĠRubio":10943,"Cal":10944,"ĠWi":10945,"Ġhosting":10946,"Ġmales":10947,"Ġvoc":10948,"Ġdocumented":10949,"gly":10950,"offs":10951,"ormal":10952,"Ġeru":10953,"Ġoldest":10954,"Ġanimation":10955,"Ġriders":10956,"Ġattorneys":10957,"ĠVen":10958,"town":10959,"Ġeditorial":10960,"Ġshelter":10961,"Ġtrips":10962,"________":10963,"Ġda":10964,"ĠSeveral":10965,"Ġinfection":10966,"Ġpanels":10967,"Ġgolf":10968,"ĠStory":10969,"Part":10970,"Perhaps":10971,"ĠGib":10972,"Ġambitious":10973,"Ġdiscrimin":10974,"Ġcircuit":10975,"idal":10976,"OK":10977,"Ġelabor":10978,"Ġbackup":10979,"ĠCurrent":10980,"Ġfed":10981,"Ġearnings":10982,"Ġinfo":10983,"Ġdevastating":10984,"Ġawards":10985,"ĠStewart":10986,"Ġdressed":10987,"Ġpremie":10988,"Ġscrew":10989,"Ġdrum":10990,"Ġconcentration":10991,"Ġresort":10992,"Ġliberty":10993,"vised":10994,"asive":10995,"Pal":10996,"Ġpraised":10997,"Ġtheoret":10998,"Ġwireless":10999,"Ġmysterious":11000,"ĠPlayStation":11001,"Ġsentiment":11002,"ĠBu":11003,"ping":11004,"Ġbother":11005,"ĠCustom":11006,"Ġpainful":11007,"achment":11008,"ĠFA":11009,"ĠStanley":11010,"Ġproductivity":11011,"DR":11012,"Ġscrutiny":11013,"Ġdepartments":11014,"wich":11015,"Ġpolar":11016,"uels":11017,"Ġenvironments":11018,"IF":11019,"61":11020,"Ġmunicipal":11021,"ĠHamas":11022,"ĠAbu":11023,"Ġwise":11024,"Ġbone":11025,"Ġsuck":11026,"ĠGrant":11027,"Ġcooking":11028,"Ġoperator":11029,"Ġbags":11030,"ĠStaff":11031,"usting":11032,"Ġlayers":11033,"Ġrivals":11034,"Ġexamined":11035,"Ġfer":11036,"Ġoffseason":11037,"Ġadministrative":11038,"winning":11039,"isive":11040,"ardo":11041,"shore":11042,"Ġbeaten":11043,"Your":11044,"Ġleak":11045,"ĠChampions":11046,"Among":11047,"anyahu":11048,"Ġaddressing":11049,"Ġantib":11050,"++":11051,"72":11052,"Ġunfortunately":11053,"thur":11054,"150":11055,"Ġcrossing":11056,"Ġcreator":11057,"Ġlin":11058,"Ġsynd":11059,"Ġbizarre":11060,"Ġreviewed":11061,"Ġsophisticated":11062,"ĠOthers":11063,"isms":11064,"Ġfiling":11065,"Ġbicy":11066,"ĠNS":11067,"ĠNetherlands":11068,"71":11069,"Ġanch":11070,"ĠRangers":11071,"Ġspotted":11072,"Ġaffects":11073,"Ġexploring":11074,"Ġcrossed":11075,"ĠMorm":11076,"ĠDream":11077,"rint":11078,"Ġcompetitors":11079,"Ġensuring":11080,"Ġrobots":11081,"ĠiPad":11082,"ĠSci":11083,"ĠAbd":11084,"Ġoperators":11085,"Ġtrailer":11086,"ĠJane":11087,"ĠNon":11088,"Ġappearing":11089,"ĠManning":11090,"Ġnotably":11091,"ele":11092,"cos":11093,"Ġindication":11094,"?âĢĻ":11095,"neg":11096,"ĠMario":11097,"rah":11098,"Ġpension":11099,"ĠStanford":11100,"Ġentity":11101,"izations":11102,"Ġreserved":11103,"Ġwisdom":11104,"Ġmothers":11105,"Ġkiss":11106,"GE":11107,"Ġfishing":11108,"TE":11109,"Ġchocolate":11110,"cott":11111,"ĠCorp":11112,"Ġawful":11113,"Ġtoss":11114,"Ġemployer":11115,"reek":11116,"Ġdealt":11117,"DC":11118,"92":11119,"ĠChristopher":11120,"ĠTower":11121,"ĠBox":11122,"uther":11123,"ugby":11124,"alysis":11125,"âĢĿ)":11126,"ĠLibrary":11127,"Ġautomatic":11128,"Ġcleared":11129,"ĠTokyo":11130,"ĠMcCon":11131,"una":11132,"Ġrebel":11133,"cre":11134,"Ġadoption":11135,"Ġreflected":11136,"ĠNi":11137,"Ġcollecting":11138,"Ġpublisher":11139,"Ġuncomfortable":11140,"Ġtorn":11141,"Ġtoug":11142,"uper":11143,"named":11144,"ĠCommand":11145,"Ġcops":11146,"Ġdelivering":11147,"arded":11148,"Ġ~":11149,"Ġconverted":11150,"Ġamongst":11151,"olitical":11152,"Ġcountless":11153,"ĠMalays":11154,"Ġnewspapers":11155,"Ġcelebrated":11156,"Ġreserve":11157,"Ġinterven":11158,"Ġcommod":11159,"âĢ¦.":11160,"ĠWy":11161,"ĠDog":11162,"Ġconvenient":11163,"ulse":11164,"ilation":11165,"Former":11166,"ĠUnivers":11167,"Ġdebates":11168,"produ":11169,"rying":11170,"ĠUSB":11171,"Ġexperimental":11172,"Ġduties":11173,"Ġprotections":11174,"700":11175,"Ġrelie":11176,"thal":11177,"Ġ_":11178,"ĠRs":11179,"Ġinteractions":11180,"Ġhes":11181,"Ġmurdered":11182,"Ġsignificance":11183,"about":11184,"ĠHug":11185,"bery":11186,"Ġdisplays":11187,"Ġtears":11188,"Ġreign":11189,"ĠCold":11190,"Ġcombine":11191,"FO":11192,"Ġtale":11193,"Ġvariables":11194,"Ġimpose":11195,"Ġviable":11196,"Ġcoord":11197,"94":11198,"ĠJimmy":11199,"Ġbeta":11200,"ĠEntertainment":11201,"93":11202,"Ġsafely":11203,"About":11204,"ixel":11205,"Ġmisc":11206,"Ġiter":11207,"Ġrestricted":11208,"nie":11209,"inite":11210,"profile":11211,"Ġviolated":11212,"boys":11213,"QL":11214,"Ġexploit":11215,"ĠTaiwan":11216,"ambling":11217,"Ġwore":11218,"Ġambassador":11219,"Ġovernight":11220,"Ġcatast":11221,"Ġannually":11222,"Ġcomplexity":11223,"Ġfirearms":11224,"Ġpregnancy":11225,"ĠMail":11226,"ĠCorporation":11227,"arget":11228,".),":11229,"Ġacted":11230,"Ġmanual":11231,"Ġtar":11232,"Ġfilter":11233,"Ġpeer":11234,"ĠPatriots":11235,"arians":11236,"Ġdirty":11237,"ðŁ":11238,"Ġintelligent":11239,"Ġburst":11240,"dr":11241,"ĠWould":11242,"ĠStandard":11243,"iors":11244,"Ġchemicals":11245,"Ġcease":11246,"Ġreplacing":11247,"ĠCuba":11248,"Ġtends":11249,"Ġlibraries":11250,"Ġcourses":11251,"Ġcarrier":11252,"Ġthreshold":11253,"ĠShort":11254,"Ġviewing":11255,"ĠTrek":11256,"acies":11257,"ĠTam":11258,"ĠNative":11259,"Ġmeanwhile":11260,"ĠDu":11261,"Ġhiding":11262,"ĠKr":11263,"Ġanalys":11264,"ĠSN":11265,"Ġpour":11266,"charg":11267,"ĠNelson":11268,"ampa":11269,"government":11270,"ĠBir":11271,"Ġstarter":11272,"Ġcomed":11273,"ĠEff":11274,"Ġdoctr":11275,"rencies":11276,"Ġther":11277,"ocur":11278,"opp":11279,"HP":11280,"function":11281,"gence":11282,"Ġdeserves":11283,"Ġthemes":11284,"ĠBan":11285,"watch":11286,"ĠMarg":11287,"ĠVictoria":11288,"Ġdelayed":11289,"Ġgradually":11290,"Ġinfant":11291,"ĠUb":11292,"ĠDrug":11293,"Ġaspir":11294,"ĠAren":11295,"leted":11296,"Ġdesert":11297,"Ġalike":11298,"fish":11299,"Comp":11300,"Ġradar":11301,"ĠMove":11302,"Ġnights":11303,"Ġfrustration":11304,"ĠGab":11305,"Ġwitnessed":11306,"Ġquestioning":11307,"Ġarguably":11308,"Ġfavourite":11309,"Ġmarginal":11310,"ĠHad":11311,"Ġcoin":11312,"Ġequipped":11313,"ĠKa":11314,"kward":11315,"ĠWiki":11316,"Ġalign":11317,"Ġrelatives":11318,"Ġbonds":11319,"track":11320,"Ġpreparation":11321,"Ġenterprise":11322,"Ġdetained":11323,"Ġwalks":11324,"vo":11325,"Ġadvocacy":11326,"Ġtechnological":11327,"arios":11328,"Ġspray":11329,"ĠBC":11330,"Ġdelegates":11331,"Ġpassword":11332,"Ġfaculty":11333,"isting":11334,"Unfortunately":11335,"Ġdrafted":11336,"ante":11337,"ailing":11338,"Ġvenue":11339,"Ġsleeping":11340,"accept":11341,"Ġcontainer":11342,"Mich":11343,"founder":11344,"JP":11345,"seless":11346,"Ġlimitations":11347,"Ġregret":11348,"ĠPlayer":11349,"ĠJavaScript":11350,"Ġcontroller":11351,"Ġgraphic":11352,"aucus":11353,"ĠCitiz":11354,"Ġfascinating":11355,"Ġcurve":11356,"Ġdiscipline":11357,"Ġhighlighted":11358,"Ġ72":11359,"Ġavailability":11360,"Ġquietly":11361,"Ġcaution":11362,"Ġtempt":11363,"ĠLear":11364,"ĠCB":11365,"ista":11366,"Ġgrants":11367,"ĠDal":11368,"Ġhorrible":11369,"Leaks":11370,"Ġprosper":11371,"Ġlineback":11372,"Ġparks":11373,"Ġverify":11374,"Ġarena":11375,"Ġpricing":11376,"ĠHans":11377,"ĠCA":11378,"Ġpoorly":11379,"Ġprevented":11380,"ĠQuebec":11381,"Ġoxygen":11382,"Ġworlds":11383,"ĠFederation":11384,"Ġpledge":11385,"ĠHand":11386,"Ġseparated":11387,"ichol":11388,"Ġdocumentation":11389,"aco":11390,"ĠFinancial":11391,"ĠReds":11392,"Ġbeef":11393,"Ġaltogether":11394,"ĠRonald":11395,"Ġsons":11396,"Paul":11397,"Ġendless":11398,"Ġchamber":11399,"former":11400,"Obama":11401,"ĠThink":11402,"Ġcitizenship":11403,"arat":11404,"Ġexploration":11405,"wall":11406,"Ġnewsletters":11407,"Ġposter":11408,"ĠLim":11409,"uates":11410,"ĠCongressional":11411,"Ġstartup":11412,"Ġanth":11413,"Ġaudiences":11414,"Ġforb":11415,"obby":11416,"ĠSwedish":11417,"Ġabund":11418,"Ġdesignated":11419,"dict":11420,"Ġpartially":11421,"Ġneur":11422,"piece":11423,"Ġritual":11424,"84":11425,"ĠLad":11426,"Ġactress":11427,"Ġhistorically":11428,"Ġmakers":11429,"Ġmeets":11430,"Ġconced":11431,"Ġpsychiat":11432,"Ġagriculture":11433,"ĠMcDonald":11434,"Ġlighting":11435,"Ġsuprem":11436,"Ġweaken":11437,"kind":11438,"Ġprayer":11439,"ĠEC":11440,"ĠNaz":11441,"Ġarrests":11442,"aying":11443,"Each":11444,"ttes":11445,"ĠFather":11446,"Ġcultiv":11447,"ĠNone":11448,"Ġrewards":11449,"Ġcommentary":11450,"ĠBand":11451,"Ġstunning":11452,"Ġtraveled":11453,"ĠMother":11454,"Ġbuyers":11455,"ĠReddit":11456,"oples":11457,"ĠCase":11458,"Ġlogical":11459,"card":11460,"Ġlady":11461,"TON":11462,"Ġtablet":11463,"Ġwhis":11464,"ĠGard":11465,"Ġdrones":11466,"Ġtob":11467,"ĠPa":11468,"ĠCoalition":11469,"urities":11470,"ques":11471,"Ġstir":11472,"Ġmouse":11473,"ĠVladimir":11474,"Ġcalculated":11475,"Ġdevoted":11476,"amine":11477,"Ġprol":11478,"Ġmigration":11479,"Ġremembered":11480,"Read":11481,"Ġappointment":11482,"ĠNash":11483,"ĠBeing":11484,"ige":11485,"Ġillegally":11486,"celona":11487,"ĠCC":11488,"llers":11489,"ĠDa":11490,"ĠMississippi":11491,"ĠSpir":11492,"Ġfocuses":11493,"emit":11494,"Ġpending":11495,"Given":11496,"olar":11497,"ĠSet":11498,"ĠRh":11499,"Ġdemonstration":11500,"74":11501,"Ġdirectors":11502,"ucker":11503,"ĠFurthermore":11504,"Ġtrucks":11505,"Ġethics":11506,"Ġtissue":11507,"ĠEverything":11508,"Reg":11509,"ĠCorps":11510,"ĠDeb":11511,"itty":11512,"arer":11513,"Ġelectrical":11514,"State":11515,"esides":11516,"Ġcapability":11517,"ĠFlynn":11518,"Ġcoordinator":11519,"Ġcorn":11520,"Ġcruel":11521,"Ġlaptop":11522,"Ġbuilds":11523,"ĠAdditionally":11524,"ĠBerkeley":11525,"BN":11526,"ĠLarry":11527,"****":11528,"ĠCollins":11529,"ĠKnow":11530,"Ġseventh":11531,"Ġstats":11532,"ĠMadrid":11533,"ologically":11534,"Ġhonestly":11535,"Ġdrops":11536,"erald":11537,"ĠOnline":11538,"Ġplanes":11539,"ahoo":11540,"Ġcomplain":11541,"Ġcelebration":11542,"Ġpy":11543,"Ġbubble":11544,"leep":11545,"actor":11546,"Ġpraise":11547,"Ġyeah":11548,"commun":11549,"?)":11550,"Ġexpertise":11551,"73":11552,"Ġpatrol":11553,"Getty":11554,"Ġwound":11555,"appropriate":11556,"cular":11557,"Ġaccomplished":11558,"Ġstressed":11559,"ĠNothing":11560,"Ġclimb":11561,"Ġdisappeared":11562,"first":11563,"Ġinstantly":11564,"ĠWayne":11565,"ĠVin":11566,"Ġsupporter":11567,"ĠSE":11568,"ĠHispan":11569,"omach":11570,"lied":11571,"ĠChristianity":11572,"udeau":11573,"ĠYeah":11574,"Ġsuggestions":11575,"Ġrevealing":11576,"Ġstyles":11577,"ĠThings":11578,"Ġcoins":11579,"omer":11580,"ĠSessions":11581,"iated":11582,"ipedia":11583,"ĠPA":11584,"ĠOpp":11585,"Ġdil":11586,"Ġcous":11587,"ĠNCAA":11588,"beat":11589,"Ġgrave":11590,"ĠAirport":11591,"non":11592,"ĠCapt":11593,"Ġwinners":11594,"Ġhunt":11595,"Ġfurn":11596,"ĠCas":11597,"ĠPear":11598,"oup":11599,"Ġpressing":11600,"Ġcave":11601,"Ġbathroom":11602,"ĠSD":11603,"Ġquantum":11604,"Ġboundaries":11605,"Ġdrinks":11606,"Ġassumption":11607,"Ġnonprofit":11608,"ĠEnvironmental":11609,"Ġoperates":11610,"Ġseeds":11611,"Ġmechanisms":11612,"Ġflew":11613,"Ġvoid":11614,"Ġtransparent":11615,"ĠModi":11616,"Ġsacrifice":11617,"ĠEagles":11618,"Ġslide":11619,"Ġoversight":11620,"Ġineff":11621,"Ġ1988":11622,"ĠChron":11623,"ĠDor":11624,"minded":11625,"Ġexperiencing":11626,"Ġrhy":11627,"Ġorange":11628,"ĠSport":11629,"ĠForest":11630,"onymous":11631,"Ġsuggestion":11632,"Ġcrown":11633,"âĸ":11634,"Ġcounties":11635,"Ġstatic":11636,"ĠClick":11637,"ĠFollow":11638,"Ġhostile":11639,"Ġpermitted":11640,"jamin":11641,"two":11642,"Ġtum":11643,"ĠReid":11644,"ĠPir":11645,"prot":11646,"ĠCommissioner":11647,"Ġadvised":11648,"Ġmountains":11649,"Ġfrustrated":11650,"Ġpenalties":11651,"Ġanarch":11652,"ĠSin":11653,"Ġcircles":11654,"ĠFergus":11655,"Ġfires":11656,"Ps":11657,"Ġhappiness":11658,"Ġconfirmation":11659,"natural":11660,"ĠDVD":11661,"Ġfract":11662,"ĠWinter":11663,"Ġawkward":11664,"ĠKal":11665,"Ġadj":11666,"Ġvague":11667,"ĠFle":11668,"words":11669,"Ġinitiatives":11670,"Ġscratch":11671,"err":11672,"Ġsket":11673,"Ġgreenhouse":11674,"Ġgaining":11675,"Ġtoll":11676,"Ġpopul":11677,"Ġcomputing":11678,"Ġsubsidies":11679,"Ġunderstands":11680,"Ġstrongest":11681,"ĠEmer":11682,"Ġinstallation":11683,"Ġorientation":11684,"handed":11685,"Ġmandatory":11686,"Ġapplying":11687,"Ġinvesting":11688,"ĠRest":11689,"Ġqualify":11690,"Ġshooter":11691,"Ġplacing":11692,"Ġfrank":11693,"ĠClimate":11694,"Ġdepos":11695,"\">":11696,"ĠKickstarter":11697,"Ġlyr":11698,"sized":11699,"Ġ62":11700,"Ġtobacco":11701,"Ġ=>":11702,"Ġexchanges":11703,"Act":11704,"Ġunnecessary":11705,"aya":11706,"Ġsinging":11707,"Ġfeminist":11708,"ĠSpeaker":11709,"ĠNap":11710,"oyd":11711,"ĠStock":11712,"Ġshocking":11713,"ifier":11714,"Ġrespective":11715,"Ġtransmission":11716,"aste":11717,"Ġincorrect":11718,"ĠSteam":11719,"ĠNik":11720,"Ġpunish":11721,"83":11722,"ui":11723,"Ġgentle":11724,"Right":11725,"Ġlongest":11726,"athon":11727,"ĠForces":11728,"Ġyard":11729,"ĠModel":11730,"ĠMand":11731,"anches":11732,"Ġbreach":11733,"ĠFCC":11734,"Ġpedest":11735,"Ġcrops":11736,"Ġresponding":11737,"ĠLions":11738,"ĠMurphy":11739,"Rem":11740,"Ġhacking":11741,"Ġhumanitarian":11742,"ĠKl":11743,"Ġmechanics":11744,"Ġconservation":11745,"Ġenjoying":11746,"ĠFuture":11747,"Ġentities":11748,"91":11749,"Äģ":11750,"Ġhearts":11751,"Ġgolden":11752,"ĠPel":11753,"bet":11754,"ĠNetanyahu":11755,"ĠBah":11756,"rik":11757,"ĠMcConnell":11758,"Ġcontributing":11759,"Hey":11760,"Ġsizes":11761,"alid":11762,"Ġpainted":11763,"Ġdecor":11764,"outing":11765,"Ġacquisition":11766,"Ġrespected":11767,"Ġceiling":11768,"Ġaddiction":11769,"uming":11770,"Ġepid":11771,"Ġdistinction":11772,"VE":11773,"Ġsafer":11774,"Ġgrocer":11775,"Ġsupplement":11776,"Ġshake":11777,"Ġlone":11778,"Ġmonetary":11779,"div":11780,"Ġimperial":11781,"oop":11782,"Ġessay":11783,"Ġspy":11784,"ĠNE":11785,"Ġacceptance":11786,"Ġpeers":11787,"Ġclinic":11788,"Ġfastest":11789,"otion":11790,"Ġachievement":11791,"Ġemerge":11792,"Ġfucking":11793,"Ġmanufacturer":11794,"Ġideological":11795,"aughters":11796,"Ġ1984":11797,"ĠPython":11798,"ĠNature":11799,"Ġgreet":11800,"valid":11801,"Ġsla":11802,"Ag":11803,"sur":11804,"Ġchurches":11805,"ĠUC":11806,"ĠSEC":11807,"Net":11808,"Ġdign":11809,"acular":11810,"ĠToy":11811,"Ġhaz":11812,"Ġformally":11813,"uj":11814,"Ġparticles":11815,"Ġmic":11816,"Ġmotivation":11817,"ĠFlash":11818,"Ġreactions":11819,"Ġoverd":11820,"Ġprinting":11821,"gments":11822,"fi":11823,"Ġbitter":11824,"Ġdivide":11825,"ĠMORE":11826,"Ġash":11827,"Ġbears":11828,"ĠAy":11829,"missions":11830,"half":11831,"Are":11832,"Ġanticipated":11833,"opt":11834,"Ġconclusions":11835,"ĠGene":11836,"ĠFilm":11837,"ĠKnight":11838,"Out":11839,"ĠThird":11840,"ĠMitt":11841,"Ġ1986":11842,"Ty":11843,"Def":11844,"Ġrotation":11845,"Ġdistant":11846,"Ġdispar":11847,"ĠBlake":11848,"ĠPeace":11849,"Ġderived":11850,"ĠBenn":11851,"Gener":11852,"ĠRoger":11853,"mun":11854,"Ġeconomies":11855,"Ġagricultural":11856,"orient":11857,"Ġcats":11858,"82":11859,"ortunate":11860,"ĠCredit":11861,"Ġcrowds":11862,"Ġjudicial":11863,"Ġexplosive":11864,"ĠSU":11865,"SC":11866,"ĠSingh":11867,"Ġcontrolling":11868,"Ġsecured":11869,"ĠChange":11870,"bu":11871,"Ġchips":11872,"Ġrespondents":11873,"ĠTan":11874,"Ġcryptocur":11875,"ĠLen":11876,"bably":11877,"ĠProgress":11878,"uerto":11879,"Ġcommands":11880,"Ġ59":11881,"Ġcomposed":11882,"Ġislands":11883,"Ġvaccine":11884,"ĠDakota":11885,"agu":11886,"Ġmild":11887,"Ġannouncing":11888,"Ġreserves":11889,"Ġbalanced":11890,"ĠLegisl":11891,"Ġbund":11892,"Ġflexibility":11893,"Ġstomach":11894,"Ġghost":11895,"ĠMelbourne":11896,"Ġinbox":11897,"Ġparticipated":11898,"Ġheritage":11899,"Ġtreating":11900,"Ġdemo":11901,"bie":11902,"lli":11903,"rait":11904,"ĠLocal":11905,"Ġbugs":11906,"ĠFerguson":11907,"abling":11908,"Ġanimated":11909,"ected":11910,"ĠDean":11911,"Ġresigned":11912,"eller":11913,"Ġturb":11914,"ĠET":11915,"ĠHawaii":11916,"Ġcrude":11917,"ĠSwiss":11918,"ĠMult":11919,"Ġpriorities":11920,"Ġincomp":11921,"Ġoperational":11922,"Ġapprove":11923,"anguage":11924,"ãĢ":11925,"Ġdesigners":11926,"Ġinnings":11927,"Ġfilling":11928,"ĠYOU":11929,"Ġappeals":11930,"AND":11931,"Ġfinan":11932,"lements":11933,"outheast":11934,"quer":11935,"Ġslavery":11936,"itate":11937,"Ġreceives":11938,"ĠBloomberg":11939,"Ġscenarios":11940,"Ġparameters":11941,"byn":11942,"Ġlanes":11943,"Ġtune":11944,"Ġvolunteer":11945,"Several":11946,"Ġpledged":11947,"ĠSche":11948,"Ġintensity":11949,"iciary":11950,"matic":11951,"Ġrefusing":11952,"Ġsentences":11953,"Ġflexible":11954,"mother":11955,"Ġtransformation":11956,"Ġrice":11957,"Ġ66":11958,"formed":11959,"Ġcalendar":11960,"Ġobservations":11961,"liminary":11962,"Ġacquire":11963,"Ġshorter":11964,"Republic":11965,"burn":11966,"ĠKy":11967,"Ġcultures":11968,"PI":11969,"Che":11970,"ĠCloud":11971,"Ġattributed":11972,"Three":11973,"sets":11974,"Ġcondemned":11975,"ĠIndians":11976,"emin":11977,"Ġresidence":11978,"Ġexem":11979,"Ġ360":11980,"ĠBarcelona":11981,"Ġcontents":11982,"##":11983,"Ġspreading":11984,"ationally":11985,"Ġattendance":11986,"western":11987,"Ġpreview":11988,"orer":11989,"Ġdamn":11990,"ĠKas":11991,"itably":11992,"Ġtensions":11993,"Ġundermin":11994,"oj":11995,"ĠLuke":11996,"scribe":11997,"China":11998,"Ġexcitement":11999,"Ġtouched":12000,"Ġhighway":12001,"ĠInn":12002,"ĠBrus":12003,"Ġrehab":12004,"Ġunl":12005,"ĠSac":12006,"lash":12007,"borne":12008,"erving":12009,"ĠMotor":12010,"ĠPi":12011,"ĠPage":12012,"speed":12013,"Ġdeliberately":12014,"Ġpays":12015,"Mark":12016,"Ġconversion":12017,"Ġelderly":12018,"Ġprovincial":12019,"ĠArctic":12020,"comed":12021,"Ġfreely":12022,"Ġdefenders":12023,"eu":12024,"Ġrumors":12025,"Ġ?":12026,"ierre":12027,"verning":12028,"irs":12029,"Ġinsane":12030,"ighting":12031,"Ġclever":12032,"ĠSummer":12033,"ĠOil":12034,"ĠOrange":12035,"ridge":12036,"Ġspacecraft":12037,"ĠGO":12038,"zerland":12039,"Ġconsequence":12040,"Ġsher":12041,"ĠBlu":12042,"ASH":12043,"user":12044,"Ġteenager":12045,"Ġposed":12046,"ĠWhit":12047,"ĠSud":12048,"Ġworthy":12049,"Ġlung":12050,"Ġtunnel":12051,"bat":12052,"Ġincons":12053,"ĠPoll":12054,"Ġequity":12055,"atile":12056,"umm":12057,"Ġbuzz":12058,"Ġinfring":12059,"onds":12060,"Ġdifficulties":12061,"ĠJen":12062,"Ġdirections":12063,"ĠOw":12064,"ĠMarshall":12065,"Ġexped":12066,"ĠExpress":12067,"ilateral":12068,"ĠSection":12069,"otypes":12070,"Ġinstinct":12071,"Ġdesired":12072,"Ġinstruments":12073,"think":12074,"Ġdepict":12075,"pot":12076,"shot":12077,"because":12078,"asted":12079,"crat":12080,"PL":12081,"Ġparliamentary":12082,"Ġtraditionally":12083,"ĠDeep":12084,"ĠDomin":12085,"Ġalarm":12086,"Ġlegendary":12087,"ĠShould":12088,"Ġtechnically":12089,"Ġinterrupt":12090,"Ġaffair":12091,"Ġhatred":12092,"Ġportfol":12093,"Ġcondemn":12094,"Ġharmful":12095,"ĠAlberta":12096,"bles":12097,"Ġadvertise":12098,"Ġidentifying":12099,"Ġdispos":12100,"Ġpressed":12101,"umbled":12102,"Ġdeclaration":12103,"ĠHann":12104,"Ġdeciding":12105,"ixed":12106,"onda":12107,"Ġmamm":12108,"nered":12109,"Ġlegislature":12110,"Ġprototype":12111,"bin":12112,"Ġ1000":12113,"Ġjokes":12114,"Ġminorities":12115,"untu":12116,"Ġconj":12117,"Ġgrateful":12118,"Ġcam":12119,"Ġ1930":12120,"Ġpriest":12121,"Ġugly":12122,"econom":12123,"Ġzones":12124,"Ġbio":12125,"Ġtoile":12126,"Ġpresumably":12127,"Ġwings":12128,"Ġshifted":12129,"Ġwrapped":12130,"Ġchap":12131,"Ġreminded":12132,"ĠCR":12133,"ĠHuff":12134,"Ġdisclosure":12135,"iary":12136,"Ġ63":12137,"Ġbones":12138,"Ġtel":12139,"Ġrifle":12140,"anded":12141,"Ġalternatives":12142,"Ġcomposition":12143,"ĠMitchell":12144,"Ġrocks":12145,"ĠOp":12146,"Ġ1979":12147,"Ġimmense":12148,"uez":12149,"Ġconducting":12150,"ĠKerry":12151,"Ġscary":12152,"Ġtranslation":12153,"ryption":12154,"Ġimmigrant":12155,"Ġcolleges":12156,"ĠMcM":12157,"ĠArts":12158,"Ġtemporarily":12159,"Aut":12160,"ĠMuch":12161,"Ġstun":12162,"ĠLawrence":12163,"pling":12164,"ugs":12165,"Next":12166,"ĠAbbott":12167,"Ġnaked":12168,"storm":12169,"Ġinterrog":12170,"Ġfright":12171,"Ġavoided":12172,"rane":12173,"initely":12174,"ĠBlood":12175,"Ġabol":12176,"Ġneglect":12177,"Ġhopeful":12178,"Ġwhistle":12179,"ĠLady":12180,"Ġtriggered":12181,"Ġcolleague":12182,"ĠYang":12183,"Ã¥":12184,"Their":12185,"Ġbeloved":12186,"beit":12187,"Ġsteep":12188,"oard":12189,"Ġgrasp":12190,"ĠCircuit":12191,"Ġathletic":12192,"Ġpanic":12193,"81":12194,"HT":12195,"Ġdensity":12196,"Ġrall":12197,"ĠParker":12198,"Ġcompletion":12199,"Ġmechanical":12200,"Ġtendency":12201,"Ġserial":12202,"Ġoverl":12203,"Ġeconomists":12204,"Car":12205,"ĠMas":12206,"Ġfest":12207,"ighters":12208,"ulpt":12209,"Ġearliest":12210,"Ġknocked":12211,"ĠLaur":12212,"Ġundermine":12213,"ĠOxford":12214,"istance":12215,"itivity":12216,"ĠMaine":12217,"Ġhier":12218,"ĠTotal":12219,"Ġassured":12220,"atal":12221,"Ġ700":12222,"ĠWard":12223,"ĠNa":12224,"brew":12225,"Ġsocialist":12226,"ockets":12227,"Ġraid":12228,"ĠSafety":12229,"Ġsod":12230,"Ġreaches":12231,"roc":12232,"ĠMind":12233,"ĠCampbell":12234,"Ġdeclare":12235,"ĠFif":12236,"Ġsparked":12237,"Ġadvantages":12238,"Ġdisturbing":12239,"ĠAmb":12240,"Ġpor":12241,"hol":12242,"Ġassuming":12243,"Ġconstrain":12244,"rup":12245,"Ġharvest":12246,"Ġtrapped":12247,"Ġdamaging":12248,"Ġmutual":12249,"ĠBaker":12250,"Ġliberals":12251,"Ġaest":12252,"xx":12253,"suits":12254,"imens":12255,"bart":12256,"Ġtrusted":12257,"ÙĦ":12258,"specific":12259,"Ġpink":12260,"ĠTea":12261,"ĠStein":12262,"Ġimagination":12263,"ĠRio":12264,"Ġrushed":12265,"backed":12266,"Ġbarriers":12267,"onia":12268,"zes":12269,"Ġbrains":12270,"ipher":12271,"Ġfluid":12272,"Ġears":12273,"Ġabsent":12274,"ĠRemember":12275,"Ġsauce":12276,"Ġresolved":12277,"Ġpursuing":12278,"Ġhabits":12279,"Ġcompliance":12280,"acer":12281,"Ġdeployment":12282,"urned":12283,"Ġexcessive":12284,"ĠDrive":12285,"arently":12286,"ĠCommunist":12287,"Ġunse":12288,"ĠRT":12289,"ĠRow":12290,"Ġhybrid":12291,"Ġpursuit":12292,"drop":12293,"ĠWatson":12294,"rin":12295,"Ġoptimistic":12296,"Ġhackers":12297,"Ġregulators":12298,"Ġexports":12299,"ĠTs":12300,"Ġpurchases":12301,"Ġeconomist":12302,"Having":12303,"SE":12304,"Ġviral":12305,"arettes":12306,"Ġsends":12307,"ĠJacob":12308,"Ġstocks":12309,"ĠLog":12310,"Ġempire":12311,"Mart":12312,"ĠWikiLeaks":12313,"ĠTodd":12314,"Ġlobbying":12315,"gary":12316,"ori":12317,"link":12318,"icut":12319,"Ġgrip":12320,"Ġfloating":12321,"km":12322,"ĠIRS":12323,"Ġtourists":12324,"ĠModern":12325,"}}":12326,"ĠBenjamin":12327,"Ġsocieties":12328,"Ge":12329,"Ġtexts":12330,"ĠRap":12331,"Ġreminder":12332,"Ġlun":12333,"ĠPuerto":12334,"Ġsuitable":12335,"owners":12336,"ĠHeat":12337,"Ġreson":12338,"Ġsword":12339,"mid":12340,"quality":12341,"puter":12342,"SU":12343,"liver":12344,"count":12345,"Ġ67":12346,"Through":12347,"mare":12348,"Comm":12349,"ects":12350,"ropolitan":12351,"Cor":12352,"ĠGre":12353,"ĠCommons":12354,"jan":12355,"ĠMorris":12356,"Ġromantic":12357,"Ġwhites":12358,"Ġfare":12359,"Ġfitness":12360,"Ġpassionate":12361,"powered":12362,"Ġaccountable":12363,"ĠLie":12364,"ĠKu":12365,"ĠTrudeau":12366,"via":12367,"ĠRoc":12368,"ĠTampa":12369,"Ġgarb":12370,"Ġsatisfied":12371,"flow":12372,"gregation":12373,"Ġindicating":12374,"ĠJe":12375,"Ġplanets":12376,"Ġdivorce":12377,"success":12378,"Ġrecept":12379,"Ġbass":12380,"Ġwelcomed":12381,"Ġrecy":12382,"Ġworship":12383,"ĠConservatives":12384,"mart":12385,"Mod":12386,"Ġmagical":12387,"Ġurge":12388,"whe":12389,"ĠMagazine":12390,"ĠMedicine":12391,"2015":12392,"Ġunfortunate":12393,"arma":12394,"Ġhumor":12395,"Ġgoverning":12396,"atoes":12397,"Ġdecides":12398,"ĠSoft":12399,"ims":12400,"Ġattitudes":12401,"rust":12402,"chron":12403,"rot":12404,"ayer":12405,"Ġwaited":12406,"utt":12407,"Please":12408,"Ġdetain":12409,"Ġpermits":12410,"Ġgrabbed":12411,"Ġcartoon":12412,"Ġapproaching":12413,"Ġtoken":12414,"Ġethical":12415,"Ġstructural":12416,"Ġinfected":12417,"Ġdonated":12418,"asting":12419,"idding":12420,"Ġbreakfast":12421,"ĠSwitzerland":12422,"Ġ1987":12423,"Ġthereby":12424,"stan":12425,"html":12426,"atern":12427,"Only":12428,"Ġtrop":12429,"afi":12430,"Ġsquee":12431,"ĠPod":12432,"ATCH":12433,"Ġpreval":12434,"Ġsummary":12435,"Ġlifted":12436,"ĠVideo":12437,"acent":12438,"ĠChristie":12439,"Ġexempt":12440,"Ġheadline":12441,"Ġfinancing":12442,"ĠNichol":12443,"ĠBeng":12444,"ĠGa":12445,"ĠUI":12446,"Ġsubt":12447,"AF":12448,"ivan":12449,"ĠSaints":12450,"ĠSaint":12451,"guard":12452,"Ġtenure":12453,"Ġheaven":12454,"Ġdispro":12455,"ĠHend":12456,"Ġinsurg":12457,"Ġunders":12458,"rike":12459,"Ġsequel":12460,"Ġcomply":12461,"best":12462,"Ġmillenn":12463,"keeper":12464,"Ġcake":12465,"ĠOccup":12466,"Ġsued":12467,"ructive":12468,"MB":12469,"ĠElection":12470,"urred":12471,"dec":12472,"Ġlake":12473,"when":12474,"Ġsurvivors":12475,"ĠCohen":12476,"never":12477,"ĠBrussels":12478,"Ġcareers":12479,"Ġcasting":12480,"comp":12481,"Maybe":12482,"Ġclicking":12483,"Ġbarrier":12484,"ĠWel":12485,"ĠChance":12486,"ĠBeat":12487,"ĠIV":12488,"Ġpurely":12489,"Ġtang":12490,"Ġrecount":12491,"ĠRaid":12492,"Ð²":12493,"written":12494,"hill":12495,"Bar":12496,"product":12497,".]":12498,"ĠHunter":12499,"ĠCH":12500,"Ġtaxpayer":12501,"ĠDNC":12502,"Ġscrap":12503,"ĠFollowing":12504,"ĠDJ":12505,"Ġthrows":12506,"Ġsacrific":12507,"ĠPlace":12508,"arenthood":12509,"Ġretailers":12510,"Ġnick":12511,"Ġfounding":12512,"Ġ61":12513,"ĠPartners":12514,"boards":12515,"encer":12516,"........":12517,"Ġdetected":12518,"ĠVenezuela":12519,"Ġessence":12520,"ĠManager":12521,"Ġtutorial":12522,"SD":12523,"Ġtill":12524,"/.":12525,"Ġcapitalist":12526,"Ġpow":12527,"abetes":12528,"Ġwinds":12529,"ĠFO":12530,"Ġmixture":12531,"Ġmeantime":12532,"ĠProduct":12533,"Ġorganisations":12534,"ĠTrue":12535,"ĠBart":12536,"ĠArena":12537,"Ġstrain":12538,"Ġprobability":12539,"Ġtreaty":12540,"ĠRice":12541,"Ġchampions":12542,"Ġaftermath":12543,"aple":12544,"Ġurging":12545,"ĠLynch":12546,"Ġsucceeded":12547,"ĠâĪĴ":12548,"rained":12549,"ocate":12550,"ĠUntil":12551,"around":12552,"isen":12553,"Ġarriving":12554,"Ġpowered":12555,"ski":12556,"ĠOscar":12557,"igers":12558,"ĠJess":12559,"sky":12560,"Ġgrows":12561,"Ġhorm":12562,"ĠBlock":12563,"ĠType":12564,"ĠKirk":12565,"ĠIslamist":12566,"abil":12567,"Ġprocessor":12568,"ĠIC":12569,"ĠHotel":12570,"ĠBarry":12571,"Ġfierce":12572,"Ġevangel":12573,"Ġfarms":12574,"Ġ1985":12575,"?'":12576,"school":12577,"sk":12578,"Ġmasc":12579,"ĠTerry":12580,"Ġpenet":12581,"Ġleverage":12582,"Ġadvances":12583,"Ġbeers":12584,"ĠFDA":12585,"Ġbatteries":12586,"Ġwishes":12587,"aman":12588,"mn":12589,"Facebook":12590,"Ġoutright":12591,"Ġretreat":12592,"ĠGPU":12593,"ĠSmart":12594,"Ġauction":12595,"ĠKyle":12596,"Ġstabil":12597,"Ġdestroying":12598,"Ġgenerous":12599,"Ġdraws":12600,"ĠHeart":12601,"Ġcomparing":12602,"ĠJets":12603,"Ġfailures":12604,"Ġtragic":12605,"unct":12606,"Ġduration":12607,"las":12608,"abe":12609,"Ġindict":12610,"Ñı":12611,"ĠEvans":12612,"Ġmm":12613,"Ġdiagnosed":12614,"requ":12615,"connect":12616,"aria":12617,"ĠBrandon":12618,"ĠCorbyn":12619,"ĠStorm":12620,"ousing":12621,"Ġscreening":12622,"ĠFig":12623,"Ġexpend":12624,"ĠCry":12625,"Ġroutinely":12626,"ĠRy":12627,"Ġunity":12628,"izable":12629,"TO":12630,"Ġflip":12631,"estone":12632,"ding":12633,"irable":12634,"Ġcompos":12635,"isers":12636,"Ġvegan":12637,"haul":12638,"ĠFranklin":12639,"Ġsuspicion":12640,"Ġnons":12641,"story":12642,"Ġidentification":12643,"nor":12644,"version":12645,"Ġintentions":12646,"Ġfraction":12647,"Black":12648,"Ġquotes":12649,"ĠPhys":12650,"ĠExp":12651,"charge":12652,"Ġcommissioner":12653,"Ġlacking":12654,"Ġworkplace":12655,"Ġinterference":12656,"Ġediting":12657,"urse":12658,"occ":12659,"Ġlicensed":12660,"Ġcreators":12661,"Ġlicensing":12662,"Ġtouchdowns":12663,"Ġnode":12664,"news":12665,"Ġembedded":12666,"aby":12667,"Ġsecrets":12668,"Ġvillages":12669,"ĠBrady":12670,"Ġcredibility":12671,"Ġwarnings":12672,"Ġconclude":12673,"eek":12674,"Ġtreatments":12675,"Ġconsiders":12676,"Ġdisg":12677,"erer":12678,"Ġfrozen":12679,"ardless":12680,"LY":12681,"ĠTun":12682,"Ġanalyt":12683,"ĠNO":12684,"2016":12685,"2014":12686,"Ġtransformed":12687,"Ġbelieving":12688,"ĠRail":12689,"usters":12690,"Ġinstitutional":12691,"ĠLaure":12692,"aa":12693,"Ġlasted":12694,"Ġdemol":12695,"Ġmedian":12696,"Ġpreference":12697,"Ġune":12698,"Ġsmugg":12699,"acceptable":12700,"Ġ68":12701,"Ġnovels":12702,"Ġmasses":12703,"ĠChap":12704,"ĠWWE":12705,"Ġadmits":12706,"Ġwondered":12707,"Ġouter":12708,"Ġslower":12709,"Ġfeared":12710,"Ġgamers":12711,"owell":12712,"Ġdoubled":12713,"ĠMerkel":12714,"Ġinclusion":12715,"Ġmonop":12716,"Ġdiscour":12717,"Ġreun":12718,"oons":12719,"vals":12720,"Ġorganizing":12721,"ĠIan":12722,"Ġseparation":12723,"Ġrecruiting":12724,"ĠVar":12725,"Ġdaughters":12726,"Ġeducated":12727,"ĠGetty":12728,"forcement":12729,"inst":12730,"prising":12731,"Ġentrepreneurs":12732,"Ġrushing":12733,"Ġlaser":12734,"seud":12735,"Ġvel":12736,"ĠDeputy":12737,"Ġbottles":12738,"Ġworkforce":12739,"Ġunveiled":12740,"Ġstreak":12741,"ĠVermont":12742,"eded":12743,"incinn":12744,"Ġencount":12745,"Ġcompound":12746,"Ġaired":12747,"Ġsilly":12748,"earchers":12749,"Ġcounting":12750,"ĠBuffalo":12751,"Ð¼":12752,"Ġencountered":12753,"Ġbless":12754,"ollah":12755,"Ġisolation":12756,"Ġaging":12757,"gree":12758,"Ġgifts":12759,"Ġfence":12760,"https":12761,"Ġincentives":12762,"Ġcounterparts":12763,"FS":12764,"Whether":12765,"Ġenables":12766,"ĠArkansas":12767,"Ġobservation":12768,"Ġacres":12769,"Ġcontacts":12770,"Ġbeneficial":12771,"size":12772,"EG":12773,"Ġsuppose":12774,"Ġtrafficking":12775,"Ġwillingness":12776,"utical":12777,"Ġincentive":12778,"Ġsmartphones":12779,"ordable":12780,"Ġauthorized":12781,"ĠMA":12782,"ernel":12783,"Ġbuttons":12784,"Ġcontam":12785,"Ġcollapsed":12786,"Gu":12787,"Ġdubbed":12788,"aukee":12789,"WA":12790,"Ġinsect":12791,"Ġintroducing":12792,"Ġsooner":12793,"ĠConnecticut":12794,"ĠEnt":12795,"Ġemotion":12796,"ĠPence":12797,"TR":12798,"ĠPhilip":12799,"Ġultra":12800,"Ġdecks":12801,"ello":12802,"Ġvertical":12803,"azy":12804,"astically":12805,"âĦ":12806,"Ġoffset":12807,"Ġshifts":12808,"ĠCentury":12809,"Ġwrestling":12810,"ĠHTML":12811,"Ġfeeding":12812,"Ġjustified":12813,"Ġunh":12814,"Ã£":12815,"Ġreconst":12816,"ĠTemple":12817,"Ġlau":12818,"uri":12819,"incinnati":12820,"obb":12821,"di":12822,"ĠJefferson":12823,"ĠJun":12824,"ĠDoug":12825,"Ġtong":12826,"Ġcheer":12827,"Ġnegotiate":12828,"glas":12829,"Ġsuspicious":12830,"opes":12831,"Ġkingdom":12832,"ĠLiberty":12833,"Ġslave":12834,"itbart":12835,"Ġasc":12836,"ĠWarriors":12837,"ĠGray":12838,"Ġsensor":12839,"tail":12840,"Ġdece":12841,"Ġhelicopter":12842,"oner":12843,"big":12844,"Ġfirmly":12845,"ĠRogers":12846,"Ġexecute":12847,"Ġcompiled":12848,"Ġdenial":12849,"driven":12850,"Ġlengthy":12851,"Ġconnecting":12852,"Ġsponsored":12853,"ĠBears":12854,"ĠBund":12855,"Ġawa":12856,"ĠFried":12857,"Ġmidfielder":12858,"ĠShan":12859,"Ġwarfare":12860,"Ġwallet":12861,"ĠChuck":12862,"Ġeliminated":12863,"Ġsolidarity":12864,"cat":12865,"Ġenhanced":12866,"agraph":12867,"ĠNorway":12868,"Ġdose":12869,"Google":12870,"giving":12871,"ĠPok":12872,"gian":12873,"Ġsheer":12874,"ĠFa":12875,"Ġhors":12876,"ighed":12877,"test":12878,"Ġnan":12879,"Ġgenet":12880,"ĠBou":12881,"ĠDub":12882,"Ġfemales":12883,"Ġrealm":12884,"Ġpilots":12885,"chi":12886,"Ġgravity":12887,"Ġestablishing":12888,"Ġwildlife":12889,"Ġbell":12890,"Ġtrash":12891,"Ġfict":12892,"Ġglob":12893,"Ġappealing":12894,"otton":12895,"Ġcleaning":12896,"Ġeditors":12897,"orph":12898,"Ġdys":12899,"Ġsectors":12900,"raham":12901,"ĠFro":12902,"ĠBuck":12903,"udge":12904,"ĠHolland":12905,"waukee":12906,"Ġconvinc":12907,"advant":12908,"sign":12909,"Ġcivilization":12910,"Ġthreaten":12911,"Ġvisa":12912,"ĠCrit":12913,"Ġvibr":12914,"Ġinvented":12915,"Ġmentally":12916,"Ġaveraged":12917,"Ġendorsed":12918,"Ġpleaded":12919,"Os":12920,"Ġevaluate":12921,"ĠAgainst":12922,"Ġsculpt":12923,"ĠHindu":12924,"Ġcelebrity":12925,"ĠQaeda":12926,"Ġdisappointing":12927,"Ġampl":12928,"Ġinvite":12929,"Ġinvestor":12930,"Ġcreep":12931,"Ġplaint":12932,"heric":12933,"ĠHarvey":12934,"Ġarrangement":12935,"ĠFriends":12936,"Ġpeoples":12937,"Ġtraditions":12938,"ĠColumbus":12939,"ĠSH":12940,"prom":12941,"Ġaccurately":12942,"Ġpreliminary":12943,"Yeah":12944,"gi":12945,"Ġrhyth":12946,"Ġvacation":12947,"ĠPakistani":12948,"Ġverdict":12949,"controlled":12950,"Ġrib":12951,"fold":12952,"ĠBrand":12953,"Ġdiox":12954,"Ġshifting":12955,"ueller":12956,"Ġsteam":12957,"Ġteens":12958,"peror":12959,"Ġindigenous":12960,"Ġcricket":12961,"ĠKarl":12962,"five":12963,"Ġboring":12964,"Ġzomb":12965,"Ġproceedings":12966,"ĠScar":12967,"Ġeleph":12968,"ortheast":12969,"ĠBash":12970,"ĠQual":12971,"Ġunrest":12972,"inance":12973,"Ġfiref":12974,"Ġhence":12975,"ĠSex":12976,"ĠTa":12977,"ĠSide":12978,"Ġamend":12979,"ĠFisher":12980,"ĠTurner":12981,"pop":12982,"iasm":12983,"claimed":12984,"Ġdonation":12985,"Ġimplementing":12986,"Ġbreakdown":12987,"UTERS":12988,"Ġavoiding":12989,"Ġdisorders":12990,"enc":12991,"Ġhill":12992,"Ġriot":12993,"Ġcompassion":12994,"ocker":12995,"ĠRecords":12996,"Ġlawsuits":12997,"Ġcluster":12998,"Ġrenewed":12999,"Ġbranches":13000,"Ġsensors":13001,"Ġvariation":13002,"Ġdamages":13003,"aceutical":13004,"ĠAwards":13005,"Ġbreathing":13006,"Ġlyrics":13007,"ĠNatural":13008,"Ġfundraising":13009,"ĠCrown":13010,"ĠPolish":13011,"Ġoverlook":13012,"Ġmusicians":13013,"Ġclimbing":13014,"Ġdirt":13015,"have":13016,"Ġdetermination":13017,"dale":13018,"Ġmock":13019,"Ġcomparable":13020,"ĠRain":13021,"second":13022,"Ġtraits":13023,"Ġcontinuous":13024,"Ġlikelihood":13025,"Ġaccounting":13026,"oria":13027,"Ġlabels":13028,"Ġseverely":13029,"Ġadequate":13030,"Ġcreativity":13031,"Ġstatistical":13032,"Ġleagues":13033,"Ġmagnitude":13034,"Ġgenerating":13035,"ĠCommunications":13036,"Ġdivers":13037,"Ġ</":13038,"Ñĭ":13039,"iva":13040,"Ġtriple":13041,"ĠCa":13042,"urable":13043,"Ġspecialist":13044,"ĠVerizon":13045,"Ġgrace":13046,"ĠEbola":13047,"rc":13048,"âĦ¢":13049,"ĠKeith":13050,"dam":13051,"umbling":13052,"icials":13053,"ĠMobile":13054,"====":13055,"ĠTable":13056,"Ġpizza":13057,"Ġmarine":13058,"oler":13059,"Ġpsychology":13060,"GM":13061,"wid":13062,"visor":13063,"ĠNixon":13064,"Ġjumping":13065,"ĠTreat":13066,"Sub":13067,"Ġcontinent":13068,"note":13069,"ĠRaven":13070,"Ġtoy":13071,"ĠBuilding":13072,"ĠMormon":13073,"(\"":13074,"Ġcub":13075,"ĠPAC":13076,"Ġshoulders":13077,"Ġprecious":13078,"ĠEli":13079,"Ġwheels":13080,"Time":13081,"ĠEdition":13082,"ĠCz":13083,"Ġfuels":13084,"arest":13085,"Update":13086,"Ġexceptions":13087,"ĠMadison":13088,"Ġtransf":13089,"ĠSciences":13090,"Us":13091,"ateur":13092,"ĠQuest":13093,"Ġcorresponding":13094,"oline":13095,"Ġaccompany":13096,"Ġshed":13097,"ocus":13098,"anka":13099,"Ġtwist":13100,"Ġcounted":13101,"actory":13102,"Ġprohibited":13103,"Ġbust":13104,"Ġbankruptcy":13105,"inging":13106,"Ġmeals":13107,"Ġcorners":13108,"ĠUniverse":13109,"Ġconsultant":13110,"ĠLucas":13111,"Ġfib":13112,"ĠChall":13113,"ĠLebanon":13114,"Ġalbums":13115,"Ġinhib":13116,"Ġsubscription":13117,"Ġscreaming":13118,"Ġcocaine":13119,"Ġinmates":13120,"Ã©s":13121,"enz":13122,"idays":13123,"enna":13124,"ĠRodrig":13125,"ĠMcL":13126,"dig":13127,"âĤ¬":13128,"Ġmotorcy":13129,"Ġanime":13130,"ĠDraft":13131,"ĠIndonesia":13132,"Ġsuperhero":13133,"ĠMorning":13134,"itative":13135,"Ġhoney":13136,"ĠMemorial":13137,"Ġgrain":13138,"Ġcodes":13139,"Ġdivid":13140,"Ġunch":13141,"Ġliterary":13142,"Ġlesser":13143,"Ġbetray":13144,"Ġfolk":13145,"izard":13146,"ĠWithin":13147,"Ġinstruction":13148,"anking":13149,"than":13150,"Ġproblematic":13151,"Ġfilming":13152,"hammad":13153,"White":13154,"perial":13155,"ĠAlt":13156,"kers":13157,"direct":13158,"ĠYahoo":13159,"Clinton":13160,"Ġsnaps":13161,"eor":13162,"fs":13163,"Ġregards":13164,"pace":13165,"aghd":13166,"Ġagrees":13167,"Ġmagnetic":13168,"wal":13169,"ĠRams":13170,"Islam":13171,"ĠCelt":13172,"ĠIslands":13173,"Ġdism":13174,"Ġspare":13175,"Ġpartial":13176,"ĠImp":13177,"Ġdumb":13178,"anium":13179,"Ġoffshore":13180,"Ġworn":13181,"ĠResp":13182,"ĠSupport":13183,"points":13184,"ĠCarson":13185,"Ġautonomous":13186,"ĠSusan":13187,"Ġsupportive":13188,"Ġadaptation":13189,"Ġpurchasing":13190,"Supp":13191,"Ġcents":13192,"ĠPed":13193,"avor":13194,"Ġconsumed":13195,"iph":13196,"Ġcostly":13197,"ugged":13198,"Ġteenage":13199,"DE":13200,"ĠCambridge":13201,"ulative":13202,"opard":13203,"Ġtriumph":13204,"Ġ1982":13205,"ĠCorn":13206,"ĠNeil":13207,"Ġhed":13208,"Ġreflection":13209,"funded":13210,"arents":13211,"plan":13212,"stage":13213,"Ġtranslated":13214,"var":13215,"normal":13216,"Ġaffecting":13217,"Ġshaped":13218,"Book":13219,"Ġmatching":13220,"Euro":13221,"Ġmobil":13222,"main":13223,"Ġthirty":13224,"Ġpublishers":13225,"ĠGarden":13226,"ulent":13227,"ĠBrazilian":13228,"Ġarmor":13229,"Ġmaker":13230,"ĠParenthood":13231,"iots":13232,"ocumented":13233,"ella":13234,"Ġ!":13235,"ĠEc":13236,"ĠPrize":13237,"Ġveto":13238,"Ġwherever":13239,"Ġmarry":13240,"eches":13241,"ĠCincinnati":13242,"Ġearthquake":13243,"len":13244,"uto":13245,"ĠBos":13246,"ĠKrist":13247,"Ġmetab":13248,"artisan":13249,"->":13250,"Bre":13251,"ĠColomb":13252,"Ġskilled":13253,"Ġslip":13254,"ĠWikipedia":13255,"Ġprivately":13256,"Ġlip":13257,"Ġforming":13258,"ĠSox":13259,"ĠFiref":13260,"acious":13261,"arthy":13262,"itated":13263,"Ġpresc":13264,"lem":13265,"ĠThunder":13266,"Ġ);":13267,"Ġinfamous":13268,"Ġaggression":13269,"Ġpupp":13270,"Ġindirect":13271,"Ġpaths":13272,"Ġreply":13273,"Ġwooden":13274,"gov":13275,"Ġcycling":13276,"ellar":13277,"Ġunderway":13278,"Ġassumptions":13279,"neath":13280,"âĢĲ":13281,"group":13282,"dated":13283,"ĠCharlotte":13284,"Ġsheriff":13285,"Ġfarming":13286,"ĠCampaign":13287,"ignt":13288,"Ġblacks":13289,"ivic":13290,"oubted":13291,"Ġhalt":13292,"tech":13293,"Ġdecreased":13294,"Ġhij":13295,"Ġobserve":13296,"Second":13297,"ĠCowboys":13298,"ĠMaria":13299,"Ġcolonial":13300,"Ġcrying":13301,"Ġtestified":13302,"Ġunanim":13303,"ĠBradley":13304,"Ġchains":13305,"Ġinappropriate":13306,"Ġbrave":13307,"Ġimpress":13308,"Ġtradem":13309,"Ġmerc":13310,"Ġsuits":13311,"ĠAnti":13312,"Ġ76":13313,"Ġprest":13314,"anked":13315,"ifting":13316,"munition":13317,"Ġorganize":13318,"Ġpractically":13319,"writer":13320,"ĠBh":13321,"orical":13322,"Ġdioxide":13323,"Ġlocally":13324,"Ġnominated":13325,"ĠArthur":13326,"ĠNav":13327,"ĠInvalid":13328,"Ġlocals":13329,"Ġshootings":13330,"Ġobligation":13331,"Ġlimiting":13332,"Ġtrace":13333,"Ġfuneral":13334,"ĠPrin":13335,"Ġthoroughly":13336,"Ġjew":13337,"Ġcorporation":13338,"Ġfrustrating":13339,"ppy":13340,"Ġresignation":13341,"Ġportfolio":13342,"mi":13343,"Ġbuses":13344,"Ġescaped":13345,"Further":13346,"Ġ1983":13347,"Ġaccommodate":13348,"arming":13349,"Ġ1920":13350,"selling":13351,"Ġreasoning":13352,"Men":13353,"rien":13354,"Ġphotographer":13355,"Ġobservers":13356,"Ġairline":13357,"Ġcommented":13358,"ĠOliver":13359,"ĠSalt":13360,"Ġrepublic":13361,"Ġconsolid":13362,"iliation":13363,"ĠPap":13364,"Ġroyal":13365,"ailable":13366,"UC":13367,"Ġmonsters":13368,"kees":13369,"oni":13370,"ulum":13371,"opyright":13372,"Ġbroadband":13373,"Br":13374,"olk":13375,"Ġclassical":13376,"ublished":13377,"ĠRobin":13378,"Americans":13379,"ĠEmb":13380,"Ġintercept":13381,"Ġeighth":13382,"Ġterminal":13383,"Pre":13384,"ĠSong":13385,"Ġdelays":13386,"Em":13387,"ĠFind":13388,"ĠDanny":13389,"iosity":13390,"Ġorchest":13391,"Ġlinebacker":13392,"Ġabused":13393,"Ġdemonstrations":13394,"ĠOR":13395,"Ġesp":13396,"Ġslaves":13397,"Ġadmission":13398,"Ġinteractive":13399,"Ġsail":13400,"ublin":13401,"redict":13402,"alog":13403,"Ġexhaust":13404,"coins":13405,"Ġcertificate":13406,"resa":13407,"Ġshore":13408,"alking":13409,"Ġcaps":13410,"Ġswimming":13411,"iang":13412,"ART":13413,"ĠFinance":13414,"ĠSmall":13415,"Ġattacker":13416,"ĠPeters":13417,"ĠBelgium":13418,"viol":13419,"ĠRound":13420,"NT":13421,"Ġexpose":13422,"Ġrecalls":13423,"Ġinevitably":13424,"map":13425,"Ġfundamentally":13426,"Ġrebell":13427,"mouth":13428,"Ġtribal":13429,"Ġathlete":13430,"ĠHomeland":13431,"Ġcrashed":13432,"amps":13433,"Ġorigins":13434,"isible":13435,"aley":13436,"ĠEarly":13437,"lett":13438,"Ġinsure":13439,"ĠREUTERS":13440,"View":13441,"Ġterritories":13442,"ĠSource":13443,"Ġswitched":13444,"Ġembassy":13445,"ĠTory":13446,"Ġrelating":13447,"esis":13448,"leton":13449,"Ġstraightforward":13450,"Ġ''":13451,"Ġtemple":13452,"bull":13453,"ĠLeaf":13454,"Ġtrauma":13455,"cker":13456,"adows":13457,"Ġdealers":13458,"Ġmounted":13459,"ĠFantasy":13460,"utter":13461,"Ġ00":13462,"Ġintend":13463,"Ġwreck":13464,"Ġencryption":13465,"Ġlecture":13466,"Ġindependently":13467,"formance":13468,"Ġunst":13469,"ĠTob":13470,"string":13471,"roots":13472,"Ġpredomin":13473,"Ġleather":13474,"Ð´":13475,"ĠVery":13476,"remlin":13477,"Ġtemplate":13478,"people":13479,"ioned":13480,"ĠGermans":13481,"Ġinsists":13482,"Ġdisadvant":13483,"ĠTyler":13484,"Ġdesperately":13485,"Ġenthusiasm":13486,"Ġafterwards":13487,"ĠSerge":13488,"ĠACL":13489,"Ġimagined":13490,"ignty":13491,"ĠThor":13492,"cha":13493,"ĠPalestine":13494,"ĠArgentina":13495,"Ġhypothesis":13496,"2013":13497,"Ġ1940":13498,"reach":13499,"Dis":13500,"Ġfame":13501,"wart":13502,"RT":13503,"Ġdescript":13504,"aux":13505,"Ġformerly":13506,"Ġresume":13507,"Ġgarbage":13508,"Ġclassroom":13509,"Ġswift":13510,"ĠPrinc":13511,"Har":13512,"rose":13513,"Ġpitcher":13514,"ucc":13515,"ĠBernard":13516,"ĠDisc":13517,"Ġneat":13518,"start":13519,"ĠArmen":13520,"ĠWr":13521,"Ġaudit":13522,"ĠSuperman":13523,"master":13524,"Ġcelebrating":13525,"Ġpione":13526,"nesty":13527,"insula":13528,"omo":13529,"cules":13530,"Ġlap":13531,"Ġdemographic":13532,"Ġunfold":13533,"Ġcontradict":13534,"Ġleaks":13535,"Ġlayout":13536,"Ġmisleading":13537,"Ġarchae":13538,"ĠMilwaukee":13539,"Ã£o":13540,"ortions":13541,"Ġbillionaire":13542,"Ġhistorian":13543,"render":13544,"Ġstriker":13545,"Ġcarriers":13546,"Ġaccountability":13547,"Ġwidth":13548,"Ġqualities":13549,"Ġpub":13550,"Ġspill":13551,"Muslim":13552,"Ġrelies":13553,"CNN":13554,"ocaly":13555,"ĠRosen":13556,"Ġloyalty":13557,"ĠBeh":13558,"ĠJu":13559,"Ġalternate":13560,"Ġcra":13561,"Ġdeclining":13562,"ĠHills":13563,"uity":13564,"ĠKoch":13565,"Ġkillings":13566,"Ġwhilst":13567,"olo":13568,"Ġoutbreak":13569,"Ġstatue":13570,"Ġpredictions":13571,"ĠMilitary":13572,"Michael":13573,"Ġsounded":13574,"ĠBroncos":13575,"olutions":13576,"Ġmatched":13577,"ĠStudios":13578,"ĠGarc":13579,"ittees":13580,"Ġdangers":13581,"Ġvulnerability":13582,"Ġvegetables":13583,"Ġtub":13584,"ĠBond":13585,"Ġmidst":13586,"Ġtatt":13587,"lie":13588,"qual":13589,"Ġexpressing":13590,"ĠSeah":13591,"ĠDE":13592,"ĠEss":13593,"KE":13594,"Ġbite":13595,"illo":13596,"oubtedly":13597,"Ġboyfriend":13598,"ĠSM":13599,"Ġsearches":13600,"Ġlocker":13601,"Ġresponsibilities":13602,"igma":13603,"airy":13604,"Ġdisclose":13605,"Ġdrought":13606,"ĠPur":13607,"Ġreinfor":13608,"Name":13609,"Ġexercises":13610,"riving":13611,"Red":13612,"ĠTransportation":13613,"ĠSunni":13614,"Ġpresidents":13615,"Ġorg":13616,"Ġspawn":13617,"Ġsubstantially":13618,"Ġdiabetes":13619,"Ġpants":13620,"Ġprox":13621,"issance":13622,"pelled":13623,"store":13624,"Ġfulfill":13625,"Ġdoctrine":13626,"Pat":13627,"ĠBros":13628,"Ġunle":13629,"ĠTeh":13630,"Ġmetres":13631,"Ġfreshman":13632,"Ġrankings":13633,"Thanks":13634,"Ġoutdoor":13635,"hal":13636,"ĠFel":13637,"health":13638,"ĠDom":13639,"ĠGlenn":13640,"ĠPlanned":13641,"ĠURL":13642,"Ġgray":13643,"Ġregulate":13644,"ĠUniversal":13645,"Å¡":13646,"Ġconvey":13647,"Ġspectacular":13648,"Ġelaborate":13649,"Ġignoring":13650,"Ġaddict":13651,"ĠSad":13652,"Ġcod":13653,"fil":13654,"ĠGonz":13655,"thirds":13656,"Semit":13657,"Ġmanages":13658,"Ġloving":13659,"Ġsisters":13660,"Ġgrat":13661,"Ġburg":13662,"ĠKit":13663,"ĠFigure":13664,"ĠMM":13665,"Ġedges":13666,"Ġeffectiveness":13667,"andy":13668,"respons":13669,"Ġdemon":13670,"Ġalgorithms":13671,"hner":13672,"ĠHighway":13673,"ĠOd":13674,"ĠGoldman":13675,"Ġadmin":13676,"Ġexagger":13677,"Ġstays":13678,"affe":13679,"aters":13680,"Ġdarkness":13681,"ĠWrit":13682,"Ġconsiderably":13683,"Ġseiz":13684,"Ġbehaviors":13685,"Ġlasting":13686,"exus":13687,"Ġammunition":13688,"Media":13689,"Ġsacred":13690,"Ġorganizers":13691,"ICE":13692,"Ġdelicious":13693,"Ġexceptional":13694,"represent":13695,"ĠBudget":13696,"ĠMission":13697,"Ġvessel":13698,"puted":13699,"Ġcharts":13700,"Mon":13701,"ĠKam":13702,"Ġbesides":13703,"Ġbriefing":13704,"olphins":13705,"ĠWATCH":13706,"Ġholy":13707,"plex":13708,"Ġprejud":13709,"Asked":13710,"Ġleaf":13711,"ĠGates":13712,"ĠSA":13713,"Ġ1967":13714,"Ġteenagers":13715,"Ġtrap":13716,"uum":13717,"Ġcompatible":13718,"ĠAFP":13719,"je":13720,"Ġfriendship":13721,"Ġuncons":13722,"Ġchemistry":13723,"wealth":13724,"Ġexhibition":13725,"Ġsie":13726,"code":13727,"Trans":13728,"Ġ1981":13729,"idges":13730,"Such":13731,"ĠJake":13732,"âĶ":13733,"Ġaide":13734,"Ġrated":13735,"abul":13736,"CD":13737,"Ġmilitant":13738,"ocaust":13739,"Ġarranged":13740,"Ġnull":13741,"Ġrubber":13742,"levant":13743,"ĠWeiss":13744,"inos":13745,"Ġadjusted":13746,"Ġdated":13747,"Indeed":13748,"Ġincumb":13749,"ĠCho":13750,"ĠHub":13751,"Ġlaboratory":13752,"Ġmaintains":13753,"ugging":13754,"Ġdenying":13755,"Ġhealing":13756,"Ġgenuinely":13757,"Ġapology":13758,"Gl":13759,"ĠArticle":13760,"illery":13761,"Ġox":13762,"ĠCass":13763,"ĠHunt":13764,"feld":13765,"Ġaccidentally":13766,"Ġmph":13767,"Ġtimeline":13768,"Ġcort":13769,"Ġpermanently":13770,"Ġobligations":13771,"ĠElsa":13772,"iop":13773,"Ġconfusing":13774,"Russian":13775,"Ġevaluation":13776,"pur":13777,"Ġshy":13778,"Ġpartisan":13779,"orns":13780,"Qaeda":13781,"ĠLiberals":13782,"rape":13783,"ĠHP":13784,"ĠGPS":13785,"Ġinch":13786,"four":13787,"Ġpile":13788,"home":13789,"bean":13790,"Ġexamination":13791,"ĠMarco":13792,"ervation":13793,"Ġinability":13794,"Ġmeg":13795,"Ġconsume":13796,"Ġmedication":13797,"Ġ69":13798,"Ġmisconduct":13799,"Ġdispens":13800,"degree":13801,"ĠAw":13802,"py":13803,"Ġskeptical":13804,"ĠFormer":13805,"marks":13806,"Ġschemes":13807,"esity":13808,"Ġgovernance":13809,"Ġinhabit":13810,"ĠAth":13811,"Good":13812,"mons":13813,"Ġoverhaul":13814,"oping":13815,"gt":13816,"Ġraped":13817,"ĠJoy":13818,"ĠConfeder":13819,"Ġnit":13820,"rament":13821,"urring":13822,"Ġgods":13823,"Ġcher":13824,"MAN":13825,"Ġgarage":13826,"Ġoccurring":13827,"Ġwithdrawal":13828,"ĠPlayers":13829,"ĠAMD":13830,"Ġbloody":13831,"usterity":13832,"Ġpreseason":13833,"Ġunlimited":13834,"Ġcontractors":13835,"Ġtackles":13836,"irk":13837,"Ġmonument":13838,"ĠAnne":13839,"Ġbikes":13840,"World":13841,"Ġencl":13842,"Ġfines":13843,"Ġmemorial":13844,"ĠDouglas":13845,"pse":13846,"Ġports":13847,"Ġspends":13848,"Ġrisen":13849,"Ġclosure":13850,"ĠSilicon":13851,"ĠRepresentatives":13852,"Ġtoys":13853,"his":13854,"Ġquo":13855,"ĠRC":13856,"Ġ1968":13857,"Ġnegotiating":13858,"pered":13859,"ctive":13860,"Ġsexuality":13861,"ÂĶ":13862,"ĠPokÃ©":13863,"Ġphotography":13864,"east":13865,"Ġsubscribing":13866,"IDS":13867,"Ġplea":13868,"ĠMueller":13869,"Ġnewest":13870,"ĠMuhammad":13871,"Ġlabeled":13872,"zo":13873,"azing":13874,"Ġedited":13875,"Ġfilmed":13876,"Ġdiagnosis":13877,"Ġvon":13878,"Ġhood":13879,"Ġsink":13880,"Ġaltered":13881,"ahn":13882,"Ġsuccessor":13883,"Ġanonymity":13884,"Ġautomated":13885,"Ġrevised":13886,"ĠBulls":13887,"llo":13888,"Ġcoastal":13889,"asi":13890,"Ġvictories":13891,"ften":13892,"Ġinfer":13893,"Ġreduces":13894,"runner":13895,"Ġpseud":13896,"ĠÐ¿":13897,"Ġspeeches":13898,"Ġshipped":13899,"ĠSomething":13900,"Ġstrictly":13901,"Ġspite":13902,"Ġaggreg":13903,"Ġmortality":13904,"ĠCON":13905,"ĠGuy":13906,"data":13907,"ocity":13908,"mile":13909,"ĠTill":13910,"Ġdetection":13911,"Ġoutlined":13912,"Ġattributes":13913,"Ġdemonstrates":13914,"ĠNin":13915,"Ġbipartisan":13916,"writing":13917,"alin":13918,"Ġforums":13919,"mination":13920,"ĠPalin":13921,"Ġcredential":13922,"List":13923,"Ġunacceptable":13924,"istically":13925,"Ġbelongs":13926,"Ġempower":13927,"essional":13928,"gel":13929,"ĠGlass":13930,"ĠObviously":13931,"ĠExchange":13932,"ĠVikings":13933,"Ġlaughing":13934,"agging":13935,"Ġstepping":13936,"ifferent":13937,"ĠLuck":13938,"Ġquad":13939,"Ġsanct":13940,"Ġreasonably":13941,"aws":13942,"Ġproc":13943,"ĠNDP":13944,"Ġchase":13945,"Ġdefining":13946,"ĠRaiders":13947,"Ġvolumes":13948,"INGTON":13949,"Ġprescription":13950,"ĠWalter":13951,"Hill":13952,"ĠSeahawks":13953,"Never":13954,"hew":13955,"Sometimes":13956,"Ġdivisions":13957,"Ġhearings":13958,"ĠCuban":13959,"Ġspotlight":13960,"La":13961,"Ġembraced":13962,"ppo":13963,"ĠFarm":13964,"ailand":13965,"Ġtwin":13966,"ĠBreitbart":13967,"actic":13968,"source":13969,"ĠMD":13970,"working":13971,"ĠEdd":13972,"roller":13973,"Ġlegislators":13974,"ĠSolar":13975,"Ġhungry":13976,"ĠMMA":13977,"Ġunderneath":13978,"Ġbedroom":13979,"dev":13980,"Ġheter":13981,"public":13982,"Ġfancy":13983,"War":13984,"Ġadvers":13985,"Post":13986,"Ġmedal":13987,"Ġshutdown":13988,"file":13989,"chair":13990,"engu":13991,"Ġfiber":13992,"Ġartic":13993,"Russia":13994,"Ġfoul":13995,"Ġmature":13996,"ĠSubscribe":13997,"Ġedit":13998,"Ġfelony":13999,"iking":14000,"Ġkills":14001,"Ġlibertarian":14002,"Ġrelate":14003,"ĠVi":14004,"Ġpublications":14005,"ĠDublin":14006,"Ġflowers":14007,"proof":14008,"ĠClar":14009,"Ġdisk":14010,"Ġimpe":14011,"Ġdrilling":14012,"stitutional":14013,"ĠSenior":14014,"Ġoutlet":14015,"ĠMason":14016,"Ġlined":14017,"Ġprocessed":14018,"Ġlicenses":14019,"ĠStudio":14020,"Ġelectronics":14021,"uitive":14022,"Ġvariations":14023,"ĠHockey":14024,"EE":14025,"iche":14026,"ĠJoh":14027,"shirt":14028,"Ġspirits":14029,"auer":14030,"inate":14031,"ĠRico":14032,"Ġfrankly":14033,"Ġtourism":14034,"Ġspecified":14035,"Ġskull":14036,"Ġsolved":14037,"elta":14038,"ĠChile":14039,"Ġvendors":14040,"Ġdirectory":14041,"ĠMort":14042,"Sch":14043,"Ġmeasurements":14044,"olan":14045,"Ġfacilitate":14046,"ĠLED":14047,"Ġlib":14048,"Ġsporting":14049,"ĠIsa":14050,"ĠText":14051,"Ġloses":14052,"ĠJa":14053,"Ġconfronted":14054,"Ġ77":14055,"Ġsurveys":14056,"ÑĮ":14057,"Ġaboard":14058,"Ġsells":14059,"Ġheroin":14060,"ĠLane":14061,"Ġluc":14062,"Ġnamely":14063,"vol":14064,"Ġflows":14065,"Ġmalware":14066,"anth":14067,"Ġ1976":14068,"Ġpiv":14069,"Ġsovereignty":14070,"Ġ1973":14071,"nik":14072,"Ġrestored":14073,"Ġbacklash":14074,"ĠDenmark":14075,"ĠBlair":14076,"aton":14077,"Ġsalaries":14078,"Ġmarketplace":14079,"Ġsubjected":14080,"Ġ1972":14081,"Ġquery":14082,"Ġboats":14083,"Ġwip":14084,"Ġwand":14085,"ĠSpirit":14086,"Ġbattlefield":14087,"urrently":14088,"days":14089,"Ġrage":14090,"Ġlacks":14091,"Ġlegitim":14092,"Ġcorrid":14093,"aires":14094,"Ġ`":14095,"wear":14096,"Ġsect":14097,"Ġsweeping":14098,"ranean":14099,"Ġstreams":14100,"ulsion":14101,"ĠZh":14102,"Ġcargo":14103,"ĠKle":14104,"ĠBrooks":14105,"ĠUbuntu":14106,"Ġtolerance":14107,"Ġpuzzle":14108,"Ġleap":14109,"ĠAlf":14110,"Ġsignatures":14111,"Ġmidnight":14112,"ĠVeter":14113,"Ġsubmar":14114,"ĠON":14115,"Ġsymbols":14116,"ĠJohnny":14117,"Ġrefusal":14118,"Ġguilt":14119,"Ġcancelled":14120,"Mal":14121,"vious":14122,"Ġvessels":14123,"Ġpremier":14124,"uv":14125,"Ġlisting":14126,"Ġpipe":14127,"Ġbureaucrat":14128,"Ġmelt":14129,"ĠCommerce":14130,"Ġdisclosed":14131,"ĠGhost":14132,"ĠBased":14133,"supported":14134,"table":14135,"rer":14136,"ĠBJP":14137,"Ġhorses":14138,"Ġdash":14139,"Ġparagraph":14140,"anto":14141,"Ġconcess":14142,"Take":14143,
[...]
